{
  "version": "1.0",
  "truncation": null,
  "padding": null,
  "added_tokens": [
    {
      "id": 0,
      "content": "<unk>",
      "single_word": false,
      "lstrip": false,
      "rstrip": false,
      "normalized": false,
      "special": true
    },
    {
      "id": 1,
      "content": "<s>",
      "single_word": false,
      "lstrip": false,
      "rstrip": false,
      "normalized": false,
      "special": true
    },
    {
      "id": 2,
      "content": "</s>",
      "single_word": false,
      "lstrip": false,
      "rstrip": false,
      "normalized": false,
      "special": true
    }
  ],
  "normalizer": {
    "type": "Sequence",
    "normalizers": [
      {
        "type": "Prepend",
        "prepend": "▁"
      },
      {
        "type": "Replace",
        "pattern": {
          "String": " "
        },
        "content": "▁"
      }
    ]
  },
  "pre_tokenizer": {
    "type": "Sequence",
    "pretokenizers": [
      {
        "type": "Split",
        "pattern": {
          "Regex": "▁"
        },
        "behavior": "MergedWithNext",
        "invert": false
      },
      {
        "type": "Split",
        "pattern": {
          "Regex": "▁*(\\w+|[^\\w\\s]+)"
        },
        "behavior": "Isolated",
        "invert": false
      }
    ]
  },
  "post_processor": null,
  "decoder": {
    "type": "Sequence",
    "decoders": [
      {
        "type": "Replace",
        "pattern": {
          "String": "▁"
        },
        "content": " "
      },
      {
        "type": "ByteFallback"
      },
      {
        "type": "Fuse"
      },
      {
        "type": "Strip",
        "content": " ",
        "start": 1,
        "stop": 0
      }
    ]
  },
  "model": {
    "type": "BPE",
    "dropout": null,
    "unk_token": "<unk>",
    "continuing_subword_prefix": null,
    "end_of_word_suffix": null,
    "fuse_unk": true,
    "byte_fallback": true,
    "vocab": {
      "<unk>": 0,
      "<s>": 1,
      "</s>": 2,
      "\u0002": 3,
      "\t": 4,
      "\n": 5,
      "!": 6,
      "\"": 7,
      "#": 8,
      "$": 9,
      "%": 10,
      "&": 11,
      "'": 12,
      "(": 13,
      ")": 14,
      "*": 15,
      "+": 16,
      ",": 17,
      "-": 18,
      ".": 19,
      "/": 20,
      "0": 21,
      "1": 22,
      "2": 23,
      "3": 24,
      "4": 25,
      "5": 26,
      "6": 27,
      "7": 28,
      "8": 29,
      "9": 30,
      ":": 31,
      ";": 32,
      "<": 33,
      "=": 34,
      ">": 35,
      "?": 36,
      "@": 37,
      "A": 38,
      "B": 39,
      "C": 40,
      "D": 41,
      "E": 42,
      "F": 43,
      "G": 44,
      "H": 45,
      "I": 46,
      "J": 47,
      "K": 48,
      "L": 49,
      "M": 50,
      "N": 51,
      "O": 52,
      "P": 53,
      "Q": 54,
      "R": 55,
      "S": 56,
      "T": 57,
      "U": 58,
      "V": 59,
      "W": 60,
      "X": 61,
      "Y": 62,
      "Z": 63,
      "[": 64,
      "\\": 65,
      "]": 66,
      "^": 67,
      "_": 68,
      "`": 69,
      "a": 70,
      "b": 71,
      "c": 72,
      "d": 73,
      "e": 74,
      "f": 75,
      "g": 76,
      "h": 77,
      "i": 78,
      "j": 79,
      "k": 80,
      "l": 81,
      "m": 82,
      "n": 83,
      "o": 84,
      "p": 85,
      "q": 86,
      "r": 87,
      "s": 88,
      "t": 89,
      "u": 90,
      "v": 91,
      "w": 92,
      "x": 93,
      "y": 94,
      "z": 95,
      "{": 96,
      "|": 97,
      "}": 98,
      "~": 99,
      " ": 100,
      "£": 101,
      "§": 102,
      "©": 103,
      "«": 104,
      "®": 105,
      "°": 106,
      "±": 107,
      "·": 108,
      "»": 109,
      "×": 110,
      "à": 111,
      "á": 112,
      "â": 113,
      "ã": 114,
      "ä": 115,
      "ç": 116,
      "è": 117,
      "é": 118,
      "ê": 119,
      "í": 120,
      "î": 121,
      "ñ": 122,
      "ó": 123,
      "ô": 124,
      "ö": 125,
      "ú": 126,
      "ü": 127,
      "ā": 128,
      "ă": 129,
      "đ": 130,
      "ğ": 131,
      "ı": 132,
      "ş": 133,
      "š": 134,
      "ư": 135,
      "ə": 136,
      "ά": 137,
      "έ": 138,
      "ή": 139,
      "ί": 140,
      "α": 141,
      "β": 142,
      "γ": 143,
      "δ": 144,
      "ε": 145,
      "η": 146,
      "ι": 147,
      "κ": 148,
      "λ": 149,
      "μ": 150,
      "ν": 151,
      "ο": 152,
      "π": 153,
      "ρ": 154,
      "ς": 155,
      "σ": 156,
      "τ": 157,
      "υ": 158,
      "ω": 159,
      "ό": 160,
      "С": 161,
      "а": 162,
      "б": 163,
      "в": 164,
      "г": 165,
      "д": 166,
      "е": 167,
      "ж": 168,
      "з": 169,
      "и": 170,
      "й": 171,
      "к": 172,
      "л": 173,
      "м": 174,
      "н": 175,
      "о": 176,
      "п": 177,
      "р": 178,
      "с": 179,
      "т": 180,
      "у": 181,
      "ф": 182,
      "х": 183,
      "ц": 184,
      "ч": 185,
      "ш": 186,
      "щ": 187,
      "ы": 188,
      "ь": 189,
      "э": 190,
      "ю": 191,
      "я": 192,
      "і": 193,
      "א": 194,
      "ב": 195,
      "ג": 196,
      "ד": 197,
      "ה": 198,
      "ו": 199,
      "ז": 200,
      "ח": 201,
      "ט": 202,
      "י": 203,
      "כ": 204,
      "ל": 205,
      "ם": 206,
      "מ": 207,
      "ן": 208,
      "נ": 209,
      "ס": 210,
      "ע": 211,
      "פ": 212,
      "צ": 213,
      "ק": 214,
      "ר": 215,
      "ש": 216,
      "ת": 217,
      "،": 218,
      "أ": 219,
      "ا": 220,
      "ب": 221,
      "ة": 222,
      "ت": 223,
      "ج": 224,
      "ح": 225,
      "خ": 226,
      "د": 227,
      "ر": 228,
      "ز": 229,
      "س": 230,
      "ش": 231,
      "ص": 232,
      "ط": 233,
      "ع": 234,
      "ف": 235,
      "ق": 236,
      "ك": 237,
      "ل": 238,
      "م": 239,
      "ن": 240,
      "ه": 241,
      "و": 242,
      "ى": 243,
      "ي": 244,
      "ک": 245,
      "ی": 246,
      "ं": 247,
      "अ": 248,
      "ए": 249,
      "क": 250,
      "ग": 251,
      "च": 252,
      "ज": 253,
      "ट": 254,
      "ड": 255,
      "त": 256,
      "द": 257,
      "न": 258,
      "प": 259,
      "ब": 260,
      "म": 261,
      "य": 262,
      "र": 263,
      "ल": 264,
      "व": 265,
      "श": 266,
      "स": 267,
      "ह": 268,
      "ा": 269,
      "ि": 270,
      "ी": 271,
      "ु": 272,
      "े": 273,
      "ै": 274,
      "ो": 275,
      "्": 276,
      "।": 277,
      "ক": 278,
      "ত": 279,
      "ন": 280,
      "ব": 281,
      "য": 282,
      "র": 283,
      "স": 284,
      "া": 285,
      "ি": 286,
      "ে": 287,
      "্": 288,
      "ા": 289,
      "ે": 290,
      "க": 291,
      "த": 292,
      "ி": 293,
      "ு": 294,
      "்": 295,
      "ക": 296,
      "ത": 297,
      "ന": 298,
      "പ": 299,
      "യ": 300,
      "ര": 301,
      "ാ": 302,
      "ി": 303,
      "ു": 304,
      "്": 305,
      "ก": 306,
      "ข": 307,
      "ค": 308,
      "ง": 309,
      "ด": 310,
      "ต": 311,
      "ท": 312,
      "น": 313,
      "บ": 314,
      "ป": 315,
      "ม": 316,
      "ย": 317,
      "ร": 318,
      "ล": 319,
      "ว": 320,
      "ส": 321,
      "ห": 322,
      "อ": 323,
      "ะ": 324,
      "ั": 325,
      "า": 326,
      "ิ": 327,
      "ี": 328,
      "เ": 329,
      "แ": 330,
      "ใ": 331,
      "่": 332,
      "้": 333,
      "์": 334,
      "ာ": 335,
      "ု": 336,
      "း": 337,
      "်": 338,
      "ა": 339,
      "ე": 340,
      "ი": 341,
      "ს": 342,
      "ក": 343,
      "ង": 344,
      "ត": 345,
      "ន": 346,
      "ប": 347,
      "ម": 348,
      "រ": 349,
      "ល": 350,
      "ស": 351,
      "ា": 352,
      "្": 353,
      "ế": 354,
      "–": 355,
      "—": 356,
      "―": 357,
      "‘": 358,
      "’": 359,
      "“": 360,
      "”": 361,
      "•": 362,
      "…": 363,
      "€": 364,
      "℃": 365,
      "™": 366,
      "↑": 367,
      "→": 368,
      "↓": 369,
      "①": 370,
      "②": 371,
      "③": 372,
      "─": 373,
      "▁": 374,
      "■": 375,
      "□": 376,
      "▲": 377,
      "▼": 378,
      "▽": 379,
      "◆": 380,
      "○": 381,
      "●": 382,
      "★": 383,
      "☆": 384,
      "♫": 385,
      "　": 386,
      "、": 387,
      "。": 388,
      "〈": 389,
      "〉": 390,
      "《": 391,
      "》": 392,
      "「": 393,
      "」": 394,
      "『": 395,
      "』": 396,
      "【": 397,
      "】": 398,
      "〔": 399,
      "〕": 400,
      "あ": 401,
      "い": 402,
      "う": 403,
      "か": 404,
      "が": 405,
      "き": 406,
      "く": 407,
      "こ": 408,
      "さ": 409,
      "し": 410,
      "す": 411,
      "た": 412,
      "っ": 413,
      "て": 414,
      "で": 415,
      "と": 416,
      "な": 417,
      "に": 418,
      "の": 419,
      "は": 420,
      "ま": 421,
      "も": 422,
      "ら": 423,
      "り": 424,
      "る": 425,
      "れ": 426,
      "を": 427,
      "ん": 428,
      "ア": 429,
      "イ": 430,
      "ク": 431,
      "ス": 432,
      "ト": 433,
      "ラ": 434,
      "リ": 435,
      "ル": 436,
      "ン": 437,
      "・": 438,
      "ー": 439,
      "㎡": 440,
      "一": 441,
      "丁": 442,
      "七": 443,
      "万": 444,
      "丈": 445,
      "三": 446,
      "上": 447,
      "下": 448,
      "不": 449,
      "与": 450,
      "丑": 451,
      "专": 452,
      "且": 453,
      "世": 454,
      "丘": 455,
      "丙": 456,
      "业": 457,
      "丛": 458,
      "东": 459,
      "丝": 460,
      "丞": 461,
      "丢": 462,
      "两": 463,
      "严": 464,
      "並": 465,
      "丧": 466,
      "丨": 467,
      "个": 468,
      "丫": 469,
      "中": 470,
      "丰": 471,
      "串": 472,
      "临": 473,
      "丸": 474,
      "丹": 475,
      "为": 476,
      "主": 477,
      "丽": 478,
      "举": 479,
      "乃": 480,
      "久": 481,
      "么": 482,
      "义": 483,
      "之": 484,
      "乌": 485,
      "乍": 486,
      "乎": 487,
      "乏": 488,
      "乐": 489,
      "乒": 490,
      "乓": 491,
      "乔": 492,
      "乖": 493,
      "乘": 494,
      "乙": 495,
      "九": 496,
      "乞": 497,
      "也": 498,
      "习": 499,
      "乡": 500,
      "书": 501,
      "买": 502,
      "乱": 503,
      "乳": 504,
      "乾": 505,
      "了": 506,
      "予": 507,
      "争": 508,
      "事": 509,
      "二": 510,
      "于": 511,
      "亏": 512,
      "云": 513,
      "互": 514,
      "五": 515,
      "井": 516,
      "亚": 517,
      "些": 518,
      "亟": 519,
      "亡": 520,
      "交": 521,
      "亥": 522,
      "亦": 523,
      "产": 524,
      "亨": 525,
      "亩": 526,
      "享": 527,
      "京": 528,
      "亭": 529,
      "亮": 530,
      "亲": 531,
      "人": 532,
      "亿": 533,
      "什": 534,
      "仁": 535,
      "仅": 536,
      "仆": 537,
      "仇": 538,
      "今": 539,
      "介": 540,
      "仍": 541,
      "从": 542,
      "仑": 543,
      "仓": 544,
      "仔": 545,
      "仕": 546,
      "他": 547,
      "仗": 548,
      "付": 549,
      "仙": 550,
      "代": 551,
      "令": 552,
      "以": 553,
      "仪": 554,
      "们": 555,
      "仰": 556,
      "仲": 557,
      "件": 558,
      "价": 559,
      "任": 560,
      "份": 561,
      "仿": 562,
      "企": 563,
      "伊": 564,
      "伍": 565,
      "伏": 566,
      "伐": 567,
      "休": 568,
      "众": 569,
      "优": 570,
      "伙": 571,
      "会": 572,
      "伞": 573,
      "伟": 574,
      "传": 575,
      "伤": 576,
      "伦": 577,
      "伪": 578,
      "伯": 579,
      "估": 580,
      "伴": 581,
      "伸": 582,
      "伺": 583,
      "似": 584,
      "伽": 585,
      "但": 586,
      "位": 587,
      "低": 588,
      "住": 589,
      "佐": 590,
      "佑": 591,
      "体": 592,
      "何": 593,
      "余": 594,
      "佛": 595,
      "作": 596,
      "你": 597,
      "佣": 598,
      "佩": 599,
      "佬": 600,
      "佳": 601,
      "使": 602,
      "侃": 603,
      "侄": 604,
      "來": 605,
      "侈": 606,
      "例": 607,
      "侍": 608,
      "供": 609,
      "依": 610,
      "侠": 611,
      "侣": 612,
      "侦": 613,
      "侧": 614,
      "侨": 615,
      "侮": 616,
      "侯": 617,
      "侵": 618,
      "便": 619,
      "促": 620,
      "俄": 621,
      "俊": 622,
      "俏": 623,
      "俗": 624,
      "俘": 625,
      "保": 626,
      "俞": 627,
      "信": 628,
      "俩": 629,
      "俭": 630,
      "修": 631,
      "俯": 632,
      "俱": 633,
      "個": 634,
      "倍": 635,
      "們": 636,
      "倒": 637,
      "倘": 638,
      "候": 639,
      "倚": 640,
      "借": 641,
      "倡": 642,
      "倦": 643,
      "倩": 644,
      "倪": 645,
      "债": 646,
      "值": 647,
      "倾": 648,
      "假": 649,
      "偏": 650,
      "做": 651,
      "停": 652,
      "健": 653,
      "偶": 654,
      "偷": 655,
      "偿": 656,
      "傅": 657,
      "傍": 658,
      "備": 659,
      "储": 660,
      "催": 661,
      "傲": 662,
      "傳": 663,
      "傻": 664,
      "像": 665,
      "僚": 666,
      "僧": 667,
      "僵": 668,
      "僻": 669,
      "儒": 670,
      "儿": 671,
      "允": 672,
      "元": 673,
      "兄": 674,
      "充": 675,
      "兆": 676,
      "先": 677,
      "光": 678,
      "克": 679,
      "免": 680,
      "兑": 681,
      "兔": 682,
      "党": 683,
      "兜": 684,
      "入": 685,
      "內": 686,
      "全": 687,
      "兩": 688,
      "八": 689,
      "公": 690,
      "六": 691,
      "兮": 692,
      "兰": 693,
      "共": 694,
      "关": 695,
      "兴": 696,
      "兵": 697,
      "其": 698,
      "具": 699,
      "典": 700,
      "兹": 701,
      "养": 702,
      "兼": 703,
      "兽": 704,
      "冀": 705,
      "内": 706,
      "冈": 707,
      "冉": 708,
      "册": 709,
      "再": 710,
      "冒": 711,
      "冕": 712,
      "写": 713,
      "军": 714,
      "农": 715,
      "冠": 716,
      "冤": 717,
      "冥": 718,
      "冬": 719,
      "冯": 720,
      "冰": 721,
      "冲": 722,
      "决": 723,
      "况": 724,
      "冶": 725,
      "冷": 726,
      "冻": 727,
      "净": 728,
      "凄": 729,
      "准": 730,
      "凉": 731,
      "凌": 732,
      "减": 733,
      "凑": 734,
      "凝": 735,
      "几": 736,
      "凡": 737,
      "凤": 738,
      "凭": 739,
      "凯": 740,
      "凰": 741,
      "凳": 742,
      "凶": 743,
      "凸": 744,
      "凹": 745,
      "出": 746,
      "击": 747,
      "函": 748,
      "凿": 749,
      "刀": 750,
      "刃": 751,
      "分": 752,
      "切": 753,
      "刊": 754,
      "刑": 755,
      "划": 756,
      "列": 757,
      "刘": 758,
      "则": 759,
      "刚": 760,
      "创": 761,
      "初": 762,
      "删": 763,
      "判": 764,
      "別": 765,
      "利": 766,
      "别": 767,
      "刮": 768,
      "到": 769,
      "制": 770,
      "刷": 771,
      "券": 772,
      "刹": 773,
      "刺": 774,
      "刻": 775,
      "剂": 776,
      "則": 777,
      "削": 778,
      "前": 779,
      "剑": 780,
      "剔": 781,
      "剖": 782,
      "剥": 783,
      "剧": 784,
      "剩": 785,
      "剪": 786,
      "副": 787,
      "割": 788,
      "劈": 789,
      "劉": 790,
      "力": 791,
      "劝": 792,
      "办": 793,
      "功": 794,
      "加": 795,
      "务": 796,
      "劣": 797,
      "动": 798,
      "助": 799,
      "努": 800,
      "劫": 801,
      "励": 802,
      "劲": 803,
      "劳": 804,
      "势": 805,
      "勃": 806,
      "勇": 807,
      "勉": 808,
      "勋": 809,
      "勒": 810,
      "動": 811,
      "勘": 812,
      "勝": 813,
      "募": 814,
      "勢": 815,
      "勤": 816,
      "勺": 817,
      "勾": 818,
      "勿": 819,
      "匀": 820,
      "包": 821,
      "匆": 822,
      "匈": 823,
      "化": 824,
      "北": 825,
      "匙": 826,
      "匠": 827,
      "匪": 828,
      "匹": 829,
      "区": 830,
      "医": 831,
      "匿": 832,
      "十": 833,
      "千": 834,
      "升": 835,
      "午": 836,
      "卉": 837,
      "半": 838,
      "华": 839,
      "协": 840,
      "卑": 841,
      "卒": 842,
      "卓": 843,
      "单": 844,
      "卖": 845,
      "南": 846,
      "博": 847,
      "卜": 848,
      "占": 849,
      "卡": 850,
      "卢": 851,
      "卤": 852,
      "卦": 853,
      "卧": 854,
      "卫": 855,
      "卯": 856,
      "印": 857,
      "危": 858,
      "即": 859,
      "却": 860,
      "卵": 861,
      "卷": 862,
      "卸": 863,
      "卿": 864,
      "厂": 865,
      "厄": 866,
      "厅": 867,
      "历": 868,
      "厉": 869,
      "压": 870,
      "厌": 871,
      "厕": 872,
      "厘": 873,
      "厚": 874,
      "原": 875,
      "厢": 876,
      "厥": 877,
      "厦": 878,
      "厨": 879,
      "去": 880,
      "县": 881,
      "参": 882,
      "參": 883,
      "又": 884,
      "叉": 885,
      "及": 886,
      "友": 887,
      "双": 888,
      "反": 889,
      "发": 890,
      "叔": 891,
      "取": 892,
      "受": 893,
      "变": 894,
      "叙": 895,
      "叛": 896,
      "叠": 897,
      "口": 898,
      "古": 899,
      "句": 900,
      "另": 901,
      "叨": 902,
      "只": 903,
      "叫": 904,
      "召": 905,
      "叭": 906,
      "叮": 907,
      "可": 908,
      "台": 909,
      "史": 910,
      "右": 911,
      "叶": 912,
      "号": 913,
      "司": 914,
      "叹": 915,
      "吁": 916,
      "吃": 917,
      "各": 918,
      "合": 919,
      "吉": 920,
      "吊": 921,
      "同": 922,
      "名": 923,
      "后": 924,
      "吏": 925,
      "吐": 926,
      "向": 927,
      "吓": 928,
      "吕": 929,
      "吗": 930,
      "君": 931,
      "吞": 932,
      "吟": 933,
      "否": 934,
      "吧": 935,
      "吨": 936,
      "含": 937,
      "听": 938,
      "启": 939,
      "吳": 940,
      "吴": 941,
      "吵": 942,
      "吸": 943,
      "吹": 944,
      "吻": 945,
      "吼": 946,
      "吾": 947,
      "呀": 948,
      "呃": 949,
      "呆": 950,
      "呈": 951,
      "告": 952,
      "呐": 953,
      "呕": 954,
      "呗": 955,
      "员": 956,
      "呜": 957,
      "呢": 958,
      "周": 959,
      "味": 960,
      "呵": 961,
      "呼": 962,
      "命": 963,
      "咋": 964,
      "和": 965,
      "咏": 966,
      "咒": 967,
      "咖": 968,
      "咨": 969,
      "咪": 970,
      "咬": 971,
      "咯": 972,
      "咱": 973,
      "咳": 974,
      "咸": 975,
      "咽": 976,
      "哀": 977,
      "品": 978,
      "哄": 979,
      "哇": 980,
      "哈": 981,
      "哉": 982,
      "响": 983,
      "哎": 984,
      "哑": 985,
      "哒": 986,
      "哗": 987,
      "哟": 988,
      "員": 989,
      "哥": 990,
      "哦": 991,
      "哨": 992,
      "哩": 993,
      "哪": 994,
      "哭": 995,
      "哮": 996,
      "哲": 997,
      "哺": 998,
      "哼": 999,
      "唇": 1000,
      "唉": 1001,
      "唐": 1002,
      "唤": 1003,
      "售": 1004,
      "唯": 1005,
      "唱": 1006,
      "商": 1007,
      "啊": 1008,
      "問": 1009,
      "啡": 1010,
      "啤": 1011,
      "啥": 1012,
      "啦": 1013,
      "啪": 1014,
      "啸": 1015,
      "啼": 1016,
      "喀": 1017,
      "喂": 1018,
      "善": 1019,
      "喇": 1020,
      "喉": 1021,
      "喊": 1022,
      "喘": 1023,
      "喜": 1024,
      "喝": 1025,
      "喧": 1026,
      "喵": 1027,
      "喷": 1028,
      "喻": 1029,
      "嗅": 1030,
      "嗓": 1031,
      "嗜": 1032,
      "嗟": 1033,
      "嗣": 1034,
      "嗨": 1035,
      "嗯": 1036,
      "嗽": 1037,
      "嘉": 1038,
      "嘗": 1039,
      "嘘": 1040,
      "嘛": 1041,
      "嘱": 1042,
      "嘲": 1043,
      "嘴": 1044,
      "嘻": 1045,
      "嘿": 1046,
      "器": 1047,
      "噩": 1048,
      "噪": 1049,
      "噶": 1050,
      "嚣": 1051,
      "嚼": 1052,
      "囊": 1053,
      "囚": 1054,
      "四": 1055,
      "回": 1056,
      "因": 1057,
      "团": 1058,
      "园": 1059,
      "困": 1060,
      "围": 1061,
      "固": 1062,
      "国": 1063,
      "图": 1064,
      "圆": 1065,
      "圈": 1066,
      "國": 1067,
      "圖": 1068,
      "土": 1069,
      "圣": 1070,
      "在": 1071,
      "圭": 1072,
      "地": 1073,
      "圳": 1074,
      "场": 1075,
      "圾": 1076,
      "址": 1077,
      "坂": 1078,
      "均": 1079,
      "坊": 1080,
      "坎": 1081,
      "坏": 1082,
      "坐": 1083,
      "坑": 1084,
      "块": 1085,
      "坚": 1086,
      "坛": 1087,
      "坝": 1088,
      "坞": 1089,
      "坟": 1090,
      "坠": 1091,
      "坡": 1092,
      "坤": 1093,
      "坦": 1094,
      "坪": 1095,
      "垂": 1096,
      "垃": 1097,
      "垄": 1098,
      "型": 1099,
      "垒": 1100,
      "垢": 1101,
      "垣": 1102,
      "垫": 1103,
      "垮": 1104,
      "埃": 1105,
      "埋": 1106,
      "城": 1107,
      "埔": 1108,
      "域": 1109,
      "埠": 1110,
      "培": 1111,
      "基": 1112,
      "堂": 1113,
      "堆": 1114,
      "堕": 1115,
      "堡": 1116,
      "堤": 1117,
      "堪": 1118,
      "堰": 1119,
      "報": 1120,
      "場": 1121,
      "堵": 1122,
      "塌": 1123,
      "塑": 1124,
      "塔": 1125,
      "塘": 1126,
      "塞": 1127,
      "填": 1128,
      "境": 1129,
      "墅": 1130,
      "墓": 1131,
      "墙": 1132,
      "增": 1133,
      "墟": 1134,
      "墨": 1135,
      "墩": 1136,
      "壁": 1137,
      "壤": 1138,
      "士": 1139,
      "壬": 1140,
      "壮": 1141,
      "声": 1142,
      "壳": 1143,
      "壶": 1144,
      "壹": 1145,
      "处": 1146,
      "备": 1147,
      "复": 1148,
      "夏": 1149,
      "夕": 1150,
      "外": 1151,
      "多": 1152,
      "夜": 1153,
      "够": 1154,
      "大": 1155,
      "天": 1156,
      "太": 1157,
      "夫": 1158,
      "央": 1159,
      "失": 1160,
      "头": 1161,
      "夷": 1162,
      "夸": 1163,
      "夹": 1164,
      "夺": 1165,
      "奇": 1166,
      "奈": 1167,
      "奉": 1168,
      "奋": 1169,
      "奎": 1170,
      "奏": 1171,
      "契": 1172,
      "奔": 1173,
      "奕": 1174,
      "奖": 1175,
      "套": 1176,
      "奠": 1177,
      "奢": 1178,
      "奥": 1179,
      "女": 1180,
      "奴": 1181,
      "奶": 1182,
      "奸": 1183,
      "她": 1184,
      "好": 1185,
      "如": 1186,
      "妃": 1187,
      "妄": 1188,
      "妆": 1189,
      "妇": 1190,
      "妈": 1191,
      "妊": 1192,
      "妍": 1193,
      "妒": 1194,
      "妓": 1195,
      "妖": 1196,
      "妙": 1197,
      "妞": 1198,
      "妥": 1199,
      "妨": 1200,
      "妮": 1201,
      "妹": 1202,
      "妻": 1203,
      "妾": 1204,
      "姆": 1205,
      "姊": 1206,
      "始": 1207,
      "姐": 1208,
      "姑": 1209,
      "姓": 1210,
      "委": 1211,
      "姚": 1212,
      "姜": 1213,
      "姥": 1214,
      "姨": 1215,
      "姬": 1216,
      "姻": 1217,
      "姿": 1218,
      "威": 1219,
      "娃": 1220,
      "娅": 1221,
      "娇": 1222,
      "娘": 1223,
      "娜": 1224,
      "娟": 1225,
      "娠": 1226,
      "娥": 1227,
      "娱": 1228,
      "娶": 1229,
      "婆": 1230,
      "婉": 1231,
      "婚": 1232,
      "婴": 1233,
      "婷": 1234,
      "婿": 1235,
      "媒": 1236,
      "媚": 1237,
      "媛": 1238,
      "媳": 1239,
      "嫁": 1240,
      "嫂": 1241,
      "嫉": 1242,
      "嫌": 1243,
      "嫣": 1244,
      "嫩": 1245,
      "子": 1246,
      "孔": 1247,
      "孕": 1248,
      "字": 1249,
      "存": 1250,
      "孙": 1251,
      "孜": 1252,
      "孝": 1253,
      "孟": 1254,
      "季": 1255,
      "孤": 1256,
      "学": 1257,
      "孩": 1258,
      "孫": 1259,
      "孰": 1260,
      "孵": 1261,
      "學": 1262,
      "宁": 1263,
      "它": 1264,
      "宅": 1265,
      "宇": 1266,
      "守": 1267,
      "安": 1268,
      "宋": 1269,
      "完": 1270,
      "宏": 1271,
      "宗": 1272,
      "官": 1273,
      "宙": 1274,
      "定": 1275,
      "宛": 1276,
      "宜": 1277,
      "宝": 1278,
      "实": 1279,
      "宠": 1280,
      "审": 1281,
      "客": 1282,
      "宣": 1283,
      "室": 1284,
      "宦": 1285,
      "宪": 1286,
      "宫": 1287,
      "宮": 1288,
      "宰": 1289,
      "害": 1290,
      "宴": 1291,
      "宵": 1292,
      "家": 1293,
      "容": 1294,
      "宽": 1295,
      "宾": 1296,
      "宿": 1297,
      "寂": 1298,
      "寄": 1299,
      "寅": 1300,
      "密": 1301,
      "寇": 1302,
      "富": 1303,
      "寒": 1304,
      "寓": 1305,
      "寝": 1306,
      "寞": 1307,
      "察": 1308,
      "寡": 1309,
      "寥": 1310,
      "實": 1311,
      "寧": 1312,
      "寨": 1313,
      "寸": 1314,
      "对": 1315,
      "寺": 1316,
      "寻": 1317,
      "导": 1318,
      "寿": 1319,
      "封": 1320,
      "射": 1321,
      "将": 1322,
      "將": 1323,
      "尉": 1324,
      "尊": 1325,
      "對": 1326,
      "小": 1327,
      "少": 1328,
      "尔": 1329,
      "尖": 1330,
      "尘": 1331,
      "尚": 1332,
      "尝": 1333,
      "尤": 1334,
      "尧": 1335,
      "尬": 1336,
      "就": 1337,
      "尴": 1338,
      "尸": 1339,
      "尹": 1340,
      "尺": 1341,
      "尼": 1342,
      "尽": 1343,
      "尾": 1344,
      "尿": 1345,
      "局": 1346,
      "屁": 1347,
      "层": 1348,
      "居": 1349,
      "屈": 1350,
      "届": 1351,
      "屋": 1352,
      "屌": 1353,
      "屎": 1354,
      "屏": 1355,
      "屑": 1356,
      "展": 1357,
      "属": 1358,
      "屠": 1359,
      "屡": 1360,
      "履": 1361,
      "屬": 1362,
      "屯": 1363,
      "山": 1364,
      "屿": 1365,
      "岁": 1366,
      "岂": 1367,
      "岐": 1368,
      "岑": 1369,
      "岗": 1370,
      "岚": 1371,
      "岛": 1372,
      "岩": 1373,
      "岭": 1374,
      "岳": 1375,
      "岸": 1376,
      "峡": 1377,
      "峨": 1378,
      "峰": 1379,
      "峻": 1380,
      "崇": 1381,
      "崎": 1382,
      "崔": 1383,
      "崖": 1384,
      "崛": 1385,
      "崩": 1386,
      "嵌": 1387,
      "嵩": 1388,
      "巅": 1389,
      "巍": 1390,
      "川": 1391,
      "州": 1392,
      "巡": 1393,
      "巢": 1394,
      "工": 1395,
      "左": 1396,
      "巧": 1397,
      "巨": 1398,
      "巩": 1399,
      "巫": 1400,
      "差": 1401,
      "己": 1402,
      "已": 1403,
      "巳": 1404,
      "巴": 1405,
      "巷": 1406,
      "巾": 1407,
      "币": 1408,
      "市": 1409,
      "布": 1410,
      "帅": 1411,
      "帆": 1412,
      "师": 1413,
      "希": 1414,
      "帐": 1415,
      "帕": 1416,
      "帖": 1417,
      "帘": 1418,
      "帜": 1419,
      "帝": 1420,
      "带": 1421,
      "師": 1422,
      "席": 1423,
      "帮": 1424,
      "帶": 1425,
      "帷": 1426,
      "常": 1427,
      "帽": 1428,
      "幂": 1429,
      "幅": 1430,
      "幕": 1431,
      "幢": 1432,
      "干": 1433,
      "平": 1434,
      "年": 1435,
      "并": 1436,
      "幸": 1437,
      "幻": 1438,
      "幼": 1439,
      "幽": 1440,
      "幾": 1441,
      "广": 1442,
      "庄": 1443,
      "庆": 1444,
      "庇": 1445,
      "床": 1446,
      "序": 1447,
      "庐": 1448,
      "库": 1449,
      "应": 1450,
      "底": 1451,
      "店": 1452,
      "庙": 1453,
      "庚": 1454,
      "府": 1455,
      "庞": 1456,
      "废": 1457,
      "度": 1458,
      "座": 1459,
      "庭": 1460,
      "庵": 1461,
      "庶": 1462,
      "康": 1463,
      "庸": 1464,
      "廉": 1465,
      "廊": 1466,
      "廓": 1467,
      "廖": 1468,
      "廟": 1469,
      "廣": 1470,
      "延": 1471,
      "廷": 1472,
      "建": 1473,
      "开": 1474,
      "异": 1475,
      "弃": 1476,
      "弄": 1477,
      "弈": 1478,
      "弊": 1479,
      "式": 1480,
      "弓": 1481,
      "引": 1482,
      "弗": 1483,
      "弘": 1484,
      "弟": 1485,
      "张": 1486,
      "弥": 1487,
      "弦": 1488,
      "弧": 1489,
      "弯": 1490,
      "弱": 1491,
      "張": 1492,
      "弹": 1493,
      "强": 1494,
      "归": 1495,
      "当": 1496,
      "录": 1497,
      "形": 1498,
      "彤": 1499,
      "彦": 1500,
      "彩": 1501,
      "彪": 1502,
      "彬": 1503,
      "彭": 1504,
      "彰": 1505,
      "影": 1506,
      "役": 1507,
      "彻": 1508,
      "彼": 1509,
      "往": 1510,
      "征": 1511,
      "径": 1512,
      "待": 1513,
      "很": 1514,
      "徊": 1515,
      "律": 1516,
      "後": 1517,
      "徐": 1518,
      "徒": 1519,
      "得": 1520,
      "徘": 1521,
      "徙": 1522,
      "從": 1523,
      "御": 1524,
      "復": 1525,
      "循": 1526,
      "微": 1527,
      "徳": 1528,
      "德": 1529,
      "徽": 1530,
      "心": 1531,
      "必": 1532,
      "忆": 1533,
      "忌": 1534,
      "忍": 1535,
      "志": 1536,
      "忘": 1537,
      "忙": 1538,
      "忠": 1539,
      "忧": 1540,
      "快": 1541,
      "念": 1542,
      "忽": 1543,
      "怀": 1544,
      "态": 1545,
      "怎": 1546,
      "怒": 1547,
      "怕": 1548,
      "怖": 1549,
      "怜": 1550,
      "思": 1551,
      "怠": 1552,
      "怡": 1553,
      "急": 1554,
      "性": 1555,
      "怨": 1556,
      "怪": 1557,
      "总": 1558,
      "恋": 1559,
      "恍": 1560,
      "恐": 1561,
      "恒": 1562,
      "恕": 1563,
      "恢": 1564,
      "恤": 1565,
      "恨": 1566,
      "恩": 1567,
      "恭": 1568,
      "息": 1569,
      "恰": 1570,
      "恳": 1571,
      "恶": 1572,
      "恼": 1573,
      "悄": 1574,
      "悉": 1575,
      "悍": 1576,
      "悔": 1577,
      "悟": 1578,
      "悠": 1579,
      "患": 1580,
      "悦": 1581,
      "您": 1582,
      "悬": 1583,
      "悲": 1584,
      "悼": 1585,
      "情": 1586,
      "惊": 1587,
      "惑": 1588,
      "惕": 1589,
      "惜": 1590,
      "惟": 1591,
      "惠": 1592,
      "惧": 1593,
      "惨": 1594,
      "惩": 1595,
      "惫": 1596,
      "惭": 1597,
      "惯": 1598,
      "想": 1599,
      "惹": 1600,
      "愁": 1601,
      "愈": 1602,
      "愉": 1603,
      "意": 1604,
      "愚": 1605,
      "愛": 1606,
      "感": 1607,
      "愤": 1608,
      "愧": 1609,
      "愿": 1610,
      "慈": 1611,
      "慌": 1612,
      "慎": 1613,
      "慕": 1614,
      "慢": 1615,
      "慧": 1616,
      "慨": 1617,
      "慰": 1618,
      "慶": 1619,
      "憋": 1620,
      "憾": 1621,
      "懂": 1622,
      "懈": 1623,
      "應": 1624,
      "懒": 1625,
      "懵": 1626,
      "戈": 1627,
      "戊": 1628,
      "戌": 1629,
      "戎": 1630,
      "戏": 1631,
      "成": 1632,
      "我": 1633,
      "戒": 1634,
      "或": 1635,
      "战": 1636,
      "戚": 1637,
      "截": 1638,
      "戰": 1639,
      "戳": 1640,
      "戴": 1641,
      "戶": 1642,
      "户": 1643,
      "房": 1644,
      "所": 1645,
      "扁": 1646,
      "扇": 1647,
      "手": 1648,
      "才": 1649,
      "扎": 1650,
      "扑": 1651,
      "扒": 1652,
      "打": 1653,
      "扔": 1654,
      "托": 1655,
      "扛": 1656,
      "扣": 1657,
      "执": 1658,
      "扩": 1659,
      "扫": 1660,
      "扬": 1661,
      "扭": 1662,
      "扮": 1663,
      "扯": 1664,
      "扰": 1665,
      "扳": 1666,
      "扶": 1667,
      "批": 1668,
      "找": 1669,
      "承": 1670,
      "技": 1671,
      "抄": 1672,
      "把": 1673,
      "抑": 1674,
      "抒": 1675,
      "抓": 1676,
      "投": 1677,
      "抖": 1678,
      "抗": 1679,
      "折": 1680,
      "抚": 1681,
      "抛": 1682,
      "抢": 1683,
      "护": 1684,
      "报": 1685,
      "披": 1686,
      "抬": 1687,
      "抱": 1688,
      "抵": 1689,
      "抹": 1690,
      "押": 1691,
      "抽": 1692,
      "拂": 1693,
      "担": 1694,
      "拆": 1695,
      "拇": 1696,
      "拉": 1697,
      "拌": 1698,
      "拍": 1699,
      "拐": 1700,
      "拒": 1701,
      "拓": 1702,
      "拔": 1703,
      "拖": 1704,
      "拘": 1705,
      "拙": 1706,
      "招": 1707,
      "拜": 1708,
      "拟": 1709,
      "拢": 1710,
      "拥": 1711,
      "拦": 1712,
      "拨": 1713,
      "择": 1714,
      "括": 1715,
      "拭": 1716,
      "拯": 1717,
      "拱": 1718,
      "拳": 1719,
      "拼": 1720,
      "拽": 1721,
      "拾": 1722,
      "拿": 1723,
      "持": 1724,
      "挂": 1725,
      "指": 1726,
      "按": 1727,
      "挑": 1728,
      "挖": 1729,
      "挚": 1730,
      "挠": 1731,
      "挡": 1732,
      "挣": 1733,
      "挤": 1734,
      "挥": 1735,
      "挨": 1736,
      "挪": 1737,
      "挫": 1738,
      "振": 1739,
      "挺": 1740,
      "挽": 1741,
      "捂": 1742,
      "捅": 1743,
      "捆": 1744,
      "捉": 1745,
      "捏": 1746,
      "捐": 1747,
      "捕": 1748,
      "捞": 1749,
      "损": 1750,
      "捡": 1751,
      "换": 1752,
      "捣": 1753,
      "捧": 1754,
      "据": 1755,
      "捷": 1756,
      "掀": 1757,
      "授": 1758,
      "掉": 1759,
      "掌": 1760,
      "掏": 1761,
      "掐": 1762,
      "排": 1763,
      "掘": 1764,
      "掠": 1765,
      "探": 1766,
      "接": 1767,
      "控": 1768,
      "推": 1769,
      "掩": 1770,
      "措": 1771,
      "掷": 1772,
      "掺": 1773,
      "揉": 1774,
      "描": 1775,
      "提": 1776,
      "插": 1777,
      "握": 1778,
      "揣": 1779,
      "揭": 1780,
      "援": 1781,
      "揽": 1782,
      "搁": 1783,
      "搅": 1784,
      "搏": 1785,
      "搓": 1786,
      "搜": 1787,
      "搞": 1788,
      "搬": 1789,
      "搭": 1790,
      "携": 1791,
      "摄": 1792,
      "摆": 1793,
      "摇": 1794,
      "摊": 1795,
      "摔": 1796,
      "摘": 1797,
      "摧": 1798,
      "摩": 1799,
      "摸": 1800,
      "撑": 1801,
      "撒": 1802,
      "撕": 1803,
      "撞": 1804,
      "撤": 1805,
      "撩": 1806,
      "撫": 1807,
      "播": 1808,
      "撰": 1809,
      "撸": 1810,
      "撼": 1811,
      "擅": 1812,
      "擊": 1813,
      "操": 1814,
      "擎": 1815,
      "擒": 1816,
      "據": 1817,
      "擦": 1818,
      "攀": 1819,
      "攒": 1820,
      "支": 1821,
      "收": 1822,
      "改": 1823,
      "攻": 1824,
      "放": 1825,
      "政": 1826,
      "故": 1827,
      "效": 1828,
      "敌": 1829,
      "敏": 1830,
      "救": 1831,
      "教": 1832,
      "敛": 1833,
      "敞": 1834,
      "敢": 1835,
      "散": 1836,
      "敦": 1837,
      "敬": 1838,
      "数": 1839,
      "敲": 1840,
      "整": 1841,
      "敷": 1842,
      "數": 1843,
      "文": 1844,
      "斋": 1845,
      "斌": 1846,
      "斐": 1847,
      "斑": 1848,
      "斗": 1849,
      "料": 1850,
      "斜": 1851,
      "斤": 1852,
      "斥": 1853,
      "斧": 1854,
      "斩": 1855,
      "断": 1856,
      "斯": 1857,
      "新": 1858,
      "方": 1859,
      "於": 1860,
      "施": 1861,
      "旁": 1862,
      "旅": 1863,
      "旋": 1864,
      "旌": 1865,
      "族": 1866,
      "旗": 1867,
      "无": 1868,
      "既": 1869,
      "日": 1870,
      "旦": 1871,
      "旧": 1872,
      "旨": 1873,
      "早": 1874,
      "旬": 1875,
      "旭": 1876,
      "旱": 1877,
      "时": 1878,
      "旷": 1879,
      "旺": 1880,
      "昂": 1881,
      "昆": 1882,
      "昊": 1883,
      "昌": 1884,
      "明": 1885,
      "昏": 1886,
      "易": 1887,
      "昔": 1888,
      "昕": 1889,
      "星": 1890,
      "映": 1891,
      "春": 1892,
      "昧": 1893,
      "昨": 1894,
      "昭": 1895,
      "是": 1896,
      "昼": 1897,
      "显": 1898,
      "時": 1899,
      "晃": 1900,
      "晉": 1901,
      "晋": 1902,
      "晏": 1903,
      "晒": 1904,
      "晓": 1905,
      "晕": 1906,
      "晖": 1907,
      "晗": 1908,
      "晚": 1909,
      "晤": 1910,
      "晦": 1911,
      "晨": 1912,
      "普": 1913,
      "景": 1914,
      "晰": 1915,
      "晴": 1916,
      "晶": 1917,
      "智": 1918,
      "暂": 1919,
      "暇": 1920,
      "暑": 1921,
      "暖": 1922,
      "暗": 1923,
      "暧": 1924,
      "暨": 1925,
      "暮": 1926,
      "暴": 1927,
      "曙": 1928,
      "曝": 1929,
      "曦": 1930,
      "曰": 1931,
      "曲": 1932,
      "更": 1933,
      "書": 1934,
      "曹": 1935,
      "曼": 1936,
      "曾": 1937,
      "替": 1938,
      "最": 1939,
      "會": 1940,
      "月": 1941,
      "有": 1942,
      "朋": 1943,
      "服": 1944,
      "朔": 1945,
      "朕": 1946,
      "朗": 1947,
      "望": 1948,
      "朝": 1949,
      "期": 1950,
      "木": 1951,
      "未": 1952,
      "末": 1953,
      "本": 1954,
      "札": 1955,
      "术": 1956,
      "朱": 1957,
      "朴": 1958,
      "朵": 1959,
      "机": 1960,
      "杀": 1961,
      "杂": 1962,
      "权": 1963,
      "杆": 1964,
      "杉": 1965,
      "李": 1966,
      "杏": 1967,
      "材": 1968,
      "村": 1969,
      "杖": 1970,
      "杜": 1971,
      "杞": 1972,
      "束": 1973,
      "杠": 1974,
      "条": 1975,
      "来": 1976,
      "杨": 1977,
      "杭": 1978,
      "杯": 1979,
      "杰": 1980,
      "東": 1981,
      "松": 1982,
      "板": 1983,
      "极": 1984,
      "构": 1985,
      "枉": 1986,
      "析": 1987,
      "枕": 1988,
      "林": 1989,
      "枚": 1990,
      "果": 1991,
      "枝": 1992,
      "枢": 1993,
      "枣": 1994,
      "枪": 1995,
      "枫": 1996,
      "枯": 1997,
      "架": 1998,
      "柄": 1999,
      "柏": 2000,
      "某": 2001,
      "染": 2002,
      "柔": 2003,
      "柚": 2004,
      "柜": 2005,
      "柠": 2006,
      "查": 2007,
      "柬": 2008,
      "柯": 2009,
      "柱": 2010,
      "柳": 2011,
      "柴": 2012,
      "柿": 2013,
      "栅": 2014,
      "标": 2015,
      "栈": 2016,
      "栋": 2017,
      "栏": 2018,
      "树": 2019,
      "栓": 2020,
      "栖": 2021,
      "栗": 2022,
      "校": 2023,
      "株": 2024,
      "样": 2025,
      "核": 2026,
      "根": 2027,
      "格": 2028,
      "栽": 2029,
      "桂": 2030,
      "桃": 2031,
      "框": 2032,
      "案": 2033,
      "桌": 2034,
      "桐": 2035,
      "桑": 2036,
      "桓": 2037,
      "档": 2038,
      "桥": 2039,
      "桩": 2040,
      "桶": 2041,
      "梁": 2042,
      "梅": 2043,
      "梓": 2044,
      "梗": 2045,
      "梦": 2046,
      "梧": 2047,
      "梨": 2048,
      "梭": 2049,
      "梯": 2050,
      "械": 2051,
      "梳": 2052,
      "梵": 2053,
      "检": 2054,
      "棉": 2055,
      "棋": 2056,
      "棍": 2057,
      "棒": 2058,
      "棕": 2059,
      "棘": 2060,
      "棚": 2061,
      "棠": 2062,
      "森": 2063,
      "棱": 2064,
      "棵": 2065,
      "棺": 2066,
      "椅": 2067,
      "植": 2068,
      "椎": 2069,
      "椒": 2070,
      "椰": 2071,
      "楊": 2072,
      "楚": 2073,
      "楠": 2074,
      "業": 2075,
      "極": 2076,
      "楷": 2077,
      "楼": 2078,
      "概": 2079,
      "榄": 2080,
      "榆": 2081,
      "榜": 2082,
      "榨": 2083,
      "榴": 2084,
      "槐": 2085,
      "槛": 2086,
      "槽": 2087,
      "樂": 2088,
      "樊": 2089,
      "樓": 2090,
      "模": 2091,
      "横": 2092,
      "樱": 2093,
      "橄": 2094,
      "橋": 2095,
      "橘": 2096,
      "橙": 2097,
      "機": 2098,
      "橡": 2099,
      "橱": 2100,
      "檀": 2101,
      "檐": 2102,
      "檬": 2103,
      "欠": 2104,
      "次": 2105,
      "欢": 2106,
      "欣": 2107,
      "欧": 2108,
      "欲": 2109,
      "欺": 2110,
      "款": 2111,
      "歇": 2112,
      "歉": 2113,
      "歌": 2114,
      "止": 2115,
      "正": 2116,
      "此": 2117,
      "步": 2118,
      "武": 2119,
      "歧": 2120,
      "歪": 2121,
      "歲": 2122,
      "歸": 2123,
      "歹": 2124,
      "死": 2125,
      "歼": 2126,
      "殊": 2127,
      "残": 2128,
      "殖": 2129,
      "殡": 2130,
      "殴": 2131,
      "段": 2132,
      "殷": 2133,
      "殺": 2134,
      "殿": 2135,
      "毁": 2136,
      "毅": 2137,
      "毋": 2138,
      "母": 2139,
      "每": 2140,
      "毒": 2141,
      "比": 2142,
      "毕": 2143,
      "毗": 2144,
      "毙": 2145,
      "毛": 2146,
      "毫": 2147,
      "毯": 2148,
      "氏": 2149,
      "民": 2150,
      "氓": 2151,
      "气": 2152,
      "氛": 2153,
      "氟": 2154,
      "氢": 2155,
      "氣": 2156,
      "氧": 2157,
      "氨": 2158,
      "氮": 2159,
      "氯": 2160,
      "水": 2161,
      "永": 2162,
      "汀": 2163,
      "汁": 2164,
      "求": 2165,
      "汇": 2166,
      "汉": 2167,
      "汕": 2168,
      "汗": 2169,
      "汛": 2170,
      "汝": 2171,
      "江": 2172,
      "池": 2173,
      "污": 2174,
      "汤": 2175,
      "汪": 2176,
      "汰": 2177,
      "汶": 2178,
      "決": 2179,
      "汽": 2180,
      "汾": 2181,
      "沁": 2182,
      "沂": 2183,
      "沃": 2184,
      "沈": 2185,
      "沉": 2186,
      "沐": 2187,
      "沒": 2188,
      "沙": 2189,
      "沛": 2190,
      "沟": 2191,
      "没": 2192,
      "沥": 2193,
      "沦": 2194,
      "沧": 2195,
      "沪": 2196,
      "沫": 2197,
      "沮": 2198,
      "河": 2199,
      "沸": 2200,
      "油": 2201,
      "治": 2202,
      "沼": 2203,
      "沽": 2204,
      "沾": 2205,
      "沿": 2206,
      "泄": 2207,
      "泉": 2208,
      "泊": 2209,
      "泌": 2210,
      "法": 2211,
      "泛": 2212,
      "泡": 2213,
      "波": 2214,
      "泣": 2215,
      "泥": 2216,
      "注": 2217,
      "泪": 2218,
      "泰": 2219,
      "泳": 2220,
      "泵": 2221,
      "泸": 2222,
      "泻": 2223,
      "泼": 2224,
      "泽": 2225,
      "洁": 2226,
      "洋": 2227,
      "洒": 2228,
      "洗": 2229,
      "洛": 2230,
      "洞": 2231,
      "津": 2232,
      "洪": 2233,
      "洲": 2234,
      "活": 2235,
      "洼": 2236,
      "洽": 2237,
      "派": 2238,
      "流": 2239,
      "浅": 2240,
      "浆": 2241,
      "浇": 2242,
      "浊": 2243,
      "测": 2244,
      "济": 2245,
      "浏": 2246,
      "浑": 2247,
      "浓": 2248,
      "浙": 2249,
      "浦": 2250,
      "浩": 2251,
      "浪": 2252,
      "浮": 2253,
      "浴": 2254,
      "海": 2255,
      "浸": 2256,
      "涂": 2257,
      "涅": 2258,
      "消": 2259,
      "涉": 2260,
      "涌": 2261,
      "涕": 2262,
      "涛": 2263,
      "涡": 2264,
      "涤": 2265,
      "润": 2266,
      "涧": 2267,
      "涨": 2268,
      "涩": 2269,
      "涯": 2270,
      "液": 2271,
      "涵": 2272,
      "淀": 2273,
      "淇": 2274,
      "淋": 2275,
      "淑": 2276,
      "淘": 2277,
      "淡": 2278,
      "淤": 2279,
      "淫": 2280,
      "淮": 2281,
      "深": 2282,
      "淳": 2283,
      "混": 2284,
      "淹": 2285,
      "添": 2286,
      "清": 2287,
      "渊": 2288,
      "渍": 2289,
      "渐": 2290,
      "渔": 2291,
      "渗": 2292,
      "渝": 2293,
      "渠": 2294,
      "渡": 2295,
      "渣": 2296,
      "渤": 2297,
      "温": 2298,
      "渭": 2299,
      "港": 2300,
      "渲": 2301,
      "渴": 2302,
      "游": 2303,
      "渺": 2304,
      "湃": 2305,
      "湖": 2306,
      "湘": 2307,
      "湛": 2308,
      "湾": 2309,
      "湿": 2310,
      "溃": 2311,
      "源": 2312,
      "溜": 2313,
      "溢": 2314,
      "溪": 2315,
      "溯": 2316,
      "溶": 2317,
      "溺": 2318,
      "滇": 2319,
      "滋": 2320,
      "滑": 2321,
      "滕": 2322,
      "滚": 2323,
      "滞": 2324,
      "满": 2325,
      "滤": 2326,
      "滥": 2327,
      "滨": 2328,
      "滩": 2329,
      "滴": 2330,
      "漂": 2331,
      "漆": 2332,
      "漏": 2333,
      "漓": 2334,
      "演": 2335,
      "漠": 2336,
      "漢": 2337,
      "漫": 2338,
      "漳": 2339,
      "潇": 2340,
      "潘": 2341,
      "潜": 2342,
      "潭": 2343,
      "潮": 2344,
      "澄": 2345,
      "澎": 2346,
      "澜": 2347,
      "澡": 2348,
      "澳": 2349,
      "激": 2350,
      "濒": 2351,
      "濟": 2352,
      "瀑": 2353,
      "灌": 2354,
      "灣": 2355,
      "火": 2356,
      "灭": 2357,
      "灯": 2358,
      "灰": 2359,
      "灵": 2360,
      "灶": 2361,
      "灸": 2362,
      "灼": 2363,
      "灾": 2364,
      "灿": 2365,
      "炉": 2366,
      "炎": 2367,
      "炒": 2368,
      "炖": 2369,
      "炫": 2370,
      "炭": 2371,
      "炮": 2372,
      "炳": 2373,
      "炸": 2374,
      "点": 2375,
      "為": 2376,
      "炼": 2377,
      "烂": 2378,
      "烈": 2379,
      "烘": 2380,
      "烛": 2381,
      "烟": 2382,
      "烤": 2383,
      "烦": 2384,
      "烧": 2385,
      "烫": 2386,
      "热": 2387,
      "烯": 2388,
      "烷": 2389,
      "烹": 2390,
      "焉": 2391,
      "焊": 2392,
      "焕": 2393,
      "焚": 2394,
      "無": 2395,
      "焦": 2396,
      "焰": 2397,
      "然": 2398,
      "煌": 2399,
      "煎": 2400,
      "煞": 2401,
      "煤": 2402,
      "照": 2403,
      "煮": 2404,
      "煲": 2405,
      "熄": 2406,
      "熊": 2407,
      "熏": 2408,
      "熔": 2409,
      "熙": 2410,
      "熟": 2411,
      "熬": 2412,
      "燃": 2413,
      "燕": 2414,
      "營": 2415,
      "燥": 2416,
      "爆": 2417,
      "爪": 2418,
      "爬": 2419,
      "爱": 2420,
      "爵": 2421,
      "父": 2422,
      "爷": 2423,
      "爸": 2424,
      "爹": 2425,
      "爽": 2426,
      "爾": 2427,
      "片": 2428,
      "版": 2429,
      "牌": 2430,
      "牙": 2431,
      "牛": 2432,
      "牟": 2433,
      "牠": 2434,
      "牡": 2435,
      "牢": 2436,
      "牧": 2437,
      "物": 2438,
      "牲": 2439,
      "牵": 2440,
      "特": 2441,
      "牺": 2442,
      "犀": 2443,
      "犬": 2444,
      "犯": 2445,
      "状": 2446,
      "犹": 2447,
      "狂": 2448,
      "狄": 2449,
      "狐": 2450,
      "狗": 2451,
      "狠": 2452,
      "独": 2453,
      "狭": 2454,
      "狮": 2455,
      "狱": 2456,
      "狸": 2457,
      "狼": 2458,
      "猎": 2459,
      "猛": 2460,
      "猜": 2461,
      "猥": 2462,
      "猩": 2463,
      "猪": 2464,
      "猫": 2465,
      "献": 2466,
      "猴": 2467,
      "猶": 2468,
      "猿": 2469,
      "獨": 2470,
      "玄": 2471,
      "率": 2472,
      "玉": 2473,
      "王": 2474,
      "玛": 2475,
      "玩": 2476,
      "玫": 2477,
      "玮": 2478,
      "环": 2479,
      "现": 2480,
      "玲": 2481,
      "玻": 2482,
      "珀": 2483,
      "珊": 2484,
      "珍": 2485,
      "珠": 2486,
      "班": 2487,
      "現": 2488,
      "球": 2489,
      "琅": 2490,
      "理": 2491,
      "琉": 2492,
      "琐": 2493,
      "琢": 2494,
      "琦": 2495,
      "琪": 2496,
      "琳": 2497,
      "琴": 2498,
      "琼": 2499,
      "瑕": 2500,
      "瑚": 2501,
      "瑜": 2502,
      "瑞": 2503,
      "瑟": 2504,
      "瑰": 2505,
      "瑶": 2506,
      "璃": 2507,
      "璐": 2508,
      "璧": 2509,
      "瓜": 2510,
      "瓣": 2511,
      "瓦": 2512,
      "瓶": 2513,
      "瓷": 2514,
      "甄": 2515,
      "甘": 2516,
      "甚": 2517,
      "甜": 2518,
      "生": 2519,
      "用": 2520,
      "甩": 2521,
      "甫": 2522,
      "田": 2523,
      "由": 2524,
      "甲": 2525,
      "申": 2526,
      "电": 2527,
      "男": 2528,
      "甸": 2529,
      "町": 2530,
      "画": 2531,
      "畅": 2532,
      "界": 2533,
      "畏": 2534,
      "畔": 2535,
      "留": 2536,
      "畜": 2537,
      "略": 2538,
      "番": 2539,
      "異": 2540,
      "畴": 2541,
      "當": 2542,
      "畸": 2543,
      "疆": 2544,
      "疏": 2545,
      "疑": 2546,
      "疗": 2547,
      "疡": 2548,
      "疤": 2549,
      "疫": 2550,
      "疮": 2551,
      "疯": 2552,
      "疲": 2553,
      "疹": 2554,
      "疼": 2555,
      "疾": 2556,
      "病": 2557,
      "症": 2558,
      "痒": 2559,
      "痕": 2560,
      "痘": 2561,
      "痛": 2562,
      "痰": 2563,
      "痴": 2564,
      "瘤": 2565,
      "瘦": 2566,
      "瘫": 2567,
      "瘾": 2568,
      "癌": 2569,
      "癸": 2570,
      "登": 2571,
      "發": 2572,
      "白": 2573,
      "百": 2574,
      "皂": 2575,
      "的": 2576,
      "皆": 2577,
      "皇": 2578,
      "皓": 2579,
      "皮": 2580,
      "皱": 2581,
      "盆": 2582,
      "盈": 2583,
      "益": 2584,
      "盎": 2585,
      "盐": 2586,
      "监": 2587,
      "盒": 2588,
      "盔": 2589,
      "盖": 2590,
      "盗": 2591,
      "盘": 2592,
      "盛": 2593,
      "盟": 2594,
      "盡": 2595,
      "監": 2596,
      "目": 2597,
      "盯": 2598,
      "盲": 2599,
      "直": 2600,
      "相": 2601,
      "盼": 2602,
      "盾": 2603,
      "省": 2604,
      "眉": 2605,
      "看": 2606,
      "真": 2607,
      "眠": 2608,
      "眩": 2609,
      "眷": 2610,
      "眼": 2611,
      "眾": 2612,
      "着": 2613,
      "睁": 2614,
      "睐": 2615,
      "睛": 2616,
      "睡": 2617,
      "督": 2618,
      "睦": 2619,
      "睫": 2620,
      "睹": 2621,
      "睿": 2622,
      "瞄": 2623,
      "瞎": 2624,
      "瞒": 2625,
      "瞧": 2626,
      "瞩": 2627,
      "瞬": 2628,
      "瞻": 2629,
      "矛": 2630,
      "矢": 2631,
      "矣": 2632,
      "知": 2633,
      "矩": 2634,
      "矫": 2635,
      "短": 2636,
      "矮": 2637,
      "石": 2638,
      "矶": 2639,
      "矿": 2640,
      "码": 2641,
      "砂": 2642,
      "砌": 2643,
      "砍": 2644,
      "研": 2645,
      "砖": 2646,
      "破": 2647,
      "砸": 2648,
      "础": 2649,
      "硅": 2650,
      "硕": 2651,
      "硝": 2652,
      "硫": 2653,
      "硬": 2654,
      "确": 2655,
      "碌": 2656,
      "碍": 2657,
      "碎": 2658,
      "碑": 2659,
      "碗": 2660,
      "碟": 2661,
      "碧": 2662,
      "碰": 2663,
      "碱": 2664,
      "碳": 2665,
      "碾": 2666,
      "磁": 2667,
      "磅": 2668,
      "磊": 2669,
      "磕": 2670,
      "磨": 2671,
      "磷": 2672,
      "礁": 2673,
      "示": 2674,
      "礼": 2675,
      "社": 2676,
      "祀": 2677,
      "祁": 2678,
      "祈": 2679,
      "祐": 2680,
      "祖": 2681,
      "祛": 2682,
      "祝": 2683,
      "神": 2684,
      "祠": 2685,
      "祥": 2686,
      "票": 2687,
      "祭": 2688,
      "祷": 2689,
      "祸": 2690,
      "祺": 2691,
      "禁": 2692,
      "禄": 2693,
      "禅": 2694,
      "福": 2695,
      "禧": 2696,
      "禮": 2697,
      "禹": 2698,
      "离": 2699,
      "禽": 2700,
      "禾": 2701,
      "秀": 2702,
      "私": 2703,
      "秉": 2704,
      "秋": 2705,
      "种": 2706,
      "科": 2707,
      "秒": 2708,
      "秘": 2709,
      "租": 2710,
      "秤": 2711,
      "秦": 2712,
      "秩": 2713,
      "积": 2714,
      "称": 2715,
      "移": 2716,
      "秽": 2717,
      "稀": 2718,
      "程": 2719,
      "稍": 2720,
      "税": 2721,
      "稚": 2722,
      "稠": 2723,
      "稣": 2724,
      "種": 2725,
      "稱": 2726,
      "稳": 2727,
      "稻": 2728,
      "稽": 2729,
      "稿": 2730,
      "穆": 2731,
      "穗": 2732,
      "穴": 2733,
      "究": 2734,
      "穷": 2735,
      "空": 2736,
      "穿": 2737,
      "突": 2738,
      "窃": 2739,
      "窄": 2740,
      "窍": 2741,
      "窑": 2742,
      "窗": 2743,
      "窜": 2744,
      "窝": 2745,
      "窟": 2746,
      "窥": 2747,
      "窦": 2748,
      "立": 2749,
      "竖": 2750,
      "站": 2751,
      "竞": 2752,
      "竟": 2753,
      "章": 2754,
      "竣": 2755,
      "童": 2756,
      "竭": 2757,
      "端": 2758,
      "竹": 2759,
      "竿": 2760,
      "笋": 2761,
      "笑": 2762,
      "笔": 2763,
      "笛": 2764,
      "符": 2765,
      "笨": 2766,
      "第": 2767,
      "笼": 2768,
      "等": 2769,
      "筋": 2770,
      "筑": 2771,
      "筒": 2772,
      "答": 2773,
      "策": 2774,
      "筛": 2775,
      "筝": 2776,
      "筷": 2777,
      "筹": 2778,
      "签": 2779,
      "简": 2780,
      "算": 2781,
      "管": 2782,
      "箭": 2783,
      "箱": 2784,
      "節": 2785,
      "篇": 2786,
      "篮": 2787,
      "篷": 2788,
      "簧": 2789,
      "簿": 2790,
      "籍": 2791,
      "米": 2792,
      "类": 2793,
      "籽": 2794,
      "粉": 2795,
      "粒": 2796,
      "粗": 2797,
      "粘": 2798,
      "粟": 2799,
      "粤": 2800,
      "粥": 2801,
      "粪": 2802,
      "粮": 2803,
      "粹": 2804,
      "精": 2805,
      "糊": 2806,
      "糕": 2807,
      "糖": 2808,
      "糙": 2809,
      "糟": 2810,
      "糯": 2811,
      "系": 2812,
      "紀": 2813,
      "素": 2814,
      "索": 2815,
      "紧": 2816,
      "紫": 2817,
      "累": 2818,
      "終": 2819,
      "給": 2820,
      "絮": 2821,
      "統": 2822,
      "經": 2823,
      "縣": 2824,
      "總": 2825,
      "繁": 2826,
      "纠": 2827,
      "红": 2828,
      "纤": 2829,
      "约": 2830,
      "级": 2831,
      "纪": 2832,
      "纬": 2833,
      "纯": 2834,
      "纱": 2835,
      "纲": 2836,
      "纳": 2837,
      "纵": 2838,
      "纶": 2839,
      "纷": 2840,
      "纸": 2841,
      "纹": 2842,
      "纺": 2843,
      "纽": 2844,
      "线": 2845,
      "练": 2846,
      "组": 2847,
      "绅": 2848,
      "细": 2849,
      "织": 2850,
      "终": 2851,
      "绍": 2852,
      "绎": 2853,
      "经": 2854,
      "绑": 2855,
      "绒": 2856,
      "结": 2857,
      "绕": 2858,
      "绘": 2859,
      "给": 2860,
      "络": 2861,
      "绝": 2862,
      "绞": 2863,
      "统": 2864,
      "绣": 2865,
      "继": 2866,
      "绩": 2867,
      "绪": 2868,
      "续": 2869,
      "绮": 2870,
      "绯": 2871,
      "绰": 2872,
      "绳": 2873,
      "维": 2874,
      "绵": 2875,
      "绸": 2876,
      "综": 2877,
      "绽": 2878,
      "绿": 2879,
      "缀": 2880,
      "缅": 2881,
      "缆": 2882,
      "缉": 2883,
      "缓": 2884,
      "缔": 2885,
      "缕": 2886,
      "编": 2887,
      "缘": 2888,
      "缚": 2889,
      "缝": 2890,
      "缠": 2891,
      "缩": 2892,
      "缪": 2893,
      "缴": 2894,
      "缸": 2895,
      "缺": 2896,
      "罐": 2897,
      "网": 2898,
      "罕": 2899,
      "罗": 2900,
      "罚": 2901,
      "罢": 2902,
      "罩": 2903,
      "罪": 2904,
      "置": 2905,
      "署": 2906,
      "羁": 2907,
      "羅": 2908,
      "羊": 2909,
      "美": 2910,
      "羞": 2911,
      "羡": 2912,
      "群": 2913,
      "義": 2914,
      "羽": 2915,
      "翁": 2916,
      "翅": 2917,
      "翔": 2918,
      "翘": 2919,
      "翠": 2920,
      "翡": 2921,
      "翩": 2922,
      "翰": 2923,
      "翻": 2924,
      "翼": 2925,
      "耀": 2926,
      "老": 2927,
      "考": 2928,
      "者": 2929,
      "而": 2930,
      "耍": 2931,
      "耐": 2932,
      "耕": 2933,
      "耗": 2934,
      "耳": 2935,
      "耶": 2936,
      "耻": 2937,
      "耽": 2938,
      "耿": 2939,
      "聂": 2940,
      "聆": 2941,
      "聊": 2942,
      "职": 2943,
      "联": 2944,
      "聖": 2945,
      "聘": 2946,
      "聚": 2947,
      "聞": 2948,
      "聪": 2949,
      "聲": 2950,
      "肃": 2951,
      "肆": 2952,
      "肇": 2953,
      "肉": 2954,
      "肋": 2955,
      "肌": 2956,
      "肖": 2957,
      "肘": 2958,
      "肚": 2959,
      "肝": 2960,
      "肠": 2961,
      "股": 2962,
      "肢": 2963,
      "肤": 2964,
      "肥": 2965,
      "肩": 2966,
      "肪": 2967,
      "肯": 2968,
      "育": 2969,
      "肺": 2970,
      "肾": 2971,
      "肿": 2972,
      "胀": 2973,
      "胁": 2974,
      "胃": 2975,
      "胆": 2976,
      "背": 2977,
      "胎": 2978,
      "胖": 2979,
      "胚": 2980,
      "胜": 2981,
      "胞": 2982,
      "胡": 2983,
      "胰": 2984,
      "胳": 2985,
      "胶": 2986,
      "胸": 2987,
      "胺": 2988,
      "能": 2989,
      "脂": 2990,
      "脆": 2991,
      "脉": 2992,
      "脊": 2993,
      "脏": 2994,
      "脐": 2995,
      "脑": 2996,
      "脖": 2997,
      "脚": 2998,
      "脱": 2999,
      "脸": 3000,
      "脾": 3001,
      "腊": 3002,
      "腌": 3003,
      "腐": 3004,
      "腔": 3005,
      "腕": 3006,
      "腥": 3007,
      "腰": 3008,
      "腹": 3009,
      "腺": 3010,
      "腻": 3011,
      "腾": 3012,
      "腿": 3013,
      "膀": 3014,
      "膊": 3015,
      "膏": 3016,
      "膜": 3017,
      "膝": 3018,
      "膨": 3019,
      "膳": 3020,
      "臀": 3021,
      "臂": 3022,
      "臣": 3023,
      "臨": 3024,
      "自": 3025,
      "臭": 3026,
      "至": 3027,
      "致": 3028,
      "舅": 3029,
      "舆": 3030,
      "與": 3031,
      "興": 3032,
      "舉": 3033,
      "舊": 3034,
      "舌": 3035,
      "舍": 3036,
      "舒": 3037,
      "舜": 3038,
      "舞": 3039,
      "舟": 3040,
      "航": 3041,
      "般": 3042,
      "舰": 3043,
      "舱": 3044,
      "舶": 3045,
      "船": 3046,
      "艇": 3047,
      "艘": 3048,
      "良": 3049,
      "艰": 3050,
      "色": 3051,
      "艳": 3052,
      "艺": 3053,
      "艾": 3054,
      "节": 3055,
      "芒": 3056,
      "芙": 3057,
      "芜": 3058,
      "芝": 3059,
      "芦": 3060,
      "芬": 3061,
      "芭": 3062,
      "芯": 3063,
      "花": 3064,
      "芳": 3065,
      "芸": 3066,
      "芹": 3067,
      "芽": 3068,
      "苍": 3069,
      "苏": 3070,
      "苑": 3071,
      "苔": 3072,
      "苗": 3073,
      "苛": 3074,
      "苟": 3075,
      "若": 3076,
      "苦": 3077,
      "苯": 3078,
      "英": 3079,
      "苹": 3080,
      "茂": 3081,
      "范": 3082,
      "茄": 3083,
      "茅": 3084,
      "茎": 3085,
      "茜": 3086,
      "茨": 3087,
      "茫": 3088,
      "茵": 3089,
      "茶": 3090,
      "茹": 3091,
      "荆": 3092,
      "草": 3093,
      "荐": 3094,
      "荒": 3095,
      "荔": 3096,
      "荡": 3097,
      "荣": 3098,
      "荧": 3099,
      "荫": 3100,
      "药": 3101,
      "荷": 3102,
      "莆": 3103,
      "莉": 3104,
      "莎": 3105,
      "莓": 3106,
      "莞": 3107,
      "莫": 3108,
      "莱": 3109,
      "莲": 3110,
      "获": 3111,
      "莹": 3112,
      "莺": 3113,
      "莽": 3114,
      "菇": 3115,
      "菊": 3116,
      "菌": 3117,
      "菜": 3118,
      "菠": 3119,
      "菩": 3120,
      "華": 3121,
      "菱": 3122,
      "菲": 3123,
      "萃": 3124,
      "萄": 3125,
      "萌": 3126,
      "萍": 3127,
      "萎": 3128,
      "萝": 3129,
      "营": 3130,
      "萧": 3131,
      "萨": 3132,
      "萬": 3133,
      "萱": 3134,
      "落": 3135,
      "葉": 3136,
      "著": 3137,
      "葛": 3138,
      "葡": 3139,
      "董": 3140,
      "葩": 3141,
      "葫": 3142,
      "葬": 3143,
      "葱": 3144,
      "葵": 3145,
      "蒂": 3146,
      "蒋": 3147,
      "蒙": 3148,
      "蒜": 3149,
      "蒲": 3150,
      "蒸": 3151,
      "蒿": 3152,
      "蓄": 3153,
      "蓉": 3154,
      "蓋": 3155,
      "蓝": 3156,
      "蓬": 3157,
      "蔓": 3158,
      "蔚": 3159,
      "蔡": 3160,
      "蔬": 3161,
      "蔽": 3162,
      "蕃": 3163,
      "蕉": 3164,
      "蕊": 3165,
      "蕴": 3166,
      "蕾": 3167,
      "薄": 3168,
      "薇": 3169,
      "薛": 3170,
      "薪": 3171,
      "薯": 3172,
      "藉": 3173,
      "藏": 3174,
      "藤": 3175,
      "藩": 3176,
      "藻": 3177,
      "蘇": 3178,
      "蘑": 3179,
      "蘭": 3180,
      "虎": 3181,
      "虏": 3182,
      "虐": 3183,
      "虑": 3184,
      "處": 3185,
      "虚": 3186,
      "虞": 3187,
      "號": 3188,
      "虫": 3189,
      "虹": 3190,
      "虽": 3191,
      "虾": 3192,
      "蚀": 3193,
      "蚁": 3194,
      "蚂": 3195,
      "蚊": 3196,
      "蚕": 3197,
      "蛇": 3198,
      "蛋": 3199,
      "蛙": 3200,
      "蛛": 3201,
      "蛮": 3202,
      "蜀": 3203,
      "蜂": 3204,
      "蜗": 3205,
      "蜘": 3206,
      "蜜": 3207,
      "蜡": 3208,
      "蝇": 3209,
      "蝉": 3210,
      "蝎": 3211,
      "蝙": 3212,
      "蝠": 3213,
      "蝴": 3214,
      "蝶": 3215,
      "融": 3216,
      "螺": 3217,
      "蟹": 3218,
      "蠢": 3219,
      "血": 3220,
      "行": 3221,
      "衍": 3222,
      "衔": 3223,
      "街": 3224,
      "衛": 3225,
      "衡": 3226,
      "衣": 3227,
      "补": 3228,
      "表": 3229,
      "衫": 3230,
      "衬": 3231,
      "衰": 3232,
      "衷": 3233,
      "袁": 3234,
      "袋": 3235,
      "袍": 3236,
      "袖": 3237,
      "袜": 3238,
      "被": 3239,
      "袭": 3240,
      "裁": 3241,
      "裂": 3242,
      "装": 3243,
      "裔": 3244,
      "裕": 3245,
      "裙": 3246,
      "裡": 3247,
      "裤": 3248,
      "裳": 3249,
      "裴": 3250,
      "裸": 3251,
      "裹": 3252,
      "褐": 3253,
      "褒": 3254,
      "襄": 3255,
      "襟": 3256,
      "西": 3257,
      "要": 3258,
      "覆": 3259,
      "見": 3260,
      "視": 3261,
      "親": 3262,
      "觀": 3263,
      "见": 3264,
      "观": 3265,
      "规": 3266,
      "觅": 3267,
      "视": 3268,
      "览": 3269,
      "觉": 3270,
      "角": 3271,
      "解": 3272,
      "触": 3273,
      "言": 3274,
      "計": 3275,
      "記": 3276,
      "設": 3277,
      "許": 3278,
      "詩": 3279,
      "詹": 3280,
      "誉": 3281,
      "誌": 3282,
      "誓": 3283,
      "語": 3284,
      "說": 3285,
      "誰": 3286,
      "請": 3287,
      "論": 3288,
      "諭": 3289,
      "諸": 3290,
      "謂": 3291,
      "警": 3292,
      "譬": 3293,
      "議": 3294,
      "變": 3295,
      "计": 3296,
      "订": 3297,
      "认": 3298,
      "讨": 3299,
      "让": 3300,
      "训": 3301,
      "议": 3302,
      "讯": 3303,
      "记": 3304,
      "讲": 3305,
      "讳": 3306,
      "讶": 3307,
      "许": 3308,
      "论": 3309,
      "讼": 3310,
      "讽": 3311,
      "设": 3312,
      "访": 3313,
      "诀": 3314,
      "证": 3315,
      "评": 3316,
      "识": 3317,
      "诈": 3318,
      "诉": 3319,
      "诊": 3320,
      "词": 3321,
      "诏": 3322,
      "译": 3323,
      "试": 3324,
      "诗": 3325,
      "诚": 3326,
      "诛": 3327,
      "话": 3328,
      "诞": 3329,
      "诠": 3330,
      "诡": 3331,
      "询": 3332,
      "该": 3333,
      "详": 3334,
      "诫": 3335,
      "语": 3336,
      "误": 3337,
      "诱": 3338,
      "说": 3339,
      "诵": 3340,
      "请": 3341,
      "诸": 3342,
      "诺": 3343,
      "读": 3344,
      "课": 3345,
      "谁": 3346,
      "调": 3347,
      "谅": 3348,
      "谈": 3349,
      "谊": 3350,
      "谋": 3351,
      "谍": 3352,
      "谎": 3353,
      "谐": 3354,
      "谓": 3355,
      "谜": 3356,
      "谢": 3357,
      "谣": 3358,
      "谦": 3359,
      "谨": 3360,
      "谭": 3361,
      "谱": 3362,
      "谴": 3363,
      "谷": 3364,
      "豁": 3365,
      "豆": 3366,
      "豚": 3367,
      "象": 3368,
      "豪": 3369,
      "豫": 3370,
      "豹": 3371,
      "貌": 3372,
      "貴": 3373,
      "賊": 3374,
      "賢": 3375,
      "賽": 3376,
      "贝": 3377,
      "贞": 3378,
      "负": 3379,
      "贡": 3380,
      "财": 3381,
      "责": 3382,
      "贤": 3383,
      "败": 3384,
      "账": 3385,
      "货": 3386,
      "质": 3387,
      "贩": 3388,
      "贪": 3389,
      "贫": 3390,
      "贬": 3391,
      "购": 3392,
      "贯": 3393,
      "贱": 3394,
      "贴": 3395,
      "贵": 3396,
      "贷": 3397,
      "贸": 3398,
      "费": 3399,
      "贺": 3400,
      "贼": 3401,
      "贾": 3402,
      "贿": 3403,
      "赁": 3404,
      "赃": 3405,
      "资": 3406,
      "赋": 3407,
      "赌": 3408,
      "赎": 3409,
      "赏": 3410,
      "赐": 3411,
      "赔": 3412,
      "赖": 3413,
      "赚": 3414,
      "赛": 3415,
      "赞": 3416,
      "赠": 3417,
      "赢": 3418,
      "赣": 3419,
      "赤": 3420,
      "赫": 3421,
      "走": 3422,
      "赴": 3423,
      "赵": 3424,
      "赶": 3425,
      "起": 3426,
      "趁": 3427,
      "超": 3428,
      "越": 3429,
      "趋": 3430,
      "趙": 3431,
      "趟": 3432,
      "趣": 3433,
      "足": 3434,
      "趴": 3435,
      "趾": 3436,
      "跃": 3437,
      "跋": 3438,
      "跌": 3439,
      "跑": 3440,
      "距": 3441,
      "跟": 3442,
      "跨": 3443,
      "跪": 3444,
      "路": 3445,
      "跳": 3446,
      "践": 3447,
      "踏": 3448,
      "踢": 3449,
      "踩": 3450,
      "踪": 3451,
      "蹄": 3452,
      "蹈": 3453,
      "蹦": 3454,
      "蹭": 3455,
      "蹲": 3456,
      "躁": 3457,
      "身": 3458,
      "躬": 3459,
      "躯": 3460,
      "躲": 3461,
      "躺": 3462,
      "車": 3463,
      "軍": 3464,
      "載": 3465,
      "车": 3466,
      "轨": 3467,
      "轩": 3468,
      "转": 3469,
      "轮": 3470,
      "软": 3471,
      "轰": 3472,
      "轴": 3473,
      "轻": 3474,
      "载": 3475,
      "轿": 3476,
      "较": 3477,
      "辄": 3478,
      "辅": 3479,
      "辆": 3480,
      "辈": 3481,
      "辉": 3482,
      "辐": 3483,
      "辑": 3484,
      "输": 3485,
      "辖": 3486,
      "辙": 3487,
      "辛": 3488,
      "辜": 3489,
      "辞": 3490,
      "辟": 3491,
      "辣": 3492,
      "辦": 3493,
      "辨": 3494,
      "辩": 3495,
      "辰": 3496,
      "辱": 3497,
      "边": 3498,
      "辽": 3499,
      "达": 3500,
      "迁": 3501,
      "迄": 3502,
      "迅": 3503,
      "过": 3504,
      "迈": 3505,
      "迎": 3506,
      "运": 3507,
      "近": 3508,
      "返": 3509,
      "还": 3510,
      "这": 3511,
      "进": 3512,
      "远": 3513,
      "违": 3514,
      "连": 3515,
      "迟": 3516,
      "迦": 3517,
      "迪": 3518,
      "迫": 3519,
      "迭": 3520,
      "述": 3521,
      "迷": 3522,
      "迹": 3523,
      "追": 3524,
      "退": 3525,
      "送": 3526,
      "适": 3527,
      "逃": 3528,
      "逆": 3529,
      "选": 3530,
      "逊": 3531,
      "透": 3532,
      "逐": 3533,
      "递": 3534,
      "途": 3535,
      "逗": 3536,
      "這": 3537,
      "通": 3538,
      "逛": 3539,
      "逝": 3540,
      "速": 3541,
      "造": 3542,
      "逢": 3543,
      "連": 3544,
      "逮": 3545,
      "進": 3546,
      "逸": 3547,
      "逻": 3548,
      "逼": 3549,
      "逾": 3550,
      "遂": 3551,
      "遇": 3552,
      "運": 3553,
      "遍": 3554,
      "過": 3555,
      "遏": 3556,
      "道": 3557,
      "達": 3558,
      "遗": 3559,
      "遣": 3560,
      "遥": 3561,
      "遭": 3562,
      "遮": 3563,
      "遵": 3564,
      "選": 3565,
      "避": 3566,
      "邀": 3567,
      "還": 3568,
      "邑": 3569,
      "邓": 3570,
      "邢": 3571,
      "那": 3572,
      "邦": 3573,
      "邪": 3574,
      "邮": 3575,
      "邱": 3576,
      "邵": 3577,
      "邹": 3578,
      "邻": 3579,
      "郁": 3580,
      "郊": 3581,
      "郎": 3582,
      "郑": 3583,
      "郝": 3584,
      "郡": 3585,
      "部": 3586,
      "郭": 3587,
      "都": 3588,
      "鄂": 3589,
      "鄉": 3590,
      "鄙": 3591,
      "鄭": 3592,
      "酉": 3593,
      "酋": 3594,
      "酌": 3595,
      "配": 3596,
      "酒": 3597,
      "酚": 3598,
      "酥": 3599,
      "酪": 3600,
      "酬": 3601,
      "酮": 3602,
      "酯": 3603,
      "酰": 3604,
      "酱": 3605,
      "酵": 3606,
      "酶": 3607,
      "酷": 3608,
      "酸": 3609,
      "酿": 3610,
      "醇": 3611,
      "醉": 3612,
      "醋": 3613,
      "醒": 3614,
      "醛": 3615,
      "采": 3616,
      "釉": 3617,
      "释": 3618,
      "里": 3619,
      "重": 3620,
      "野": 3621,
      "量": 3622,
      "金": 3623,
      "鉴": 3624,
      "銀": 3625,
      "銝": 3626,
      "錢": 3627,
      "鎮": 3628,
      "鑫": 3629,
      "针": 3630,
      "钉": 3631,
      "钓": 3632,
      "钙": 3633,
      "钛": 3634,
      "钞": 3635,
      "钟": 3636,
      "钠": 3637,
      "钢": 3638,
      "钥": 3639,
      "钦": 3640,
      "钧": 3641,
      "钩": 3642,
      "钮": 3643,
      "钱": 3644,
      "钻": 3645,
      "钾": 3646,
      "铁": 3647,
      "铃": 3648,
      "铅": 3649,
      "铜": 3650,
      "铝": 3651,
      "铬": 3652,
      "铭": 3653,
      "铲": 3654,
      "银": 3655,
      "铸": 3656,
      "铺": 3657,
      "链": 3658,
      "销": 3659,
      "锁": 3660,
      "锂": 3661,
      "锅": 3662,
      "锈": 3663,
      "锋": 3664,
      "锌": 3665,
      "锐": 3666,
      "错": 3667,
      "锡": 3668,
      "锣": 3669,
      "锤": 3670,
      "锥": 3671,
      "锦": 3672,
      "键": 3673,
      "锯": 3674,
      "锻": 3675,
      "镀": 3676,
      "镁": 3677,
      "镇": 3678,
      "镑": 3679,
      "镜": 3680,
      "镶": 3681,
      "長": 3682,
      "长": 3683,
      "門": 3684,
      "開": 3685,
      "閒": 3686,
      "間": 3687,
      "關": 3688,
      "门": 3689,
      "闪": 3690,
      "闫": 3691,
      "闭": 3692,
      "问": 3693,
      "闯": 3694,
      "闲": 3695,
      "间": 3696,
      "闵": 3697,
      "闷": 3698,
      "闸": 3699,
      "闹": 3700,
      "闺": 3701,
      "闻": 3702,
      "闽": 3703,
      "阀": 3704,
      "阁": 3705,
      "阅": 3706,
      "阎": 3707,
      "阐": 3708,
      "阑": 3709,
      "阔": 3710,
      "阙": 3711,
      "阜": 3712,
      "队": 3713,
      "阪": 3714,
      "阮": 3715,
      "阱": 3716,
      "防": 3717,
      "阳": 3718,
      "阴": 3719,
      "阵": 3720,
      "阶": 3721,
      "阻": 3722,
      "阿": 3723,
      "陀": 3724,
      "附": 3725,
      "际": 3726,
      "陆": 3727,
      "陇": 3728,
      "陈": 3729,
      "陋": 3730,
      "陌": 3731,
      "降": 3732,
      "限": 3733,
      "陕": 3734,
      "陛": 3735,
      "陡": 3736,
      "院": 3737,
      "除": 3738,
      "陨": 3739,
      "险": 3740,
      "陪": 3741,
      "陳": 3742,
      "陵": 3743,
      "陶": 3744,
      "陷": 3745,
      "陸": 3746,
      "陽": 3747,
      "隅": 3748,
      "隆": 3749,
      "隋": 3750,
      "随": 3751,
      "隐": 3752,
      "隔": 3753,
      "隙": 3754,
      "障": 3755,
      "隧": 3756,
      "隨": 3757,
      "隶": 3758,
      "难": 3759,
      "雀": 3760,
      "雁": 3761,
      "雄": 3762,
      "雅": 3763,
      "集": 3764,
      "雇": 3765,
      "雌": 3766,
      "雍": 3767,
      "雏": 3768,
      "雕": 3769,
      "雖": 3770,
      "難": 3771,
      "雨": 3772,
      "雪": 3773,
      "雯": 3774,
      "雲": 3775,
      "零": 3776,
      "雷": 3777,
      "雾": 3778,
      "需": 3779,
      "霄": 3780,
      "霆": 3781,
      "震": 3782,
      "霉": 3783,
      "霍": 3784,
      "霖": 3785,
      "霜": 3786,
      "霞": 3787,
      "露": 3788,
      "霸": 3789,
      "霾": 3790,
      "靈": 3791,
      "青": 3792,
      "靓": 3793,
      "靖": 3794,
      "静": 3795,
      "非": 3796,
      "靠": 3797,
      "靡": 3798,
      "面": 3799,
      "革": 3800,
      "靴": 3801,
      "靶": 3802,
      "鞋": 3803,
      "鞍": 3804,
      "鞠": 3805,
      "鞭": 3806,
      "韦": 3807,
      "韧": 3808,
      "韩": 3809,
      "韬": 3810,
      "音": 3811,
      "韵": 3812,
      "韶": 3813,
      "順": 3814,
      "領": 3815,
      "頭": 3816,
      "題": 3817,
      "額": 3818,
      "類": 3819,
      "页": 3820,
      "顶": 3821,
      "顷": 3822,
      "项": 3823,
      "顺": 3824,
      "须": 3825,
      "顽": 3826,
      "顾": 3827,
      "顿": 3828,
      "颁": 3829,
      "颂": 3830,
      "预": 3831,
      "颅": 3832,
      "领": 3833,
      "颇": 3834,
      "颈": 3835,
      "颌": 3836,
      "颐": 3837,
      "频": 3838,
      "颓": 3839,
      "颖": 3840,
      "颗": 3841,
      "题": 3842,
      "颜": 3843,
      "额": 3844,
      "颠": 3845,
      "颤": 3846,
      "風": 3847,
      "风": 3848,
      "飓": 3849,
      "飘": 3850,
      "飙": 3851,
      "飞": 3852,
      "食": 3853,
      "餐": 3854,
      "餘": 3855,
      "饥": 3856,
      "饪": 3857,
      "饭": 3858,
      "饮": 3859,
      "饰": 3860,
      "饱": 3861,
      "饲": 3862,
      "饵": 3863,
      "饶": 3864,
      "饺": 3865,
      "饼": 3866,
      "饿": 3867,
      "馀": 3868,
      "馅": 3869,
      "馆": 3870,
      "馈": 3871,
      "首": 3872,
      "香": 3873,
      "馨": 3874,
      "馬": 3875,
      "马": 3876,
      "驭": 3877,
      "驰": 3878,
      "驱": 3879,
      "驳": 3880,
      "驴": 3881,
      "驶": 3882,
      "驻": 3883,
      "驼": 3884,
      "驾": 3885,
      "驿": 3886,
      "骁": 3887,
      "骂": 3888,
      "骄": 3889,
      "骆": 3890,
      "验": 3891,
      "骏": 3892,
      "骑": 3893,
      "骗": 3894,
      "骚": 3895,
      "骤": 3896,
      "骨": 3897,
      "骼": 3898,
      "髓": 3899,
      "體": 3900,
      "高": 3901,
      "髙": 3902,
      "髦": 3903,
      "鬓": 3904,
      "鬼": 3905,
      "魁": 3906,
      "魂": 3907,
      "魄": 3908,
      "魅": 3909,
      "魏": 3910,
      "魔": 3911,
      "鱼": 3912,
      "鲁": 3913,
      "鲍": 3914,
      "鲜": 3915,
      "鲤": 3916,
      "鲨": 3917,
      "鲸": 3918,
      "鳄": 3919,
      "鳌": 3920,
      "鳍": 3921,
      "鳞": 3922,
      "鸟": 3923,
      "鸡": 3924,
      "鸣": 3925,
      "鸥": 3926,
      "鸦": 3927,
      "鸭": 3928,
      "鸽": 3929,
      "鸿": 3930,
      "鹅": 3931,
      "鹏": 3932,
      "鹤": 3933,
      "鹰": 3934,
      "鹿": 3935,
      "麒": 3936,
      "麓": 3937,
      "麟": 3938,
      "麦": 3939,
      "麻": 3940,
      "麼": 3941,
      "黃": 3942,
      "黄": 3943,
      "黎": 3944,
      "黏": 3945,
      "黑": 3946,
      "黔": 3947,
      "默": 3948,
      "黛": 3949,
      "鼎": 3950,
      "鼓": 3951,
      "鼠": 3952,
      "鼻": 3953,
      "齊": 3954,
      "齐": 3955,
      "齿": 3956,
      "龄": 3957,
      "龍": 3958,
      "龙": 3959,
      "龚": 3960,
      "龟": 3961,
      "가": 3962,
      "고": 3963,
      "그": 3964,
      "기": 3965,
      "는": 3966,
      "니": 3967,
      "다": 3968,
      "들": 3969,
      "로": 3970,
      "리": 3971,
      "서": 3972,
      "에": 3973,
      "은": 3974,
      "을": 3975,
      "의": 3976,
      "이": 3977,
      "있": 3978,
      "지": 3979,
      "하": 3980,
      "！": 3981,
      "％": 3982,
      "（": 3983,
      "）": 3984,
      "＋": 3985,
      "，": 3986,
      "－": 3987,
      "．": 3988,
      "／": 3989,
      "０": 3990,
      "１": 3991,
      "２": 3992,
      "３": 3993,
      "４": 3994,
      "５": 3995,
      "：": 3996,
      "；": 3997,
      "？": 3998,
      "｜": 3999,
      "～": 4000,
      "�": 4001,
      "🙂": 4002,
      "▁t": 4003,
      "▁a": 4004,
      "in": 4005,
      "he": 4006,
      "re": 4007,
      "on": 4008,
      "er": 4009,
      "▁the": 4010,
      "▁s": 4011,
      "at": 4012,
      "▁w": 4013,
      "▁o": 4014,
      "en": 4015,
      "▁c": 4016,
      "an": 4017,
      "it": 4018,
      "or": 4019,
      "es": 4020,
      "is": 4021,
      "ou": 4022,
      "ing": 4023,
      "▁f": 4024,
      "▁b": 4025,
      "▁p": 4026,
      "▁an": 4027,
      "al": 4028,
      "ed": 4029,
      "▁m": 4030,
      "ar": 4031,
      "▁to": 4032,
      "▁of": 4033,
      "▁in": 4034,
      "▁and": 4035,
      "▁d": 4036,
      "ic": 4037,
      "le": 4038,
      "as": 4039,
      "om": 4040,
      "▁h": 4041,
      "ion": 4042,
      "▁th": 4043,
      "20": 4044,
      "ll": 4045,
      "ent": 4046,
      "▁l": 4047,
      "ro": 4048,
      "ve": 4049,
      "st": 4050,
      "--": 4051,
      "\n\n": 4052,
      "▁n": 4053,
      "▁re": 4054,
      "▁e": 4055,
      "▁I": 4056,
      "▁g": 4057,
      "et": 4058,
      "ct": 4059,
      "▁y": 4060,
      "ly": 4061,
      "▁T": 4062,
      "▁S": 4063,
      "00": 4064,
      "ut": 4065,
      "id": 4066,
      "ot": 4067,
      "▁C": 4068,
      "▁is": 4069,
      "一个": 4070,
      "　　": 4071,
      "▁be": 4072,
      "ow": 4073,
      "ay": 4074,
      "▁you": 4075,
      "▁A": 4076,
      "▁on": 4077,
      "▁for": 4078,
      "\n　　": 4079,
      "ad": 4080,
      "im": 4081,
      "ac": 4082,
      "us": 4083,
      "am": 4084,
      "ur": 4085,
      "ig": 4086,
      "il": 4087,
      "ol": 4088,
      "ver": 4089,
      "ation": 4090,
      "un": 4091,
      "▁M": 4092,
      "▁st": 4093,
      "▁that": 4094,
      "201": 4095,
      "ith": 4096,
      "ir": 4097,
      "ch": 4098,
      "ce": 4099,
      "▁1": 4100,
      "▁P": 4101,
      "se": 4102,
      "▁with": 4103,
      "▁B": 4104,
      "▁it": 4105,
      "公司": 4106,
      "可以": 4107,
      "自己": 4108,
      "中国": 4109,
      "▁he": 4110,
      "我们": 4111,
      "没有": 4112,
      "ter": 4113,
      "▁we": 4114,
      "什么": 4115,
      "----": 4116,
      "ill": 4117,
      "if": 4118,
      "▁wh": 4119,
      "ra": 4120,
      "ul": 4121,
      "▁as": 4122,
      "oo": 4123,
      "ke": 4124,
      "10": 4125,
      "el": 4126,
      "▁W": 4127,
      "▁D": 4128,
      "▁pro": 4129,
      "▁H": 4130,
      "ge": 4131,
      "ers": 4132,
      "▁are": 4133,
      "pp": 4134,
      "ate": 4135,
      "▁con": 4136,
      "▁F": 4137,
      "19": 4138,
      "▁R": 4139,
      "ri": 4140,
      "ment": 4141,
      "her": 4142,
      "▁(": 4143,
      "..": 4144,
      "est": 4145,
      "ess": 4146,
      "ab": 4147,
      "这个": 4148,
      "ore": 4149,
      "▁com": 4150,
      "▁ha": 4151,
      "问题": 4152,
      "ld": 4153,
      "▁The": 4154,
      "and": 4155,
      "th": 4156,
      "▁L": 4157,
      "▁de": 4158,
      "就是": 4159,
      "▁at": 4160,
      "op": 4161,
      "igh": 4162,
      "ist": 4163,
      "▁se": 4164,
      "▁or": 4165,
      "qu": 4166,
      "▁G": 4167,
      "ew": 4168,
      "rom": 4169,
      "▁v": 4170,
      "um": 4171,
      "▁was": 4172,
      "▁E": 4173,
      "oun": 4174,
      "os": 4175,
      "ant": 4176,
      "em": 4177,
      "▁ex": 4178,
      "ure": 4179,
      "▁N": 4180,
      "ity": 4181,
      "▁r": 4182,
      "工作": 4183,
      "他们": 4184,
      "市场": 4185,
      "ive": 4186,
      "200": 4187,
      "时间": 4188,
      "因为": 4189,
      "ort": 4190,
      "如果": 4191,
      "▁have": 4192,
      "oc": 4193,
      "ust": 4194,
      "ain": 4195,
      "进行": 4196,
      "不是": 4197,
      "art": 4198,
      "▁this": 4199,
      "pe": 4200,
      "▁sh": 4201,
      "▁O": 4202,
      "时候": 4203,
      "可能": 4204,
      "▁by": 4205,
      "▁ch": 4206,
      "▁al": 4207,
      "up": 4208,
      "▁from": 4209,
      "od": 4210,
      "的人": 4211,
      "▁not": 4212,
      "ies": 4213,
      "▁your": 4214,
      "ight": 4215,
      "已经": 4216,
      "▁can": 4217,
      "res": 4218,
      "end": 4219,
      "all": 4220,
      "投资": 4221,
      "现在": 4222,
      "但是": 4223,
      "ard": 4224,
      "12": 4225,
      "▁us": 4226,
      "ud": 4227,
      "发展": 4228,
      "▁2": 4229,
      "ome": 4230,
      "ould": 4231,
      "out": 4232,
      "▁le": 4233,
      "11": 4234,
      "our": 4235,
      "iv": 4236,
      "还是": 4237,
      "ear": 4238,
      "ost": 4239,
      "▁J": 4240,
      "ak": 4241,
      "▁su": 4242,
      "第一": 4243,
      "▁k": 4244,
      "开始": 4245,
      "▁ab": 4246,
      "ine": 4247,
      "美国": 4248,
      "▁will": 4249,
      "ag": 4250,
      "30": 4251,
      "ren": 4252,
      "企业": 4253,
      "ack": 4254,
      "很多": 4255,
      "--------": 4256,
      "ally": 4257,
      "ast": 4258,
      "▁un": 4259,
      "ect": 4260,
      "gh": 4261,
      "▁j": 4262,
      "这样": 4263,
      "▁wor": 4264,
      "▁do": 4265,
      "▁pl": 4266,
      "The": 4267,
      "的一": 4268,
      "ide": 4269,
      "通过": 4270,
      "需要": 4271,
      "所以": 4272,
      "red": 4273,
      "ap": 4274,
      "15": 4275,
      "孩子": 4276,
      "▁all": 4277,
      "知道": 4278,
      "ff": 4279,
      "都是": 4280,
      "one": 4281,
      "age": 4282,
      "▁me": 4283,
      "ice": 4284,
      "国家": 4285,
      "▁ne": 4286,
      "管理": 4287,
      "▁-": 4288,
      "大学": 4289,
      "经济": 4290,
      "ip": 4291,
      "▁In": 4292,
      "og": 4293,
      "基金": 4294,
      "ind": 4295,
      "情况": 4296,
      "ial": 4297,
      "的是": 4298,
      "如何": 4299,
      "te": 4300,
      "”，": 4301,
      "研究": 4302,
      "目前": 4303,
      "18": 4304,
      "这些": 4305,
      "ook": 4306,
      "▁has": 4307,
      "hen": 4308,
      "世界": 4309,
      "▁but": 4310,
      "方面": 4311,
      "产品": 4312,
      "ough": 4313,
      "服务": 4314,
      "ry": 4315,
      "▁U": 4316,
      "表示": 4317,
      "生活": 4318,
      "一些": 4319,
      "的时候": 4320,
      "▁\"": 4321,
      "大家": 4322,
      "50": 4323,
      "ong": 4324,
      "▁comp": 4325,
      "技术": 4326,
      "ich": 4327,
      "人的": 4328,
      "觉得": 4329,
      "记者": 4330,
      "▁out": 4331,
      "怎么": 4332,
      "▁ad": 4333,
      "也是": 4334,
      "iz": 4335,
      "ions": 4336,
      "ans": 4337,
      "▁so": 4338,
      "成为": 4339,
      "影响": 4340,
      "以及": 4341,
      "ake": 4342,
      "pt": 4343,
      "ood": 4344,
      "部分": 4345,
      "朋友": 4346,
      "ie": 4347,
      "认为": 4348,
      "ound": 4349,
      "到了": 4350,
      "ther": 4351,
      "主要": 4352,
      "▁up": 4353,
      "同时": 4354,
      "▁en": 4355,
      "发现": 4356,
      "▁my": 4357,
      "16": 4358,
      "自己的": 4359,
      "ia": 4360,
      "使用": 4361,
      "ous": 4362,
      "000": 4363,
      "对于": 4364,
      "▁they": 4365,
      "per": 4366,
      "very": 4367,
      "able": 4368,
      "ated": 4369,
      "大的": 4370,
      "orm": 4371,
      "ime": 4372,
      "▁more": 4373,
      "ike": 4374,
      "其他": 4375,
      "act": 4376,
      "ber": 4377,
      "ite": 4378,
      "pl": 4379,
      "▁3": 4380,
      "▁K": 4381,
      "▁“": 4382,
      "作为": 4383,
      "▁cl": 4384,
      "中的": 4385,
      "▁201": 4386,
      "非常": 4387,
      "设计": 4388,
      "不能": 4389,
      "ace": 4390,
      "系统": 4391,
      "cc": 4392,
      "了一": 4393,
      "▁Th": 4394,
      "der": 4395,
      "这种": 4396,
      "13": 4397,
      "信息": 4398,
      "▁te": 4399,
      "好的": 4400,
      "▁im": 4401,
      "▁their": 4402,
      "还有": 4403,
      "），": 4404,
      "▁one": 4405,
      "北京": 4406,
      "14": 4407,
      "重要": 4408,
      "▁tr": 4409,
      "17": 4410,
      "”。": 4411,
      "第二": 4412,
      "比较": 4413,
      "▁ar": 4414,
      "du": 4415,
      "是一": 4416,
      "  ": 4417,
      "ame": 4418,
      "之后": 4419,
      "ep": 4420,
      "：“": 4421,
      "社会": 4422,
      "▁sa": 4423,
      "so": 4424,
      "ance": 4425,
      "are": 4426,
      "ks": 4427,
      "▁Ch": 4428,
      "或者": 4429,
      "ue": 4430,
      "不同": 4431,
      "ult": 4432,
      "▁about": 4433,
      "▁Y": 4434,
      "不会": 4435,
      "▁qu": 4436,
      "月2": 4437,
      "▁V": 4438,
      "▁cont": 4439,
      "喜欢": 4440,
      "选择": 4441,
      "相关": 4442,
      "ub": 4443,
      "▁man": 4444,
      "▁St": 4445,
      "政府": 4446,
      "▁his": 4447,
      "ign": 4448,
      "数据": 4449,
      "ib": 4450,
      "那么": 4451,
      "出现": 4452,
      "项目": 4453,
      "▁go": 4454,
      "个人": 4455,
      "提供": 4456,
      "比赛": 4457,
      "人民": 4458,
      "ire": 4459,
      "ase": 4460,
      "ary": 4461,
      "上的": 4462,
      "ass": 4463,
      "来的": 4464,
      "▁who": 4465,
      "教育": 4466,
      "ach": 4467,
      "银行": 4468,
      "ree": 4469,
      "▁res": 4470,
      "其中": 4471,
      "reat": 4472,
      "cl": 4473,
      "应该": 4474,
      "ove": 4475,
      "价格": 4476,
      "一直": 4477,
      "ical": 4478,
      "av": 4479,
      "5年": 4480,
      "▁sp": 4481,
      "活动": 4482,
      "▁int": 4483,
      "关注": 4484,
      "分析": 4485,
      "一定": 4486,
      "我的": 4487,
      "ays": 4488,
      "▁app": 4489,
      "ail": 4490,
      "学生": 4491,
      "▁4": 4492,
      "专业": 4493,
      "▁which": 4494,
      "人员": 4495,
      "国际": 4496,
      "看到": 4497,
      "要求": 4498,
      "——": 4499,
      "▁per": 4500,
      "，“": 4501,
      "ations": 4502,
      "发生": 4503,
      "不过": 4504,
      "▁our": 4505,
      "ile": 4506,
      "城市": 4507,
      "所有": 4508,
      "▁like": 4509,
      "今年": 4510,
      "行业": 4511,
      "form": 4512,
      "根据": 4513,
      "交易": 4514,
      "方式": 4515,
      "。”": 4516,
      "希望": 4517,
      "包括": 4518,
      "其实": 4519,
      "6年": 4520,
      "ick": 4521,
      "为什么": 4522,
      "▁off": 4523,
      "ction": 4524,
      "own": 4525,
      "▁dis": 4526,
      "他的": 4527,
      "ang": 4528,
      "手机": 4529,
      "能力": 4530,
      "▁year": 4531,
      "这是": 4532,
      "▁time": 4533,
      "安全": 4534,
      "这一": 4535,
      "而且": 4536,
      "vel": 4537,
      "ven": 4538,
      "日本": 4539,
      "由于": 4540,
      "ress": 4541,
      "ark": 4542,
      "ru": 4543,
      "然后": 4544,
      "ence": 4545,
      "游戏": 4546,
      "▁get": 4547,
      "ount": 4548,
      "▁other": 4549,
      "为了": 4550,
      "虽然": 4551,
      "感觉": 4552,
      "60": 4553,
      "▁some": 4554,
      "▁An": 4555,
      "一起": 4556,
      "关系": 4557,
      "最后": 4558,
      "学习": 4559,
      "▁ag": 4560,
      "▁also": 4561,
      "不要": 4562,
      "ings": 4563,
      "erv": 4564,
      "文化": 4565,
      "4年": 4566,
      "学校": 4567,
      "美元": 4568,
      "▁kn": 4569,
      "ord": 4570,
      "基本": 4571,
      "ob": 4572,
      "中心": 4573,
      "▁new": 4574,
      "▁It": 4575,
      "方法": 4576,
      "一下": 4577,
      "▁pe": 4578,
      "了解": 4579,
      "结果": 4580,
      "▁were": 4581,
      "com": 4582,
      "一样": 4583,
      "获得": 4584,
      "▁work": 4585,
      "ition": 4586,
      "ose": 4587,
      "▁them": 4588,
      "ens": 4589,
      "ish": 4590,
      "内容": 4591,
      "▁any": 4592,
      "▁there": 4593,
      "▁had": 4594,
      "ink": 4595,
      "▁would": 4596,
      "▁been": 4597,
      "分钟": 4598,
      "▁part": 4599,
      "ents": 4600,
      "int": 4601,
      "地区": 4602,
      "80": 4603,
      "▁when": 4604,
      "ors": 4605,
      "▁sc": 4606,
      "▁ro": 4607,
      "fe": 4608,
      "特别": 4609,
      "有限": 4610,
      "只是": 4611,
      "ond": 4612,
      "▁over": 4613,
      "▁what": 4614,
      "你的": 4615,
      "▁her": 4616,
      "金融": 4617,
      "▁if": 4618,
      "电影": 4619,
      "port": 4620,
      "▁5": 4621,
      "两个": 4622,
      "因此": 4623,
      "增长": 4624,
      "存在": 4625,
      "当时": 4626,
      "▁just": 4627,
      "网络": 4628,
      "上海": 4629,
      "能够": 4630,
      "ov": 4631,
      "▁fe": 4632,
      "99": 4633,
      "▁am": 4634,
      "现场": 4635,
      "更多": 4636,
      "建设": 4637,
      "只有": 4638,
      "▁0": 4639,
      "▁pre": 4640,
      "rent": 4641,
      "40": 4642,
      "▁than": 4643,
      "use": 4644,
      "起来": 4645,
      "平台": 4646,
      "oy": 4647,
      "ory": 4648,
      "来说": 4649,
      "过程": 4650,
      "是否": 4651,
      "用户": 4652,
      "25": 4653,
      "ople": 4654,
      "政策": 4655,
      "ild": 4656,
      "ck": 4657,
      "这么": 4658,
      "oll": 4659,
      "地方": 4660,
      "一般": 4661,
      "之前": 4662,
      "原因": 4663,
      "资金": 4664,
      "%，": 4665,
      "ater": 4666,
      "真的": 4667,
      "----------------": 4668,
      "的事": 4669,
      "进入": 4670,
      "甚至": 4671,
      "mer": 4672,
      "▁spe": 4673,
      "▁gr": 4674,
      "历史": 4675,
      "国内": 4676,
      "机构": 4677,
      "业务": 4678,
      "▁bl": 4679,
      "计划": 4680,
      "ade": 4681,
      "ces": 4682,
      "环境": 4683,
      "消费": 4684,
      "组织": 4685,
      "wn": 4686,
      "vers": 4687,
      "继续": 4688,
      "也不": 4689,
      "实现": 4690,
      "...": 4691,
      "we": 4692,
      "开发": 4693,
      "万元": 4694,
      "▁We": 4695,
      "ne": 4696,
      "100": 4697,
      "支持": 4698,
      "irst": 4699,
      "▁des": 4700,
      "年的": 4701,
      "直接": 4702,
      "ian": 4703,
      "▁need": 4704,
      "以下": 4705,
      "有一": 4706,
      "??": 4707,
      "fter": 4708,
      "今天": 4709,
      "▁into": 4710,
      "▁He": 4711,
      "汽车": 4712,
      "▁said": 4713,
      "lic": 4714,
      "合作": 4715,
      "▁how": 4716,
      "▁'": 4717,
      "显示": 4718,
      "东西": 4719,
      "old": 4720,
      "▁people": 4721,
      "关于": 4722,
      "成功": 4723,
      "比如": 4724,
      "itt": 4725,
      "增加": 4726,
      "发布": 4727,
      "运动": 4728,
      "ric": 4729,
      "控制": 4730,
      "3年": 4731,
      "哪些": 4732,
      "完成": 4733,
      "▁rec": 4734,
      "基础": 4735,
      "▁bec": 4736,
      "ning": 4737,
      "iew": 4738,
      "90": 4739,
      "各种": 4740,
      "的话": 4741,
      "代表": 4742,
      "▁acc": 4743,
      "部门": 4744,
      "▁no": 4745,
      "gr": 4746,
      "处理": 4747,
      "回答": 4748,
      "▁its": 4749,
      "ft": 4750,
      "产业": 4751,
      "ons": 4752,
      "生产": 4753,
      "出来": 4754,
      "行为": 4755,
      "全国": 4756,
      "表现": 4757,
      "品牌": 4758,
      "老师": 4759,
      "亿元": 4760,
      "电视": 4761,
      "之间": 4762,
      "here": 4763,
      "任何": 4764,
      "▁tw": 4765,
      "联网": 4766,
      "这样的": 4767,
      "媒体": 4768,
      "ool": 4769,
      "ual": 4770,
      "ph": 4771,
      "▁Re": 4772,
      "资产": 4773,
      "22": 4774,
      "功能": 4775,
      "出了": 4776,
      "amp": 4777,
      "day": 4778,
      "）。": 4779,
      "具有": 4780,
      "▁know": 4781,
      "1年": 4782,
      "▁she": 4783,
      "rough": 4784,
      "价值": 4785,
      "ments": 4786,
      "标准": 4787,
      "8年": 4788,
      "未来": 4789,
      "提高": 4790,
      "70": 4791,
      "的大": 4792,
      "ious": 4793,
      "报告": 4794,
      "ause": 4795,
      "ull": 4796,
      "一次": 4797,
      "集团": 4798,
      "7年": 4799,
      "Th": 4800,
      "这里": 4801,
      "工程": 4802,
      "tern": 4803,
      "建议": 4804,
      "社区": 4805,
      "▁fl": 4806,
      "▁–": 4807,
      "第三": 4808,
      "有人": 4809,
      "香港": 4810,
      "▁6": 4811,
      "%。": 4812,
      "ating": 4813,
      "销售": 4814,
      "以上": 4815,
      "hed": 4816,
      "新的": 4817,
      "必须": 4818,
      "▁bet": 4819,
      "ates": 4820,
      "超过": 4821,
      "▁look": 4822,
      "证券": 4823,
      "完全": 4824,
      "一步": 4825,
      "eth": 4826,
      "水平": 4827,
      "你们": 4828,
      "有限公司": 4829,
      "介绍": 4830,
      "作用": 4831,
      "ject": 4832,
      "除了": 4833,
      "科技": 4834,
      "▁only": 4835,
      "电话": 4836,
      "单位": 4837,
      "▁first": 4838,
      "ont": 4839,
      "24": 4840,
      "解决": 4841,
      "医院": 4842,
      "▁make": 4843,
      "之一": 4844,
      "决定": 4845,
      "互联网": 4846,
      "导致": 4847,
      "参加": 4848,
      "负责": 4849,
      "注意": 4850,
      "采用": 4851,
      "In": 4852,
      "▁comm": 4853,
      "小时": 4854,
      "评论": 4855,
      "ise": 4856,
      "样的": 4857,
      "风险": 4858,
      "xt": 4859,
      "实际": 4860,
      "无法": 4861,
      "les": 4862,
      "▁act": 4863,
      "ily": 4864,
      "机会": 4865,
      "全球": 4866,
      "模式": 4867,
      "▁may": 4868,
      "▁ind": 4869,
      "▁This": 4870,
      "....": 4871,
      "左右": 4872,
      "目标": 4873,
      "容易": 4874,
      "clud": 4875,
      "达到": 4876,
      "▁bu": 4877,
      "▁back": 4878,
      "▁pr": 4879,
      "lp": 4880,
      "个月": 4881,
      "规定": 4882,
      "9年": 4883,
      "收入": 4884,
      "消息": 4885,
      "接受": 4886,
      "▁sy": 4887,
      "面的": 4888,
      "微信": 4889,
      "▁see": 4890,
      "▁add": 4891,
      "23": 4892,
      "▁want": 4893,
      "告诉": 4894,
      "lect": 4895,
      "健康": 4896,
      "一种": 4897,
      "▁most": 4898,
      "iss": 4899,
      "▁10": 4900,
      ").": 4901,
      "得到": 4902,
      "最终": 4903,
      "自然": 4904,
      "▁ph": 4905,
      "准备": 4906,
      "2年": 4907,
      "正在": 4908,
      "需求": 4909,
      "并不": 4910,
      "▁two": 4911,
      "先生": 4912,
      "有些": 4913,
      "10月": 4914,
      "▁every": 4915,
      "有的": 4916,
      "有关": 4917,
      "▁7": 4918,
      "▁help": 4919,
      "▁19": 4920,
      "位于": 4921,
      "报道": 4922,
      "的问题": 4923,
      "bs": 4924,
      "条件": 4925,
      "体验": 4926,
      "资源": 4927,
      "ock": 4928,
      "▁use": 4929,
      "新闻": 4930,
      "ific": 4931,
      "▁produ": 4932,
      "不断": 4933,
      "公里": 4934,
      "传统": 4935,
      "▁em": 4936,
      "▁well": 4937,
      "产生": 4938,
      "帮助": 4939,
      "当然": 4940,
      "▁good": 4941,
      "▁dif": 4942,
      "空间": 4943,
      "▁200": 4944,
      "每天": 4945,
      "1日": 4946,
      "▁po": 4947,
      "结构": 4948,
      "aw": 4949,
      "是一个": 4950,
      "变化": 4951,
      "▁stud": 4952,
      "ife": 4953,
      "的小": 4954,
      "uch": 4955,
      "明显": 4956,
      "应用": 4957,
      "▁very": 4958,
      "▁under": 4959,
      "▁could": 4960,
      "后来": 4961,
      "并且": 4962,
      "▁prov": 4963,
      "▁cons": 4964,
      "造成": 4965,
      "也有": 4966,
      "形成": 4967,
      "urn": 4968,
      "科学": 4969,
      "▁after": 4970,
      "▁Un": 4971,
      "是在": 4972,
      "利用": 4973,
      "ss": 4974,
      "ell": 4975,
      "以后": 4976,
      "另外": 4977,
      "row": 4978,
      "父母": 4979,
      "期间": 4980,
      "简单": 4981,
      "ert": 4982,
      "sel": 4983,
      "anc": 4984,
      "……": 4985,
      "调查": 4986,
      "分别": 4987,
      "▁these": 4988,
      "出的": 4989,
      "不到": 4990,
      "▁through": 4991,
      "那些": 4992,
      "上市": 4993,
      "olog": 4994,
      "▁co": 4995,
      "股份": 4996,
      "有效": 4997,
      "家庭": 4998,
      "不仅": 4999,
      "故事": 5000,
      "属于": 5001,
      "ities": 5002,
      "ath": 5003,
      "不知道": 5004,
      "ting": 5005,
      "oth": 5006,
      "▁rel": 5007,
      "2016年": 5008,
      "▁$": 5009,
      "rit": 5010,
      "毕业": 5011,
      "持续": 5012,
      "领域": 5013,
      "21": 5014,
      "ty": 5015,
      "的一个": 5016,
      "2015年": 5017,
      "ng": 5018,
      "ful": 5019,
      "一点": 5020,
      "知识": 5021,
      "艺术": 5022,
      "▁imp": 5023,
      "网站": 5024,
      "性的": 5025,
      "ec": 5026,
      "评价": 5027,
      "ys": 5028,
      "ble": 5029,
      "▁我": 5030,
      "拥有": 5031,
      "来自": 5032,
      "参与": 5033,
      "fore": 5034,
      "ts": 5035,
      "28": 5036,
      "oss": 5037,
      "▁col": 5038,
      "推荐": 5039,
      "stem": 5040,
      "考虑": 5041,
      "保护": 5042,
      "▁includ": 5043,
      "ational": 5044,
      "来看": 5045,
      "是什么": 5046,
      "创新": 5047,
      "▁att": 5048,
      "系列": 5049,
      "▁years": 5050,
      "音乐": 5051,
      "计算": 5052,
      "▁should": 5053,
      "▁inv": 5054,
      "▁br": 5055,
      "__": 5056,
      "▁supp": 5057,
      "2014年": 5058,
      "26": 5059,
      "erm": 5060,
      "cess": 5061,
      "都有": 5062,
      "旅游": 5063,
      "客户": 5064,
      "▁now": 5065,
      "队的": 5066,
      "调整": 5067,
      "▁8": 5068,
      "最近": 5069,
      "交通": 5070,
      "▁serv": 5071,
      "ower": 5072,
      "英国": 5073,
      "效果": 5074,
      "▁reg": 5075,
      "als": 5076,
      "ied": 5077,
      "ased": 5078,
      "▁ke": 5079,
      "经过": 5080,
      "pect": 5081,
      "操作": 5082,
      "▁play": 5083,
      "去年": 5084,
      "▁many": 5085,
      "oup": 5086,
      "最高": 5087,
      "ange": 5088,
      "▁way": 5089,
      "建立": 5090,
      "提升": 5091,
      "不少": 5092,
      "随着": 5093,
      "股票": 5094,
      "保持": 5095,
      "ract": 5096,
      "ility": 5097,
      "get": 5098,
      "过去": 5099,
      "▁Com": 5100,
      "erson": 5101,
      "位置": 5102,
      "▁sm": 5103,
      "考试": 5104,
      "▁如何": 5105,
      "经营": 5106,
      "作品": 5107,
      "建筑": 5108,
      "许多": 5109,
      "ures": 5110,
      "会议": 5111,
      "▁Pro": 5112,
      "具体": 5113,
      "▁even": 5114,
      "▁inc": 5115,
      "才能": 5116,
      "ics": 5117,
      "▁don": 5118,
      "的情况": 5119,
      "就会": 5120,
      "状态": 5121,
      "▁then": 5122,
      "any": 5123,
      "学院": 5124,
      "▁think": 5125,
      "▁Wh": 5126,
      "iness": 5127,
      "io": 5128,
      "联系": 5129,
      "进一步": 5130,
      "▁You": 5131,
      "▁eff": 5132,
      "质量": 5133,
      "▁did": 5134,
      "如此": 5135,
      "以来": 5136,
      "电子": 5137,
      "velop": 5138,
      "▁great": 5139,
      "受到": 5140,
      "事件": 5141,
      "aking": 5142,
      "首先": 5143,
      "ular": 5144,
      "领导": 5145,
      "时代": 5146,
      "▁rem": 5147,
      "责任": 5148,
      "35": 5149,
      "精神": 5150,
      "▁down": 5151,
      "▁him": 5152,
      "台湾": 5153,
      "▁&": 5154,
      "▁because": 5155,
      "▁20": 5156,
      "创业": 5157,
      "综合": 5158,
      "▁tra": 5159,
      "努力": 5160,
      "ank": 5161,
      "普通": 5162,
      "ines": 5163,
      "规模": 5164,
      "ollow": 5165,
      "ix": 5166,
      "正式": 5167,
      "▁much": 5168,
      "▁too": 5169,
      "体育": 5170,
      "政治": 5171,
      "▁fun": 5172,
      "▁ac": 5173,
      "▁ev": 5174,
      "27": 5175,
      "方向": 5176,
      "真正": 5177,
      "地产": 5178,
      "视频": 5179,
      "都会": 5180,
      "人们": 5181,
      "▁gu": 5182,
      "不可": 5183,
      "ek": 5184,
      "air": 5185,
      "经历": 5186,
      "严重": 5187,
      "按照": 5188,
      "▁ass": 5189,
      "经验": 5190,
      "别人": 5191,
      "ative": 5192,
      "▁And": 5193,
      "重点": 5194,
      "经常": 5195,
      "199": 5196,
      "hes": 5197,
      "ash": 5198,
      "ible": 5199,
      "只能": 5200,
      "发行": 5201,
      "ward": 5202,
      "4月": 5203,
      "更加": 5204,
      "▁where": 5205,
      "身体": 5206,
      "人口": 5207,
      "压力": 5208,
      "▁high": 5209,
      "下来": 5210,
      "▁exper": 5211,
      "改变": 5212,
      "中央": 5213,
      "成本": 5214,
      "9月": 5215,
      "ork": 5216,
      "▁right": 5217,
      "ener": 5218,
      "只要": 5219,
      "▁sec": 5220,
      "its": 5221,
      "ax": 5222,
      "改革": 5223,
      "arch": 5224,
      "ced": 5225,
      "投资者": 5226,
      "成绩": 5227,
      "▁ent": 5228,
      "ict": 5229,
      "商业": 5230,
      "结束": 5231,
      "不得": 5232,
      "),": 5233,
      "理解": 5234,
      "法律": 5235,
      "ident": 5236,
      "uring": 5237,
      "other": 5238,
      "整个": 5239,
      "ug": 5240,
      "那个": 5241,
      "范围": 5242,
      "阶段": 5243,
      "az": 5244,
      "几个": 5245,
      "治疗": 5246,
      "▁fin": 5247,
      "45": 5248,
      "指数": 5249,
      "微博": 5250,
      "▁Sh": 5251,
      "▁car": 5252,
      "▁9": 5253,
      "▁dec": 5254,
      "rib": 5255,
      "▁start": 5256,
      "然而": 5257,
      "▁long": 5258,
      "的女": 5259,
      "一年": 5260,
      "委员": 5261,
      "越来": 5262,
      "▁mod": 5263,
      "稳定": 5264,
      "多少": 5265,
      "最大": 5266,
      "ience": 5267,
      "越来越": 5268,
      "▁own": 5269,
      "ata": 5270,
      "主义": 5271,
      "保险": 5272,
      "▁read": 5273,
      "我们的": 5274,
      "ah": 5275,
      "3月": 5276,
      "▁set": 5277,
      "hip": 5278,
      "usiness": 5279,
      "购买": 5280,
      "▁che": 5281,
      "材料": 5282,
      "答案": 5283,
      "分为": 5284,
      "line": 5285,
      "智能": 5286,
      "▁diffe": 5287,
      "面积": 5288,
      "ale": 5289,
      "竞争": 5290,
      "33": 5291,
      "7月": 5292,
      "ices": 5293,
      "人民币": 5294,
      "▁show": 5295,
      "提出": 5296,
      "同学": 5297,
      "▁day": 5298,
      "程度": 5299,
      "实施": 5300,
      "ited": 5301,
      "确定": 5302,
      "人士": 5303,
      "说明": 5304,
      "文章": 5305,
      "正常": 5306,
      "关键": 5307,
      "心理": 5308,
      "方案": 5309,
      "ient": 5310,
      "▁find": 5311,
      "▁again": 5312,
      "▁i": 5313,
      "申请": 5314,
      "gan": 5315,
      "下的": 5316,
      "ner": 5317,
      "▁such": 5318,
      "▁system": 5319,
      "里的": 5320,
      "▁inst": 5321,
      "优势": 5322,
      "▁follow": 5323,
      "现代": 5324,
      "年轻": 5325,
      "后的": 5326,
      "chool": 5327,
      "全部": 5328,
      "妈妈": 5329,
      "▁spec": 5330,
      "都不": 5331,
      "▁mon": 5332,
      "▁ins": 5333,
      "alth": 5334,
      "▁min": 5335,
      "职业": 5336,
      "view": 5337,
      "问答": 5338,
      "▁pres": 5339,
      "formation": 5340,
      "▁here": 5341,
      "》，": 5342,
      ".”": 5343,
      "联合": 5344,
      "制度": 5345,
      "上涨": 5346,
      "成立": 5347,
      "积极": 5348,
      "▁take": 5349,
      "▁does": 5350,
      "pr": 5351,
      "带来": 5352,
      "alk": 5353,
      "29": 5354,
      "收益": 5355,
      "球员": 5356,
      "资本": 5357,
      "ave": 5358,
      "目的": 5359,
      "▁sur": 5360,
      "附近": 5361,
      "▁best": 5362,
      "▁De": 5363,
      "▁made": 5364,
      "有哪些": 5365,
      "不好": 5366,
      "▁develop": 5367,
      "▁bel": 5368,
      "了一个": 5369,
      "arket": 5370,
      "ik": 5371,
      "平方": 5372,
      "制造": 5373,
      "长期": 5374,
      "An": 5375,
      "因素": 5376,
      "atch": 5377,
      "设备": 5378,
      "2010": 5379,
      "当地": 5380,
      "ason": 5381,
      "多数": 5382,
      "ually": 5383,
      "▁being": 5384,
      "专家": 5385,
      "取得": 5386,
      "的高": 5387,
      "▁end": 5388,
      "加入": 5389,
      "董事": 5390,
      "股东": 5391,
      "chn": 5392,
      "公布": 5393,
      "500": 5394,
      "way": 5395,
      "▁sim": 5396,
      "    ": 5397,
      "移动": 5398,
      "语言": 5399,
      "▁New": 5400,
      "▁those": 5401,
      "相信": 5402,
      "ins": 5403,
      "▁|": 5404,
      "多的": 5405,
      "▁used": 5406,
      "问答社区": 5407,
      "6月": 5408,
      "此外": 5409,
      "几乎": 5410,
      "▁before": 5411,
      "▁Al": 5412,
      "▁loc": 5413,
      "支付": 5414,
      "独立": 5415,
      "有什么": 5416,
      "ier": 5417,
      "uc": 5418,
      "对方": 5419,
      "▁som": 5420,
      "大量": 5421,
      "利润": 5422,
      "arm": 5423,
      "rest": 5424,
      "▁call": 5425,
      "区域": 5426,
      "意义": 5427,
      "平均": 5428,
      "▁trans": 5429,
      "ee": 5430,
      "坚持": 5431,
      "▁在": 5432,
      "减少": 5433,
      "消费者": 5434,
      "医生": 5435,
      "共同": 5436,
      "过程中": 5437,
      "以前": 5438,
      "ina": 5439,
      "男子": 5440,
      "ues": 5441,
      "可是": 5442,
      "88": 5443,
      "ouse": 5444,
      "而是": 5445,
      "针对": 5446,
      "▁person": 5447,
      "pen": 5448,
      "工业": 5449,
      "适合": 5450,
      "执行": 5451,
      "▁really": 5452,
      "运营": 5453,
      "于是": 5454,
      "下降": 5455,
      "照片": 5456,
      "我是": 5457,
      "▁disc": 5458,
      "也会": 5459,
      "我国": 5460,
      "▁love": 5461,
      "事情": 5462,
      "▁world": 5463,
      "尤其": 5464,
      "▁[": 5465,
      "We": 5466,
      "ince": 5467,
      "land": 5468,
      "曾经": 5469,
      "面对": 5470,
      "结合": 5471,
      "他们的": 5472,
      "球队": 5473,
      "成了": 5474,
      "广告": 5475,
      "▁fam": 5476,
      "ize": 5477,
      "相对": 5478,
      "自由": 5479,
      "▁If": 5480,
      "▁last": 5481,
      "再次": 5482,
      "欧洲": 5483,
      "36": 5484,
      "整体": 5485,
      "分享": 5486,
      "▁inte": 5487,
      "规划": 5488,
      "ivers": 5489,
      "突然": 5490,
      "▁inter": 5491,
      "▁ra": 5492,
      "ving": 5493,
      "▁home": 5494,
      "无论": 5495,
      "▁art": 5496,
      "动力": 5497,
      "▁life": 5498,
      "中文": 5499,
      "我觉得": 5500,
      "她的": 5501,
      "办法": 5502,
      "',": 5503,
      "ather": 5504,
      "预计": 5505,
      "▁design": 5506,
      "iel": 5507,
      "▁requ": 5508,
      "8月": 5509,
      "▁det": 5510,
      "▁form": 5511,
      "肯定": 5512,
      "▁hand": 5513,
      "▁Tr": 5514,
      "十分": 5515,
      "深圳": 5516,
      "▁Ar": 5517,
      "到底": 5518,
      "经理": 5519,
      "au": 5520,
      "ever": 5521,
      "核心": 5522,
      "self": 5523,
      "不错": 5524,
      "▁though": 5525,
      "德国": 5526,
      "世纪": 5527,
      "速度": 5528,
      "br": 5529,
      "另一": 5530,
      "开展": 5531,
      "让人": 5532,
      "man": 5533,
      "▁.": 5534,
      "战略": 5535,
      "值得": 5536,
      "gram": 5537,
      "▁Cl": 5538,
      "ene": 5539,
      "是不是": 5540,
      "read": 5541,
      "ars": 5542,
      "▁av": 5543,
      "▁pol": 5544,
      "连续": 5545,
      "韩国": 5546,
      "季度": 5547,
      "arn": 5548,
      "翻译": 5549,
      "保证": 5550,
      "下午": 5551,
      "软件": 5552,
      "▁sub": 5553,
      "行政": 5554,
      "▁med": 5555,
      "cept": 5556,
      "找到": 5557,
      "led": 5558,
      "理论": 5559,
      "tt": 5560,
      "一个人": 5561,
      "12月": 5562,
      "enc": 5563,
      "我想": 5564,
      "55": 5565,
      "iet": 5566,
      "ton": 5567,
      "ages": 5568,
      "题主": 5569,
      "irect": 5570,
      "▁say": 5571,
      "进行了": 5572,
      "罗斯": 5573,
      "来源": 5574,
      "比例": 5575,
      "ution": 5576,
      "网上": 5577,
      "akes": 5578,
      "的新": 5579,
      "▁def": 5580,
      "▁num": 5581,
      "▁ext": 5582,
      "快速": 5583,
      "▁count": 5584,
      "ute": 5585,
      "▁post": 5586,
      "有点": 5587,
      "ox": 5588,
      "赛季": 5589,
      "公司的": 5590,
      "交流": 5591,
      "是一种": 5592,
      "▁sl": 5593,
      "认识": 5594,
      "的事情": 5595,
      "行动": 5596,
      "用于": 5597,
      "制作": 5598,
      "▁going": 5599,
      "民警": 5600,
      "资料": 5601,
      "ublic": 5602,
      "自动": 5603,
      "网友": 5604,
      "▁cre": 5605,
      "▁cur": 5606,
      "▁business": 5607,
      "ex": 5608,
      "imes": 5609,
      "▁你": 5610,
      "全面": 5611,
      "第一次": 5612,
      "▁But": 5613,
      "ives": 5614,
      "ality": 5615,
      "预期": 5616,
      "riend": 5617,
      "▁still": 5618,
      "oh": 5619,
      "儿子": 5620,
      "5月": 5621,
      "This": 5622,
      "▁str": 5623,
      "这个问题": 5624,
      "冠军": 5625,
      "二十": 5626,
      "ds": 5627,
      "ween": 5628,
      "确实": 5629,
      "▁mem": 5630,
      "患者": 5631,
      "免费": 5632,
      "▁different": 5633,
      "▁ser": 5634,
      "检查": 5635,
      "一名": 5636,
      "▁As": 5637,
      "ww": 5638,
      "公安": 5639,
      "体系": 5640,
      "▁sign": 5641,
      "11月": 5642,
      "这次": 5643,
      "我就": 5644,
      "▁char": 5645,
      "数量": 5646,
      "48": 5647,
      "驾驶": 5648,
      "意见": 5649,
      "▁ed": 5650,
      "公开": 5651,
      "根本": 5652,
      "最大的": 5653,
      "相当": 5654,
      "意思": 5655,
      "医疗": 5656,
      "酒店": 5657,
      "会有": 5658,
      "ature": 5659,
      "▁while": 5660,
      "oad": 5661,
      "法国": 5662,
      "趋势": 5663,
      "等等": 5664,
      "一位": 5665,
      "车辆": 5666,
      "37": 5667,
      "利亚": 5668,
      "38": 5669,
      "▁point": 5670,
      "家长": 5671,
      "类似": 5672,
      "每个": 5673,
      "加强": 5674,
      "▁For": 5675,
      "本次": 5676,
      "一家": 5677,
      "以为": 5678,
      "训练": 5679,
      "It": 5680,
      "▁product": 5681,
      "新浪": 5682,
      "行的": 5683,
      "198": 5684,
      "▁ret": 5685,
      "时期": 5686,
      "想要": 5687,
      "节目": 5688,
      "程序": 5689,
      "ittle": 5690,
      "都在": 5691,
      "类型": 5692,
      "▁each": 5693,
      "男人": 5694,
      "con": 5695,
      "▁vis": 5696,
      "▁/": 5697,
      "▁gl": 5698,
      "的影响": 5699,
      "并没有": 5700,
      "考生": 5701,
      "▁information": 5702,
      "形式": 5703,
      "▁请": 5704,
      "基于": 5705,
      "300": 5706,
      "的地方": 5707,
      "降低": 5708,
      "▁same": 5709,
      "指出": 5710,
      "大部分": 5711,
      "▁aut": 5712,
      "说的": 5713,
      "▁around": 5714,
      "的时间": 5715,
      "▁between": 5716,
      "▁Q": 5717,
      "同样": 5718,
      "证明": 5719,
      "**": 5720,
      "遇到": 5721,
      "Wh": 5722,
      "34": 5723,
      "▁exp": 5724,
      "ved": 5725,
      "双方": 5726,
      "费用": 5727,
      "相比": 5728,
      "高的": 5729,
      "）、": 5730,
      "父亲": 5731,
      "▁child": 5732,
      "半年": 5733,
      "▁lead": 5734,
      "英语": 5735,
      "身份": 5736,
      "怎样": 5737,
      "ology": 5738,
      "为主": 5739,
      "实验": 5740,
      "广州": 5741,
      "团队": 5742,
      "▁feel": 5743,
      "是个": 5744,
      "▁found": 5745,
      "宣布": 5746,
      "判断": 5747,
      "事实": 5748,
      "lease": 5749,
      "ness": 5750,
      "合同": 5751,
      "▁sk": 5752,
      "▁comple": 5753,
      "生命": 5754,
      "ows": 5755,
      "子的": 5756,
      "2010年": 5757,
      "依然": 5758,
      "讨论": 5759,
      "▁cour": 5760,
      "符合": 5761,
      "引起": 5762,
      "女性": 5763,
      "是因为": 5764,
      "▁lot": 5765,
      "▁book": 5766,
      "色的": 5767,
      "ways": 5768,
      "◆◆": 5769,
      "商品": 5770,
      "▁data": 5771,
      "里面": 5772,
      "足球": 5773,
      "年代": 5774,
      "明确": 5775,
      "反应": 5776,
      "。“": 5777,
      "居民": 5778,
      "▁Ad": 5779,
      "ters": 5780,
      "任务": 5781,
      "不同的": 5782,
      "gg": 5783,
      "ern": 5784,
      "娱乐": 5785,
      "如果你": 5786,
      "满足": 5787,
      ".\"": 5788,
      "委员会": 5789,
      "▁adv": 5790,
      "▁process": 5791,
      "重新": 5792,
      "意识": 5793,
      "▁run": 5794,
      "三个": 5795,
      "▁cle": 5796,
      "欢迎": 5797,
      "晚上": 5798,
      "贷款": 5799,
      "ames": 5800,
      "最好": 5801,
      "be": 5802,
      "▁inf": 5803,
      "ital": 5804,
      "成员": 5805,
      "现象": 5806,
      "ody": 5807,
      "▁cr": 5808,
      "此次": 5809,
      "想到": 5810,
      "中华": 5811,
      "本人": 5812,
      "▁cor": 5813,
      "习惯": 5814,
      "75": 5815,
      "1月": 5816,
      "统计": 5817,
      "苹果": 5818,
      "ized": 5819,
      "▁team": 5820,
      "看看": 5821,
      "员工": 5822,
      "▁happ": 5823,
      "愿意": 5824,
      "尽管": 5825,
      "ism": 5826,
      "很多人": 5827,
      "▁care": 5828,
      "▁Le": 5829,
      "保障": 5830,
      "meric": 5831,
      "▁rep": 5832,
      "兴趣": 5833,
      "法院": 5834,
      "生物": 5835,
      "处于": 5836,
      "测试": 5837,
      "用的": 5838,
      "ets": 5839,
      "主任": 5840,
      "开放": 5841,
      "风格": 5842,
      "儿童": 5843,
      "咨询": 5844,
      "oot": 5845,
      "ional": 5846,
      "▁support": 5847,
      "▁both": 5848,
      "39": 5849,
      "▁eas": 5850,
      "▁Be": 5851,
      "uss": 5852,
      "协议": 5853,
      "▁free": 5854,
      "解释": 5855,
      "它们": 5856,
      "昨日": 5857,
      ")，": 5858,
      "让我": 5859,
      "▁market": 5860,
      "内的": 5861,
      "所谓": 5862,
      "能源": 5863,
      "家里": 5864,
      "房地产": 5865,
      "成长": 5866,
      "至少": 5867,
      "宣传": 5868,
      "化的": 5869,
      "▁week": 5870,
      "仍然": 5871,
      "▁effect": 5872,
      "▁Bl": 5873,
      "ok": 5874,
      "▁real": 5875,
      "ger": 5876,
      "▁three": 5877,
      "▁top": 5878,
      "民族": 5879,
      "!!": 5880,
      "随后": 5881,
      "▁ob": 5882,
      "女生": 5883,
      "丰富": 5884,
      "参考": 5885,
      "阅读": 5886,
      "the": 5887,
      "ER": 5888,
      "吸引": 5889,
      "▁techn": 5890,
      "me": 5891,
      "一定要": 5892,
      "▁list": 5893,
      "称为": 5894,
      "重大": 5895,
      "▁result": 5896,
      "▁fact": 5897,
      "在一起": 5898,
      "今日": 5899,
      "人类": 5900,
      "▁import": 5901,
      "不了": 5902,
      "办公": 5903,
      "推进": 5904,
      "▁gener": 5905,
      "mm": 5906,
      "事业": 5907,
      "ustom": 5908,
      "结婚": 5909,
      "49": 5910,
      "报名": 5911,
      "iqu": 5912,
      "▁few": 5913,
      "、《": 5914,
      "▁place": 5915,
      "也可以": 5916,
      "就可以": 5917,
      "2009年": 5918,
      "电脑": 5919,
      "▁Pl": 5920,
      "AT": 5921,
      "ten": 5922,
      "ote": 5923,
      "32": 5924,
      "优秀": 5925,
      "unity": 5926,
      "年来": 5927,
      "重要的": 5928,
      "让你": 5929,
      "▁Z": 5930,
      "▁pat": 5931,
      "警方": 5932,
      "避免": 5933,
      "blem": 5934,
      "合理": 5935,
      "▁val": 5936,
      "行情": 5937,
      "▁12": 5938,
      "▁lar": 5939,
      "▁del": 5940,
      "▁little": 5941,
      "▁ty": 5942,
      "ann": 5943,
      "食品": 5944,
      "66": 5945,
      "家的": 5946,
      "▁provid": 5947,
      "现实": 5948,
      "总是": 5949,
      "▁They": 5950,
      "less": 5951,
      "表明": 5952,
      "、“": 5953,
      "离开": 5954,
      "本身": 5955,
      "角度": 5956,
      "PP": 5957,
      "真实": 5958,
      "85": 5959,
      "配置": 5960,
      "距离": 5961,
      "培训": 5962,
      "图片": 5963,
      "ps": 5964,
      "ants": 5965,
      "vern": 5966,
      "▁sol": 5967,
      "去了": 5968,
      "女人": 5969,
      "▁Se": 5970,
      "来了": 5971,
      "昨天": 5972,
      "概念": 5973,
      "力的": 5974,
      "俄罗斯": 5975,
      "▁using": 5976,
      "清楚": 5977,
      "拍摄": 5978,
      "▁dep": 5979,
      "加上": 5980,
      "首次": 5981,
      "▁things": 5982,
      "▁fr": 5983,
      "犯罪": 5984,
      "即使": 5985,
      "一天": 5986,
      "人生": 5987,
      "很难": 5988,
      "官方": 5989,
      "母亲": 5990,
      "力量": 5991,
      "ruct": 5992,
      "推动": 5993,
      "▁month": 5994,
      "▁fil": 5995,
      "监管": 5996,
      "措施": 5997,
      "▁program": 5998,
      "els": 5999,
      "thing": 6000,
      "有一个": 6001,
      "及时": 6002,
      "大会": 6003,
      "▁prof": 6004,
      "突破": 6005,
      "--------------------------------": 6006,
      "ves": 6007,
      "▁On": 6008,
      "2000": 6009,
      "利益": 6010,
      "▁main": 6011,
      "各位": 6012,
      "而言": 6013,
      "5日": 6014,
      "作者": 6015,
      "句话": 6016,
      "的主": 6017,
      "▁ide": 6018,
      "很好": 6019,
      "2013年": 6020,
      "app": 6021,
      "安排": 6022,
      "ired": 6023,
      "有了": 6024,
      "黄金": 6025,
      "ci": 6026,
      "ining": 6027,
      "ross": 6028,
      "的发展": 6029,
      "有没有": 6030,
      "如今": 6031,
      "下跌": 6032,
      "亿美元": 6033,
      "印度": 6034,
      "ething": 6035,
      "不足": 6036,
      "▁ear": 6037,
      "名的": 6038,
      "▁—": 6039,
      "思想": 6040,
      "同比": 6041,
      "gy": 6042,
      "▁water": 6043,
      "65": 6044,
      "上了": 6045,
      "战争": 6046,
      "人物": 6047,
      "动物": 6048,
      "还要": 6049,
      "绝对": 6050,
      "de": 6051,
      "补充": 6052,
      "▁var": 6053,
      "宝宝": 6054,
      "orn": 6055,
      "三年": 6056,
      "运行": 6057,
      "ined": 6058,
      "▁full": 6059,
      "推出": 6060,
      "ural": 6061,
      "cent": 6062,
      "▁put": 6063,
      "创造": 6064,
      "rol": 6065,
      "担任": 6066,
      "背景": 6067,
      "高速": 6068,
      "▁state": 6069,
      "▁dist": 6070,
      "最佳": 6071,
      "大概": 6072,
      "进度": 6073,
      "指导": 6074,
      "▁cap": 6075,
      "▁problem": 6076,
      "▁cent": 6077,
      "性能": 6078,
      "我也": 6079,
      "▁better": 6080,
      "中国的": 6081,
      "集中": 6082,
      "▁class": 6083,
      "”“": 6084,
      "▁school": 6085,
      "▁come": 6086,
      "例如": 6087,
      "▁Americ": 6088,
      "岁的": 6089,
      "很大": 6090,
      "融资": 6091,
      ",”": 6092,
      "aj": 6093,
      "句子": 6094,
      "近日": 6095,
      "▁big": 6096,
      "▁X": 6097,
      "▁try": 6098,
      "联赛": 6099,
      "▁keep": 6100,
      "Re": 6101,
      "ists": 6102,
      "两人": 6103,
      "铁路": 6104,
      "似乎": 6105,
      "内部": 6106,
      "下面": 6107,
      "表达": 6108,
      "促进": 6109,
      "成交": 6110,
      "reen": 6111,
      "IN": 6112,
      "举行": 6113,
      "▁el": 6114,
      "to": 6115,
      "生态": 6116,
      "第四": 6117,
      "通常": 6118,
      "▁Ex": 6119,
      "我不": 6120,
      "往往": 6121,
      "高中": 6122,
      "▁open": 6123,
      "ared": 6124,
      "▁got": 6125,
      "2011年": 6126,
      "他在": 6127,
      "组合": 6128,
      "过的": 6129,
      "▁always": 6130,
      "公共": 6131,
      "▁pur": 6132,
      "记录": 6133,
      "业绩": 6134,
      "它的": 6135,
      "▁Gr": 6136,
      "广东": 6137,
      "时尚": 6138,
      "大多数": 6139,
      "发动": 6140,
      "有所": 6141,
      "观点": 6142,
      "之外": 6143,
      "采取": 6144,
      "就能": 6145,
      "公告": 6146,
      "道路": 6147,
      "rist": 6148,
      "设施": 6149,
      "机制": 6150,
      "看待": 6151,
      "St": 6152,
      "31": 6153,
      "▁report": 6154,
      "的工作": 6155,
      "Ph": 6156,
      "▁ref": 6157,
      "\",": 6158,
      "正确": 6159,
      "特点": 6160,
      "▁●": 6161,
      "▁friend": 6162,
      "公众": 6163,
      "通知": 6164,
      "ention": 6165,
      "aut": 6166,
      "▁15": 6167,
      "46": 6168,
      "▁est": 6169,
      "原油": 6170,
      "▁small": 6171,
      "对手": 6172,
      "机关": 6173,
      "iving": 6174,
      "▁How": 6175,
      "逐渐": 6176,
      "工具": 6177,
      "▁must": 6178,
      "群众": 6179,
      "▁quest": 6180,
      "▁during": 6181,
      "ished": 6182,
      "8日": 6183,
      "上升": 6184,
      "排名": 6185,
      "▁something": 6186,
      "女士": 6187,
      "▁poss": 6188,
      "唯一": 6189,
      "47": 6190,
      "死亡": 6191,
      "ically": 6192,
      "ted": 6193,
      "打造": 6194,
      "▁appro": 6195,
      "▁Sc": 6196,
      "▁There": 6197,
      "他说": 6198,
      "不用": 6199,
      "oney": 6200,
      "iversity": 6201,
      "投入": 6202,
      "AC": 6203,
      "▁health": 6204,
      "近期": 6205,
      "就在": 6206,
      "bers": 6207,
      "卫生": 6208,
      "上午": 6209,
      "▁So": 6210,
      "会计": 6211,
      "▁18": 6212,
      "做好": 6213,
      "车型": 6214,
      "高考": 6215,
      "升级": 6216,
      "▁won": 6217,
      "▁old": 6218,
      "女儿": 6219,
      "ST": 6220,
      "看了": 6221,
      "▁plan": 6222,
      "6日": 6223,
      "教师": 6224,
      "▁conf": 6225,
      "观察": 6226,
      "▁wom": 6227,
      "ailable": 6228,
      "lish": 6229,
      "土地": 6230,
      "▁group": 6231,
      "给我": 6232,
      "指标": 6233,
      "有多": 6234,
      "AR": 6235,
      "方便": 6236,
      "▁opt": 6237,
      "态度": 6238,
      "每次": 6239,
      "自身": 6240,
      "感受": 6241,
      "ple": 6242,
      "▁rest": 6243,
      "之间的": 6244,
      "▁following": 6245,
      "明星": 6246,
      "识别": 6247,
      "ior": 6248,
      "终于": 6249,
      "▁Fr": 6250,
      "从而": 6251,
      "角色": 6252,
      "▁interest": 6253,
      "uck": 6254,
      "▁resp": 6255,
      "队和": 6256,
      "也就是": 6257,
      "那种": 6258,
      "数字": 6259,
      "市场的": 6260,
      "必要": 6261,
      "2016": 6262,
      "▁never": 6263,
      "▁Ph": 6264,
      "主动": 6265,
      "名字": 6266,
      "▁soc": 6267,
      "▁next": 6268,
      "发挥": 6269,
      "货币": 6270,
      "身边": 6271,
      "▁partic": 6272,
      "发表": 6273,
      "感谢": 6274,
      "股权": 6275,
      "▁hard": 6276,
      "几年": 6277,
      "组成": 6278,
      "更是": 6279,
      "aper": 6280,
      "观众": 6281,
      "并不是": 6282,
      "ision": 6283,
      "▁iss": 6284,
      "ai": 6285,
      "资格": 6286,
      "我在": 6287,
      "哈哈": 6288,
      "ope": 6289,
      "演员": 6290,
      "▁，": 6291,
      "ED": 6292,
      "Ch": 6293,
      "实体": 6294,
      "ling": 6295,
      "》、《": 6296,
      "工资": 6297,
      "南京": 6298,
      "还在": 6299,
      "▁contin": 6300,
      "感情": 6301,
      "▁tri": 6302,
      "sh": 6303,
      "不管": 6304,
      "▁其": 6305,
      "▁stand": 6306,
      "也许": 6307,
      "变得": 6308,
      "▁another": 6309,
      "▁without": 6310,
      "▁la": 6311,
      "▁pass": 6312,
      "将在": 6313,
      "充分": 6314,
      "7日": 6315,
      "rence": 6316,
      "每年": 6317,
      "ering": 6318,
      "迅速": 6319,
      "细胞": 6320,
      "stand": 6321,
      "▁Con": 6322,
      "▁company": 6323,
      "ense": 6324,
      "▁head": 6325,
      "在第": 6326,
      "▁let": 6327,
      "恢复": 6328,
      "总统": 6329,
      "▁Te": 6330,
      "att": 6331,
      "一切": 6332,
      "BA": 6333,
      "培养": 6334,
      "市民": 6335,
      "und": 6336,
      "▁wr": 6337,
      "▁She": 6338,
      "老板": 6339,
      "心的": 6340,
      "教授": 6341,
      "▁game": 6342,
      "He": 6343,
      "场比赛": 6344,
      "小学": 6345,
      "财务": 6346,
      "就像": 6347,
      "▁might": 6348,
      "老人": 6349,
      "情绪": 6350,
      "▁年": 6351,
      "负责人": 6352,
      "▁incre": 6353,
      "农业": 6354,
      "▁To": 6355,
      "▁second": 6356,
      "书记": 6357,
      "事故": 6358,
      "幸福": 6359,
      "将会": 6360,
      "的方式": 6361,
      "的不": 6362,
      "可能会": 6363,
      "ats": 6364,
      "更新": 6365,
      "44": 6366,
      "的重要": 6367,
      "大幅": 6368,
      "采访": 6369,
      "改善": 6370,
      "▁ve": 6371,
      "出生": 6372,
      "课程": 6373,
      "至于": 6374,
      "ral": 6375,
      "▁project": 6376,
      "状况": 6377,
      "是不": 6378,
      "▁since": 6379,
      "PS": 6380,
      "ON": 6381,
      "的东西": 6382,
      "涉及": 6383,
      "ium": 6384,
      "两年": 6385,
      "ield": 6386,
      "协会": 6387,
      "二维": 6388,
      "ethod": 6389,
      "▁build": 6390,
      "疾病": 6391,
      "段时间": 6392,
      "机器": 6393,
      "策略": 6394,
      "毕竟": 6395,
      "使得": 6396,
      "食物": 6397,
      "▁Eng": 6398,
      "▁test": 6399,
      "对象": 6400,
      "raph": 6401,
      "2008年": 6402,
      "面临": 6403,
      "支撑": 6404,
      "营销": 6405,
      "最新": 6406,
      "者的": 6407,
      "oard": 6408,
      "此前": 6409,
      "享受": 6410,
      "农村": 6411,
      "▁family": 6412,
      "接触": 6413,
      "定的": 6414,
      "▁mov": 6415,
      "注册": 6416,
      "▁number": 6417,
      "文件": 6418,
      "▁pri": 6419,
      "ode": 6420,
      "模型": 6421,
      "不知": 6422,
      "尤其是": 6423,
      "航空": 6424,
      "▁pay": 6425,
      "统一": 6426,
      "▁Ind": 6427,
      "收购": 6428,
      "感到": 6429,
      "▁dri": 6430,
      "透露": 6431,
      "衣服": 6432,
      "截至": 6433,
      "及其": 6434,
      "95": 6435,
      "▁direct": 6436,
      "\":": 6437,
      "co": 6438,
      "ron": 6439,
      "也没有": 6440,
      "▁expl": 6441,
      "不再": 6442,
      "的前": 6443,
      "▁custom": 6444,
      "实在": 6445,
      "房子": 6446,
      "ush": 6447,
      "放在": 6448,
      "谢谢": 6449,
      "到的": 6450,
      "年龄": 6451,
      "意味": 6452,
      "▁organ": 6453,
      "▁sure": 6454,
      "▁important": 6455,
      "担心": 6456,
      "▁invest": 6457,
      "在中国": 6458,
      "的好": 6459,
      "eng": 6460,
      "亚洲": 6461,
      "▁bro": 6462,
      "描述": 6463,
      "出去": 6464,
      "山东": 6465,
      "ences": 6466,
      "令人": 6467,
      "十年": 6468,
      "”、“": 6469,
      "ertain": 6470,
      "回家": 6471,
      "主席": 6472,
      "上述": 6473,
      "==": 6474,
      "ploy": 6475,
      "ator": 6476,
      "困难": 6477,
      "▁rese": 6478,
      "原则": 6479,
      "商务": 6480,
      "▁perform": 6481,
      "3日": 6482,
      "翻译成": 6483,
      "ered": 6484,
      "比分为": 6485,
      "____": 6486,
      "十二": 6487,
      "重庆": 6488,
      "家人": 6489,
      "公园": 6490,
      "▁power": 6491,
      "68": 6492,
      "2月": 6493,
      "▁level": 6494,
      "爱情": 6495,
      "想法": 6496,
      "的朋友": 6497,
      "对此": 6498,
      "飞机": 6499,
      "ases": 6500,
      "太多": 6501,
      "挑战": 6502,
      "▁:": 6503,
      "很有": 6504,
      "illion": 6505,
      "教学": 6506,
      "▁All": 6507,
      "皮肤": 6508,
      "时的": 6509,
      "评论为": 6510,
      "▁Is": 6511,
      "分布": 6512,
      "400": 6513,
      "限制": 6514,
      "完善": 6515,
      "▁11": 6516,
      "队和第二": 6517,
      "比赛进度": 6518,
      "第一队和第二": 6519,
      "队的比分为": 6520,
      "现场评论为": 6521,
      "第一队和第二队的比分为": 6522,
      "动作": 6523,
      "来到": 6524,
      "ency": 6525,
      "玩家": 6526,
      "复杂": 6527,
      "You": 6528,
      "4日": 6529,
      "板块": 6530,
      "inal": 6531,
      "哪里": 6532,
      "IT": 6533,
      "规范": 6534,
      "供应": 6535,
      "二维码": 6536,
      "ccess": 6537,
      "搭配": 6538,
      "AN": 6539,
      "数学": 6540,
      "▁ask": 6541,
      "▁give": 6542,
      "by": 6543,
      "9日": 6544,
      "财政": 6545,
      "▁di": 6546,
      "变成": 6547,
      "▁online": 6548,
      "ley": 6549,
      "的原因": 6550,
      "大陆": 6551,
      "金额": 6552,
      "才是": 6553,
      "维持": 6554,
      "▁available": 6555,
      "▁cost": 6556,
      "启动": 6557,
      "经典": 6558,
      "▁pos": 6559,
      "地位": 6560,
      "债券": 6561,
      "▁es": 6562,
      "好像": 6563,
      "ately": 6564,
      "▁30": 6565,
      "ery": 6566,
      "更多的": 6567,
      "难以": 6568,
      "联盟": 6569,
      "ients": 6570,
      "icle": 6571,
      "直到": 6572,
      "案件": 6573,
      "特殊": 6574,
      "ember": 6575,
      "▁opp": 6576,
      "编辑": 6577,
      "的情况下": 6578,
      "人才": 6579,
      "身上": 6580,
      "▁says": 6581,
      "不多": 6582,
      "高度": 6583,
      "设置": 6584,
      "▁Col": 6585,
      "点击": 6586,
      "ID": 6587,
      "▁service": 6588,
      "OS": 6589,
      "有个": 6590,
      "pos": 6591,
      "197": 6592,
      "▁days": 6593,
      "ware": 6594,
      "▁《": 6595,
      "▁including": 6596,
      "研发": 6597,
      "国外": 6598,
      "就业": 6599,
      "2012年": 6600,
      "出口": 6601,
      "放弃": 6602,
      "教练": 6603,
      "当前": 6604,
      "出版": 6605,
      "▁anal": 6606,
      "▁experience": 6607,
      "当年": 6608,
      "▁（": 6609,
      "本文": 6610,
      "▁less": 6611,
      "▁grow": 6612,
      "ott": 6613,
      "做的": 6614,
      "▁Res": 6615,
      "98": 6616,
      "类的": 6617,
      "▁bre": 6618,
      "ump": 6619,
      "outh": 6620,
      "▁sit": 6621,
      "男生": 6622,
      "▁equ": 6623,
      "▁public": 6624,
      "▁light": 6625,
      "▁win": 6626,
      "ization": 6627,
      "看来": 6628,
      "特征": 6629,
      "多年": 6630,
      "▁‘": 6631,
      "min": 6632,
      "浙江": 6633,
      "实力": 6634,
      "心里": 6635,
      "▁seem": 6636,
      "ript": 6637,
      "手术": 6638,
      "强调": 6639,
      "办理": 6640,
      "方面的": 6641,
      "文学": 6642,
      "多次": 6643,
      "在于": 6644,
      "▁,": 6645,
      "▁met": 6646,
      "tain": 6647,
      "成都": 6648,
      "危机": 6649,
      "多个": 6650,
      "短期": 6651,
      "如下": 6652,
      "女子": 6653,
      "在这": 6654,
      "共和": 6655,
      "And": 6656,
      "▁mus": 6657,
      "搜索": 6658,
      "▁Sp": 6659,
      "天津": 6660,
      "现金": 6661,
      "irl": 6662,
      "▁为什么": 6663,
      "举办": 6664,
      "就不": 6665,
      "英文": 6666,
      "600": 6667,
      "即可": 6668,
      "怎样的": 6669,
      "ours": 6670,
      "平时": 6671,
      "明白": 6672,
      "▁prot": 6673,
      "▁Or": 6674,
      "▁belie": 6675,
      "永远": 6676,
      "司机": 6677,
      "78": 6678,
      "▁US": 6679,
      "If": 6680,
      "1000": 6681,
      "▁oper": 6682,
      "拒绝": 6683,
      "可能是": 6684,
      "工作人员": 6685,
      "股市": 6686,
      "▁rece": 6687,
      "▁的": 6688,
      "严格": 6689,
      "一旦": 6690,
      "粉丝": 6691,
      "爸爸": 6692,
      "份额": 6693,
      "金属": 6694,
      "刚刚": 6695,
      "空气": 6696,
      "05": 6697,
      "▁against": 6698,
      "登记": 6699,
      "中学": 6700,
      "sc": 6701,
      "女孩": 6702,
      "oint": 6703,
      "公路": 6704,
      "好了": 6705,
      "物质": 6706,
      "青年": 6707,
      "▁sent": 6708,
      "太阳": 6709,
      "book": 6710,
      "量的": 6711,
      "ret": 6712,
      "反对": 6713,
      "下去": 6714,
      "机场": 6715,
      "我说": 6716,
      "贡献": 6717,
      "10月2": 6718,
      "ane": 6719,
      "现在的": 6720,
      "一条": 6721,
      "▁bas": 6722,
      "▁hum": 6723,
      "形象": 6724,
      "▁En": 6725,
      "最好的": 6726,
      "▁kind": 6727,
      ",\"": 6728,
      "提醒": 6729,
      "超级": 6730,
      "就要": 6731,
      "ream": 6732,
      "提前": 6733,
      "输入": 6734,
      "58": 6735,
      "规则": 6736,
      "nect": 6737,
      "回到": 6738,
      "信用": 6739,
      "gin": 6740,
      "优惠": 6741,
      "▁able": 6742,
      "小的": 6743,
      "let": 6744,
      "追求": 6745,
      "车站": 6746,
      "至今": 6747,
      "期货": 6748,
      "IS": 6749,
      "天气": 6750,
      "思考": 6751,
      "利率": 6752,
      "所在": 6753,
      "▁Man": 6754,
      "ivid": 6755,
      "▁par": 6756,
      "给你": 6757,
      "yn": 6758,
      "▁current": 6759,
      "发展的": 6760,
      "四川": 6761,
      "乐部": 6762,
      "▁job": 6763,
      "▁room": 6764,
      "42": 6765,
      "iron": 6766,
      "▁Mar": 6767,
      "都能": 6768,
      "▁const": 6769,
      "▁leg": 6770,
      "俱乐部": 6771,
      "vernment": 6772,
      "conom": 6773,
      "实际上": 6774,
      "特色": 6775,
      "普遍": 6776,
      "打开": 6777,
      "▁view": 6778,
      "在此": 6779,
      "ably": 6780,
      "百度": 6781,
      "77": 6782,
      "渠道": 6783,
      "of": 6784,
      "确认": 6785,
      "意味着": 6786,
      "▁z": 6787,
      "出来的": 6788,
      "▁proper": 6789,
      "干部": 6790,
      "决赛": 6791,
      "▁order": 6792,
      "召开": 6793,
      "记得": 6794,
      "长的": 6795,
      "美的": 6796,
      "损失": 6797,
      "▁sing": 6798,
      "▁mat": 6799,
      "怎么办": 6800,
      "植物": 6801,
      "营业": 6802,
      "ids": 6803,
      "原来": 6804,
      "▁area": 6805,
      "她们": 6806,
      "大利": 6807,
      "当天": 6808,
      "推广": 6809,
      "特别是": 6810,
      "环保": 6811,
      "细节": 6812,
      "深入": 6813,
      "IC": 6814,
      "做了": 6815,
      "▁turn": 6816,
      "▁law": 6817,
      "监督": 6818,
      "走势": 6819,
      "orth": 6820,
      "少年": 6821,
      "声音": 6822,
      "盈利": 6823,
      "有着": 6824,
      "▁present": 6825,
      "报记者": 6826,
      "错误": 6827,
      "ohn": 6828,
      "▁dem": 6829,
      "分配": 6830,
      "做到": 6831,
      "▁pop": 6832,
      "从事": 6833,
      "东北": 6834,
      "几天": 6835,
      "电动": 6836,
      "主持": 6837,
      "▁method": 6838,
      "▁sal": 6839,
      "ards": 6840,
      "ability": 6841,
      "也在": 6842,
      "▁mar": 6843,
      "理由": 6844,
      "中间": 6845,
      "人在": 6846,
      "20日": 6847,
      "大型": 6848,
      "▁meet": 6849,
      "自我": 6850,
      "展示": 6851,
      "成熟": 6852,
      "enn": 6853,
      "很快": 6854,
      "配合": 6855,
      "反弹": 6856,
      "▁eng": 6857,
      "反映": 6858,
      "ipp": 6859,
      "认真": 6860,
      "回复": 6861,
      "地的": 6862,
      "最低": 6863,
      "都要": 6864,
      "▁That": 6865,
      "▁away": 6866,
      "rodu": 6867,
      "▁food": 6868,
      "主题": 6869,
      "论坛": 6870,
      "▁applic": 6871,
      "本科": 6872,
      "即将": 6873,
      "也没": 6874,
      "贸易": 6875,
      "ified": 6876,
      "ample": 6877,
      "til": 6878,
      "不如": 6879,
      "预测": 6880,
      "agement": 6881,
      "相同": 6882,
      "孩子的": 6883,
      "med": 6884,
      "gle": 6885,
      "▁prev": 6886,
      "，《": 6887,
      "▁thing": 6888,
      "是我": 6889,
      "▁impro": 6890,
      "文明": 6891,
      "发动机": 6892,
      "work": 6893,
      "给予": 6894,
      "引发": 6895,
      "共有": 6896,
      "或许": 6897,
      "不想": 6898,
      "导演": 6899,
      "▁aff": 6900,
      "日常": 6901,
      "信号": 6902,
      "▁phot": 6903,
      "IP": 6904,
      "ently": 6905,
      "效率": 6906,
      "前往": 6907,
      "小编": 6908,
      "有很多": 6909,
      "ider": 6910,
      "▁如何评价": 6911,
      "本来": 6912,
      "妻子": 6913,
      "检测": 6914,
      "伙伴": 6915,
      "小区": 6916,
      "43": 6917,
      "uro": 6918,
      "joy": 6919,
      "ised": 6920,
      "ission": 6921,
      "都没有": 6922,
      "更好": 6923,
      "海外": 6924,
      "第一个": 6925,
      "的主要": 6926,
      "▁prom": 6927,
      "直播": 6928,
      "▁money": 6929,
      "▁four": 6930,
      "anks": 6931,
      "aring": 6932,
      "ury": 6933,
      "天然": 6934,
      "不起": 6935,
      "▁today": 6936,
      "邀请": 6937,
      "还能": 6938,
      "ories": 6939,
      "▁pa": 6940,
      "不够": 6941,
      "刺激": 6942,
      "▁case": 6943,
      "▁change": 6944,
      "ries": 6945,
      "平方公里": 6946,
      "hor": 6947,
      "具备": 6948,
      "小说": 6949,
      "ration": 6950,
      "招生": 6951,
      ".,": 6952,
      "▁Comm": 6953,
      "估计": 6954,
      "ording": 6955,
      "所有的": 6956,
      "67": 6957,
      "攻击": 6958,
      "展开": 6959,
      "度的": 6960,
      "》。": 6961,
      "▁ann": 6962,
      "沟通": 6963,
      "地址": 6964,
      "▁intern": 6965,
      "ged": 6966,
      "iver": 6967,
      "por": 6968,
      "接近": 6969,
      "▁No": 6970,
      "▁children": 6971,
      "在线": 6972,
      "掌握": 6973,
      "ES": 6974,
      "摄影": 6975,
      "江苏": 6976,
      "人数": 6977,
      "嫌疑": 6978,
      "带着": 6979,
      "大众": 6980,
      "增强": 6981,
      "lection": 6982,
      ")、": 6983,
      "名为": 6984,
      "▁Cent": 6985,
      "▁why": 6986,
      "augh": 6987,
      "uff": 6988,
      "河南": 6989,
      "aster": 6990,
      "▁large": 6991,
      "污染": 6992,
      "同意": 6993,
      "▁chang": 6994,
      "▁Co": 6995,
      "▁night": 6996,
      "扩大": 6997,
      "化学": 6998,
      "理财": 6999,
      "▁Pr": 7000,
      "▁beh": 7001,
      "我要": 7002,
      "确保": 7003,
      "颜色": 7004,
      "▁hist": 7005,
      "股份有限公司": 7006,
      "yle": 7007,
      "杭州": 7008,
      "▁special": 7009,
      "承担": 7010,
      "▁making": 7011,
      "▁et": 7012,
      "英雄": 7013,
      "▁fac": 7014,
      "ird": 7015,
      "慢慢": 7016,
      "iting": 7017,
      "期待": 7018,
      "▁looking": 7019,
      "▁within": 7020,
      "体的": 7021,
      "说法": 7022,
      "回来": 7023,
      "▁199": 7024,
      "ills": 7025,
      "▁students": 7026,
      "都可以": 7027,
      "oor": 7028,
      "车的": 7029,
      "▁working": 7030,
      "▁16": 7031,
      "应当": 7032,
      "▁Br": 7033,
      "▁past": 7034,
      "itional": 7035,
      "2017年": 7036,
      "fect": 7037,
      "手段": 7038,
      "inc": 7039,
      "▁review": 7040,
      "革命": 7041,
      "load": 7042,
      "▁dr": 7043,
      "过来": 7044,
      "iven": 7045,
      "▁provide": 7046,
      "期的": 7047,
      "本基金": 7048,
      "尝试": 7049,
      "err": 7050,
      "主要是": 7051,
      "▁What": 7052,
      "看着": 7053,
      "旅行": 7054,
      "195": 7055,
      "01": 7056,
      "一场": 7057,
      "学会": 7058,
      "区别": 7059,
      "年度": 7060,
      "版本": 7061,
      "营养": 7062,
      "OR": 7063,
      "轻松": 7064,
      "充满": 7065,
      "ideo": 7066,
      "总结": 7067,
      "吃饭": 7068,
      "▁control": 7069,
      "品质": 7070,
      "▁这": 7071,
      "寻找": 7072,
      "持有": 7073,
      "son": 7074,
      "下面的": 7075,
      "▁air": 7076,
      "件事": 7077,
      "ying": 7078,
      "▁site": 7079,
      "▁cond": 7080,
      "As": 7081,
      "▁pract": 7082,
      "▁Fl": 7083,
      "▁University": 7084,
      "自行": 7085,
      "▁elect": 7086,
      "葡萄": 7087,
      "危险": 7088,
      "专门": 7089,
      "违法": 7090,
      "ains": 7091,
      "地铁": 7092,
      "伤害": 7093,
      "高校": 7094,
      "▁course": 7095,
      "▁name": 7096,
      "194": 7097,
      "▁non": 7098,
      "两种": 7099,
      "志愿": 7100,
      "爱的": 7101,
      "尼亚": 7102,
      "流动": 7103,
      "Phone": 7104,
      "》（": 7105,
      "失败": 7106,
      "地点": 7107,
      "输出": 7108,
      "立即": 7109,
      "而在": 7110,
      "重视": 7111,
      "基地": 7112,
      "▁near": 7113,
      "▁App": 7114,
      "生的": 7115,
      "做出": 7116,
      "千万": 7117,
      "领先": 7118,
      "uper": 7119,
      "oci": 7120,
      "urs": 7121,
      "过了": 7122,
      "思维": 7123,
      "room": 7124,
      "真是": 7125,
      "会在": 7126,
      "眼睛": 7127,
      "长按": 7128,
      "理想": 7129,
      "▁writ": 7130,
      "2015": 7131,
      "而不是": 7132,
      "ails": 7133,
      "ination": 7134,
      "une": 7135,
      "差异": 7136,
      "说是": 7137,
      "ending": 7138,
      "▁dra": 7139,
      "▁left": 7140,
      "▁house": 7141,
      "性格": 7142,
      "▁access": 7143,
      "▁understand": 7144,
      "上面": 7145,
      "体现": 7146,
      "iety": 7147,
      "斯特": 7148,
      "意大利": 7149,
      "▁Christ": 7150,
      "兄弟": 7151,
      "ler": 7152,
      "招聘": 7153,
      "▁sw": 7154,
      "51": 7155,
      ")。": 7156,
      "传播": 7157,
      "▁treat": 7158,
      "▁My": 7159,
      "石油": 7160,
      "相应": 7161,
      "的心": 7162,
      "▁services": 7163,
      "aterial": 7164,
      "精彩": 7165,
      "一路": 7166,
      "中小": 7167,
      "博士": 7168,
      "▁didn": 7169,
      "▁indust": 7170,
      "从来": 7171,
      "▁May": 7172,
      "低于": 7173,
      "▁local": 7174,
      "的生活": 7175,
      "奥运": 7176,
      "ney": 7177,
      "派出": 7178,
      "会上": 7179,
      "itions": 7180,
      "08": 7181,
      "东方": 7182,
      "广场": 7183,
      "196": 7184,
      "律师": 7185,
      "正是": 7186,
      "▁times": 7187,
      "广泛": 7188,
      "▁development": 7189,
      "▁conc": 7190,
      "EC": 7191,
      "57": 7192,
      "军事": 7193,
      "公交": 7194,
      "理念": 7195,
      "▁When": 7196,
      "为何": 7197,
      "itive": 7198,
      "足够": 7199,
      "AS": 7200,
      "哪个": 7201,
      "▁men": 7202,
      "日前": 7203,
      "西班": 7204,
      "ique": 7205,
      "下了": 7206,
      "56": 7207,
      "详细": 7208,
      "▁activ": 7209,
      "▁term": 7210,
      "缺乏": 7211,
      "涨幅": 7212,
      "定位": 7213,
      "西班牙": 7214,
      "湖南": 7215,
      "▁tell": 7216,
      "lement": 7217,
      "上市公司": 7218,
      "ential": 7219,
      "rap": 7220,
      "试验": 7221,
      "41": 7222,
      "高级": 7223,
      "▁research": 7224,
      "这位": 7225,
      "▁--": 7226,
      "59": 7227,
      "atic": 7228,
      "技能": 7229,
      "工艺": 7230,
      "▁charact": 7231,
      "mber": 7232,
      "物理": 7233,
      "▁*": 7234,
      "19日": 7235,
      "创作": 7236,
      "▁Car": 7237,
      "是有": 7238,
      "估值": 7239,
      "印象": 7240,
      "前的": 7241,
      "实践": 7242,
      "人家": 7243,
      "还会": 7244,
      "▁until": 7245,
      "并非": 7246,
      "武汉": 7247,
      "一张": 7248,
      "▁expect": 7249,
      "机械": 7250,
      "呈现": 7251,
      "不太": 7252,
      "快乐": 7253,
      "ready": 7254,
      "▁webs": 7255,
      "▁having": 7256,
      "上周": 7257,
      "名称": 7258,
      "▁talk": 7259,
      "准确": 7260,
      "阿里": 7261,
      "也很": 7262,
      "▁learn": 7263,
      "施工": 7264,
      "承认": 7265,
      "强的": 7266,
      "▁based": 7267,
      "▁success": 7268,
      "自主": 7269,
      "众多": 7270,
      "警察": 7271,
      "rop": 7272,
      "表演": 7273,
      "ising": 7274,
      "披露": 7275,
      "▁line": 7276,
      "▁dev": 7277,
      "acy": 7278,
      "▁often": 7279,
      "utes": 7280,
      "完整": 7281,
      "给了": 7282,
      "的基础": 7283,
      "▁fore": 7284,
      "▁17": 7285,
      "这款": 7286,
      "的方法": 7287,
      "ajor": 7288,
      "意外": 7289,
      "eb": 7290,
      "▁tem": 7291,
      "alf": 7292,
      "▁whe": 7293,
      "蛋白": 7294,
      "▁With": 7295,
      "适应": 7296,
      "▁mil": 7297,
      "说话": 7298,
      "aff": 7299,
      "多了": 7300,
      "gether": 7301,
      "A股": 7302,
      "▁together": 7303,
      "AM": 7304,
      "合适": 7305,
      "战斗": 7306,
      "▁pain": 7307,
      "side": 7308,
      "包含": 7309,
      "▁bit": 7310,
      "开心": 7311,
      "一致": 7312,
      "▁pot": 7313,
      "ony": 7314,
      "09": 7315,
      "▁country": 7316,
      "ived": 7317,
      "制定": 7318,
      "评估": 7319,
      "震荡": 7320,
      "也要": 7321,
      "▁14": 7322,
      "▁short": 7323,
      "▁speak": 7324,
      "斯坦": 7325,
      "鼓励": 7326,
      "健身": 7327,
      "cript": 7328,
      "应该是": 7329,
      "面试": 7330,
      "▁trad": 7331,
      "▁quality": 7332,
      "安装": 7333,
      "▁allow": 7334,
      "▁At": 7335,
      "idd": 7336,
      "录取": 7337,
      "▁far": 7338,
      "也就": 7339,
      "药物": 7340,
      "▁enough": 7341,
      "▁enjoy": 7342,
      "转型": 7343,
      "▁ever": 7344,
      "设立": 7345,
      "▁low": 7346,
      "▁paper": 7347,
      "▁100": 7348,
      "af": 7349,
      "某些": 7350,
      "房价": 7351,
      "平方米": 7352,
      "天下": 7353,
      "ulation": 7354,
      "问题的": 7355,
      "平衡": 7356,
      "comm": 7357,
      "▁econom": 7358,
      "What": 7359,
      "三十": 7360,
      "▁mean": 7361,
      "▁Am": 7362,
      "li": 7363,
      "读书": 7364,
      "玻璃": 7365,
      "装修": 7366,
      "则是": 7367,
      "ocus": 7368,
      "对比": 7369,
      "▁done": 7370,
      "不住": 7371,
      "▁ce": 7372,
      "区的": 7373,
      "enef": 7374,
      "▁complete": 7375,
      "▁China": 7376,
      "▁move": 7377,
      "▁side": 7378,
      "一边": 7379,
      "的感觉": 7380,
      "▁become": 7381,
      "游客": 7382,
      "inese": 7383,
      "69": 7384,
      "30日": 7385,
      "▁Trans": 7386,
      "那样": 7387,
      "ource": 7388,
      "办公室": 7389,
      "外国": 7390,
      "神经": 7391,
      "美丽": 7392,
      "的一些": 7393,
      "各个": 7394,
      "52": 7395,
      "▁hot": 7396,
      "▁women": 7397,
      "EN": 7398,
      "▁Can": 7399,
      "布局": 7400,
      "文字": 7401,
      "▁profess": 7402,
      "计算机": 7403,
      "▁makes": 7404,
      "EO": 7405,
      "万人": 7406,
      "07": 7407,
      "▁check": 7408,
      "在这里": 7409,
      "2007年": 7410,
      "之中": 7411,
      "大约": 7412,
      "国民": 7413,
      "18日": 7414,
      "纪念": 7415,
      "运用": 7416,
      "当中": 7417,
      "依法": 7418,
      "马上": 7419,
      "viron": 7420,
      "For": 7421,
      "的一种": 7422,
      "州市": 7423,
      "周期": 7424,
      "▁already": 7425,
      "不久": 7426,
      "做法": 7427,
      "电池": 7428,
      "允许": 7429,
      "财富": 7430,
      "的同时": 7431,
      "民主": 7432,
      "电商": 7433,
      "ung": 7434,
      "????": 7435,
      "算是": 7436,
      "共和国": 7437,
      "常见": 7438,
      "梦想": 7439,
      "岗位": 7440,
      "覆盖": 7441,
      "▁study": 7442,
      "▁along": 7443,
      "记忆": 7444,
      "优化": 7445,
      "但在": 7446,
      "无人": 7447,
      "31日": 7448,
      "▁event": 7449,
      "yl": 7450,
      "▁season": 7451,
      "加快": 7452,
      "就有": 7453,
      "▁employ": 7454,
      "还可以": 7455,
      "技巧": 7456,
      "纽约": 7457,
      "▁mult": 7458,
      "知名": 7459,
      "opp": 7460,
      "很少": 7461,
      "绿色": 7462,
      "不在": 7463,
      "说了": 7464,
      "%；": 7465,
      "小米": 7466,
      "▁God": 7467,
      "周围": 7468,
      "不上": 7469,
      "运输": 7470,
      "进口": 7471,
      "ured": 7472,
      "婚姻": 7473,
      "那里": 7474,
      "大盘": 7475,
      "维护": 7476,
      "▁story": 7477,
      "▁called": 7478,
      "选手": 7479,
      "▁body": 7480,
      "▁x": 7481,
      "▁13": 7482,
      "▁creat": 7483,
      "atures": 7484,
      "或是": 7485,
      "▁ste": 7486,
      "10日": 7487,
      "给出": 7488,
      "小组": 7489,
      "十一": 7490,
      "较大": 7491,
      "新华": 7492,
      "▁actually": 7493,
      "ttp": 7494,
      "元素": 7495,
      "ides": 7496,
      "▁government": 7497,
      "漂亮": 7498,
      "▁beaut": 7499,
      "构成": 7500,
      "▁products": 7501,
      "':": 7502,
      "加大": 7503,
      "并在": 7504,
      "温度": 7505,
      "想象": 7506,
      "连接": 7507,
      "oogle": 7508,
      "▁thought": 7509,
      "ended": 7510,
      "男性": 7511,
      "aim": 7512,
      "看起来": 7513,
      "over": 7514,
      "简称": 7515,
      "声明": 7516,
      "仅仅": 7517,
      "受伤": 7518,
      "elf": 7519,
      "▁certain": 7520,
      "五年": 7521,
      "MA": 7522,
      "好好": 7523,
      "▁sever": 7524,
      "oice": 7525,
      "」，": 7526,
      "纷纷": 7527,
      "3月2": 7528,
      "落实": 7529,
      "三星": 7530,
      "显得": 7531,
      "依据": 7532,
      "周边": 7533,
      "osed": 7534,
      "▁account": 7535,
      "添加": 7536,
      "▁doing": 7537,
      "带来的": 7538,
      "天的": 7539,
      "▁blog": 7540,
      "15日": 7541,
      "销量": 7542,
      "纪录": 7543,
      "osp": 7544,
      "64": 7545,
      "ands": 7546,
      "劳动": 7547,
      "▁getting": 7548,
      "也能": 7549,
      "姑娘": 7550,
      "别的": 7551,
      "ateg": 7552,
      "indows": 7553,
      "▁live": 7554,
      "sw": 7555,
      "fer": 7556,
      "▁net": 7557,
      "Al": 7558,
      "医学": 7559,
      "有利": 7560,
      "还没有": 7561,
      "路上": 7562,
      "▁easy": 7563,
      "农民": 7564,
      "公务": 7565,
      "ips": 7566,
      "uture": 7567,
      "股价": 7568,
      "逐步": 7569,
      "▁offic": 7570,
      "能量": 7571,
      "分子": 7572,
      "▁ca": 7573,
      "▁Me": 7574,
      "飞行": 7575,
      "改造": 7576,
      "XX": 7577,
      "先后": 7578,
      "强烈": 7579,
      "情况下": 7580,
      "老公": 7581,
      "线的": 7582,
      "顺利": 7583,
      "▁needs": 7584,
      "▁means": 7585,
      "有时": 7586,
      "上一": 7587,
      "for": 7588,
      "朝鲜": 7589,
      "ober": 7590,
      "出现了": 7591,
      "住房": 7592,
      "ones": 7593,
      "▁occ": 7594,
      "在我": 7595,
      "基因": 7596,
      "▁ago": 7597,
      "150": 7598,
      "此时": 7599,
      "大学生": 7600,
      "▁fav": 7601,
      "恋爱": 7602,
      "一定的": 7603,
      "ored": 7604,
      "▁social": 7605,
      "uly": 7606,
      "定义": 7607,
      "........": 7608,
      "委会": 7609,
      "进攻": 7610,
      "装备": 7611,
      "sp": 7612,
      "信心": 7613,
      "ET": 7614,
      "型的": 7615,
      "赛事": 7616,
      "orts": 7617,
      "打击": 7618,
      "居住": 7619,
      "电视剧": 7620,
      "尽量": 7621,
      "ister": 7622,
      "（）": 7623,
      "垃圾": 7624,
      "ividual": 7625,
      "▁connect": 7626,
      "▁discuss": 7627,
      "▁educ": 7628,
      "在这个": 7629,
      "有时候": 7630,
      "账户": 7631,
      "ither": 7632,
      "让他": 7633,
      "▁possible": 7634,
      "性和": 7635,
      "▁came": 7636,
      "ograph": 7637,
      "胜利": 7638,
      "▁city": 7639,
      "学家": 7640,
      "产品的": 7641,
      "US": 7642,
      "▁ا": 7643,
      "指挥": 7644,
      "财经": 7645,
      "提示": 7646,
      "▁mom": 7647,
      "▁Chinese": 7648,
      "par": 7649,
      "国务": 7650,
      "表面": 7651,
      "质的": 7652,
      "矛盾": 7653,
      "这两": 7654,
      "▁Med": 7655,
      "之下": 7656,
      "名单": 7657,
      "修改": 7658,
      "上下": 7659,
      "▁如何看待": 7660,
      "▁protect": 7661,
      "▁others": 7662,
      "分手": 7663,
      "转移": 7664,
      "▁least": 7665,
      "▁several": 7666,
      "紧张": 7667,
      "更为": 7668,
      "逻辑": 7669,
      "There": 7670,
      "事项": 7671,
      "淘宝": 7672,
      "▁Gu": 7673,
      "AP": 7674,
      "ances": 7675,
      "ape": 7676,
      "事务": 7677,
      "幼儿": 7678,
      "▁mind": 7679,
      "始终": 7680,
      "将于": 7681,
      "▁soft": 7682,
      "▁ant": 7683,
      "▁material": 7684,
      "固定": 7685,
      "▁doesn": 7686,
      "▁young": 7687,
      "▁major": 7688,
      "研究生": 7689,
      "cial": 7690,
      "ino": 7691,
      "▁#": 7692,
      "53": 7693,
      "听到": 7694,
      "▁community": 7695,
      "fort": 7696,
      "真正的": 7697,
      "著名": 7698,
      "给他": 7699,
      "品种": 7700,
      "基本上": 7701,
      "智慧": 7702,
      "oon": 7703,
      "将其": 7704,
      "看见": 7705,
      "互动": 7706,
      "官员": 7707,
      "▁wa": 7708,
      "aps": 7709,
      "back": 7710,
      "ots": 7711,
      "ms": 7712,
      "同事": 7713,
      "aces": 7714,
      "▁Rep": 7715,
      "多种": 7716,
      "在美国": 7717,
      "▁John": 7718,
      "▁Ste": 7719,
      "事实上": 7720,
      "通讯": 7721,
      "进球": 7722,
      "赢得": 7723,
      "ift": 7724,
      "世界上": 7725,
      "▁example": 7726,
      "竟然": 7727,
      "ference": 7728,
      "itor": 7729,
      "而不": 7730,
      "▁offer": 7731,
      "外观": 7732,
      "▁benef": 7733,
      "03": 7734,
      "本周": 7735,
      "控股": 7736,
      "vironment": 7737,
      "留学": 7738,
      "而已": 7739,
      "orld": 7740,
      "上去": 7741,
      "地球": 7742,
      "▁次": 7743,
      "▁deal": 7744,
      "时刻": 7745,
      "▁record": 7746,
      "▁ey": 7747,
      "嫌疑人": 7748,
      "20年": 7749,
      "打算": 7750,
      "04": 7751,
      "街道": 7752,
      "都很": 7753,
      "个股": 7754,
      "日子": 7755,
      "库存": 7756,
      "完美": 7757,
      "工作的": 7758,
      "国的": 7759,
      "养老": 7760,
      "关联": 7761,
      "▁lim": 7762,
      "环节": 7763,
      "各地": 7764,
      "其它": 7765,
      "收到": 7766,
      "▁results": 7767,
      "欧元": 7768,
      "中国人": 7769,
      "相互": 7770,
      "▁2013": 7771,
      "ster": 7772,
      "西方": 7773,
      "ama": 7774,
      "累计": 7775,
      "▁include": 7776,
      "most": 7777,
      "男朋友": 7778,
      "reet": 7779,
      "▁One": 7780,
      "大小": 7781,
      "西南": 7782,
      "76": 7783,
      "▁。": 7784,
      "pro": 7785,
      "停车": 7786,
      "OL": 7787,
      "isk": 7788,
      "独特": 7789,
      "icy": 7790,
      "例子": 7791,
      "▁一": 7792,
      "广大": 7793,
      "wh": 7794,
      "返回": 7795,
      "四个": 7796,
      "▁sum": 7797,
      "用来": 7798,
      "企业的": 7799,
      "混合": 7800,
      "部队": 7801,
      "部的": 7802,
      "云南": 7803,
      "症状": 7804,
      "CD": 7805,
      "120": 7806,
      "他是": 7807,
      "董事会": 7808,
      "artment": 7809,
      "丈夫": 7810,
      "unic": 7811,
      "获取": 7812,
      "较为": 7813,
      "▁2012": 7814,
      "▁buy": 7815,
      "下一": 7816,
      "被告": 7817,
      "购物": 7818,
      "upp": 7819,
      "不敢": 7820,
      "东南": 7821,
      "满意": 7822,
      "了解到": 7823,
      "恐怖": 7824,
      "样子": 7825,
      "▁ess": 7826,
      "▁00": 7827,
      "urity": 7828,
      "赚钱": 7829,
      "百分": 7830,
      "屏幕": 7831,
      "▁Ne": 7832,
      "▁American": 7833,
      "看法": 7834,
      "irc": 7835,
      "▁focus": 7836,
      "II": 7837,
      "▁return": 7838,
      "收费": 7839,
      "ding": 7840,
      "▁vers": 7841,
      "一个月": 7842,
      "总体": 7843,
      "800": 7844,
      "▁clear": 7845,
      "▁50": 7846,
      "便宜": 7847,
      "部长": 7848,
      "黑色": 7849,
      "▁members": 7850,
      "▁once": 7851,
      "监会": 7852,
      "处罚": 7853,
      "3000": 7854,
      "线上": 7855,
      "还没": 7856,
      "mb": 7857,
      "▁land": 7858,
      "not": 7859,
      "歌曲": 7860,
      "▁reason": 7861,
      "系统的": 7862,
      "▁ren": 7863,
      "▁works": 7864,
      "my": 7865,
      "AL": 7866,
      "▁music": 7867,
      "▁redu": 7868,
      "▁perfect": 7869,
      "查看": 7870,
      "▁Intern": 7871,
      "中医": 7872,
      "fact": 7873,
      "福建": 7874,
      "微信号": 7875,
      "北京时间": 7876,
      "go": 7877,
      "▁went": 7878,
      "ux": 7879,
      "▁cut": 7880,
      "▁price": 7881,
      "承诺": 7882,
      "这就是": 7883,
      "镜头": 7884,
      "▁key": 7885,
      "瞬间": 7886,
      "▁yet": 7887,
      "2006年": 7888,
      "究竟": 7889,
      "在一": 7890,
      "等待": 7891,
      "社交": 7892,
      "▁website": 7893,
      "取消": 7894,
      "红色": 7895,
      "动画": 7896,
      "▁Comp": 7897,
      "▁comes": 7898,
      "高端": 7899,
      "▁Cont": 7900,
      "这么多": 7901,
      "▁comb": 7902,
      "▁million": 7903,
      "▁quick": 7904,
      "lev": 7905,
      "▁heart": 7906,
      "54": 7907,
      "▁months": 7908,
      "▁hig": 7909,
      "lege": 7910,
      "arr": 7911,
      "Sh": 7912,
      "火箭": 7913,
      "另一个": 7914,
      "▁Des": 7915,
      "▁typ": 7916,
      "据了解": 7917,
      "itc": 7918,
      "▁camp": 7919,
      "青岛": 7920,
      "资讯": 7921,
      "看出": 7922,
      "是由": 7923,
      "▁took": 7924,
      "总经理": 7925,
      "星期": 7926,
      "球迷": 7927,
      "原本": 7928,
      "权利": 7929,
      "两次": 7930,
      "熟悉": 7931,
      "▁individual": 7932,
      "整理": 7933,
      "◆◆◆◆": 7934,
      "▁happen": 7935,
      "笔记": 7936,
      "一样的": 7937,
      "对外": 7938,
      "都没": 7939,
      "06": 7940,
      "▁24": 7941,
      "79": 7942,
      "How": 7943,
      "▁strong": 7944,
      "成果": 7945,
      "▁press": 7946,
      "▁friends": 7947,
      "造型": 7948,
      "每日": 7949,
      "▁hold": 7950,
      "消防": 7951,
      "▁【": 7952,
      "回应": 7953,
      "urther": 7954,
      "But": 7955,
      "凌晨": 7956,
      "咖啡": 7957,
      "他人": 7958,
      "86": 7959,
      "图书": 7960,
      "now": 7961,
      "探索": 7962,
      "流程": 7963,
      "On": 7964,
      "wards": 7965,
      "移民": 7966,
      "依旧": 7967,
      "派出所": 7968,
      "显著": 7969,
      "hing": 7970,
      "高达": 7971,
      "iam": 7972,
      "良好的": 7973,
      "传球": 7974,
      "▁Do": 7975,
      "rew": 7976,
      "村民": 7977,
      "▁page": 7978,
      "家族": 7979,
      "iday": 7980,
      "央行": 7981,
      "点的": 7982,
      "检察": 7983,
      "▁percent": 7984,
      "▁中国": 7985,
      "蒙古": 7986,
      "有可能": 7987,
      "lished": 7988,
      "尊重": 7989,
      "力度": 7990,
      "▁Qu": 7991,
      "//": 7992,
      "▁2014": 7993,
      "ully": 7994,
      "▁Ass": 7995,
      "www": 7996,
      "四年": 7997,
      "道德": 7998,
      "▁25": 7999,
      "各类": 8000,
      "cer": 8001,
      "结论": 8002,
      "工厂": 8003,
      "的产品": 8004,
      "ole": 8005,
      "阳光": 8006,
      "第五": 8007,
      "的故事": 8008,
      "▁cult": 8009,
      "rain": 8010,
      "西北": 8011,
      "出台": 8012,
      "的美": 8013,
      "12日": 8014,
      "ison": 8015,
      "味道": 8016,
      "爆发": 8017,
      "▁create": 8018,
      "休息": 8019,
      "相机": 8020,
      "提供了": 8021,
      "ffic": 8022,
      "西亚": 8023,
      "否则": 8024,
      "▁human": 8025,
      "面前": 8026,
      "ges": 8027,
      "防止": 8028,
      "02": 8029,
      "破坏": 8030,
      "ians": 8031,
      "代理": 8032,
      "▁tot": 8033,
      "▁visit": 8034,
      "iod": 8035,
      "巨大": 8036,
      "▁future": 8037,
      "▁cal": 8038,
      "据悉": 8039,
      "ounds": 8040,
      "河北": 8041,
      "出场": 8042,
      "聊天": 8043,
      "▁video": 8044,
      "89": 8045,
      "对应": 8046,
      "通信": 8047,
      "批准": 8048,
      "房屋": 8049,
      "起了": 8050,
      "流行": 8051,
      "▁prob": 8052,
      "▁大": 8053,
      "head": 8054,
      "ilar": 8055,
      "日报": 8056,
      "西安": 8057,
      "应对": 8058,
      "感染": 8059,
      "场景": 8060,
      "ball": 8061,
      "icro": 8062,
      "报考": 8063,
      "舒适": 8064,
      "出席": 8065,
      "上班": 8066,
      "离婚": 8067,
      "ources": 8068,
      "hers": 8069,
      "全新": 8070,
      "让我们": 8071,
      "男友": 8072,
      "公平": 8073,
      "执法": 8074,
      "线路": 8075,
      "agn": 8076,
      "每个人": 8077,
      "▁orig": 8078,
      "的设计": 8079,
      "▁2016": 8080,
      "报警": 8081,
      "verage": 8082,
      "实习": 8083,
      "3个": 8084,
      "aken": 8085,
      "引导": 8086,
      "▁particular": 8087,
      "▁model": 8088,
      "代码": 8089,
      "▁English": 8090,
      "▁hy": 8091,
      "歌手": 8092,
      "▁started": 8093,
      "PC": 8094,
      "roll": 8095,
      "进步": 8096,
      "分类": 8097,
      "unch": 8098,
      "爱好": 8099,
      "193": 8100,
      "crib": 8101,
      "专辑": 8102,
      "内心": 8103,
      "isc": 8104,
      "▁vol": 8105,
      "探讨": 8106,
      "差距": 8107,
      "总裁": 8108,
      "队伍": 8109,
      "证据": 8110,
      "▁bed": 8111,
      "什么的": 8112,
      "冲击": 8113,
      "ula": 8114,
      "数据显示": 8115,
      "比亚": 8116,
      "曝光": 8117,
      "武器": 8118,
      "ilt": 8119,
      "的中": 8120,
      "resent": 8121,
      "▁early": 8122,
      "遭遇": 8123,
      "iful": 8124,
      "你会": 8125,
      "加速": 8126,
      "把握": 8127,
      "突出": 8128,
      "反而": 8129,
      "最多": 8130,
      "一线": 8131,
      "gu": 8132,
      "17日": 8133,
      "OT": 8134,
      "实行": 8135,
      "ille": 8136,
      "女朋友": 8137,
      "杂志": 8138,
      "duct": 8139,
      "oose": 8140,
      "层次": 8141,
      "出租": 8142,
      "▁Inst": 8143,
      "下滑": 8144,
      "道理": 8145,
      "OP": 8146,
      "▁relations": 8147,
      "的机会": 8148,
      "一直在": 8149,
      "ging": 8150,
      "太平": 8151,
      "▁opport": 8152,
      "ify": 8153,
      "中有": 8154,
      "▁Serv": 8155,
      "更好的": 8156,
      "▁later": 8157,
      "▁across": 8158,
      "国务院": 8159,
      "算法": 8160,
      "整合": 8161,
      "西部": 8162,
      "fl": 8163,
      "13日": 8164,
      "oud": 8165,
      "▁specific": 8166,
      "作业": 8167,
      "能否": 8168,
      "▁step": 8169,
      "▁question": 8170,
      "▁close": 8171,
      "▁invol": 8172,
      "大多": 8173,
      "就算": 8174,
      "融合": 8175,
      "▁girl": 8176,
      "房间": 8177,
      "校园": 8178,
      "地下": 8179,
      "▁hope": 8180,
      "▁compet": 8181,
      "职位": 8182,
      "▁Che": 8183,
      "▁personal": 8184,
      "海军": 8185,
      "基金管理": 8186,
      "很好的": 8187,
      "是最": 8188,
      "站在": 8189,
      "irt": 8190,
      "▁Mr": 8191,
      "告诉记者": 8192,
      "彻底": 8193,
      "ental": 8194,
      "接到": 8195,
      "▁single": 8196,
      "家具": 8197,
      "人工": 8198,
      "拿到": 8199,
      "相似": 8200,
      "▁meas": 8201,
      "72": 8202,
      "演唱": 8203,
      "bl": 8204,
      "物流": 8205,
      "uation": 8206,
      "对我": 8207,
      "这也是": 8208,
      "怎么样": 8209,
      "早上": 8210,
      "更有": 8211,
      "和平": 8212,
      "不出": 8213,
      "不懂": 8214,
      "三分": 8215,
      "无论是": 8216,
      "idence": 8217,
      "的热": 8218,
      "cially": 8219,
      "自治": 8220,
      "了很多": 8221,
      "并未": 8222,
      "居然": 8223,
      "高于": 8224,
      "司法": 8225,
      "▁given": 8226,
      "▁someone": 8227,
      "的价格": 8228,
      "▁face": 8229,
      "▁whole": 8230,
      "▁value": 8231,
      "人都": 8232,
      "ead": 8233,
      "很大的": 8234,
      "威胁": 8235,
      "循环": 8236,
      "业内": 8237,
      "达成": 8238,
      "克斯": 8239,
      "案例": 8240,
      "从小": 8241,
      "▁我们": 8242,
      "博物": 8243,
      "考研": 8244,
      "▁told": 8245,
      "▁п": 8246,
      "学术": 8247,
      "简单的": 8248,
      "▁require": 8249,
      "ada": 8250,
      "老婆": 8251,
      "群体": 8252,
      "▁hours": 8253,
      "▁type": 8254,
      "OM": 8255,
      "▁contact": 8256,
      "临时": 8257,
      "生意": 8258,
      "▁fre": 8259,
      "」。": 8260,
      "▁mor": 8261,
      "少数": 8262,
      "电信": 8263,
      "▁ener": 8264,
      "路线": 8265,
      "油价": 8266,
      "14日": 8267,
      "毫无": 8268,
      "情感": 8269,
      "以上的": 8270,
      "的行为": 8271,
      "▁space": 8272,
      "公务员": 8273,
      "电力": 8274,
      "专业的": 8275,
      "涉嫌": 8276,
      "某某": 8277,
      "没想到": 8278,
      "简直": 8279,
      "女友": 8280,
      "化妆": 8281,
      "重组": 8282,
      "▁United": 8283,
      "lex": 8284,
      "▁Bro": 8285,
      "停止": 8286,
      "anies": 8287,
      "合并": 8288,
      "加坡": 8289,
      "财产": 8290,
      "▁bir": 8291,
      "▁share": 8292,
      "vert": 8293,
      "巴西": 8294,
      "▁ident": 8295,
      "同期": 8296,
      "▁中": 8297,
      "play": 8298,
      "批评": 8299,
      "11日": 8300,
      "作为一个": 8301,
      "其次": 8302,
      "显然": 8303,
      "腾讯": 8304,
      "▁walk": 8305,
      "▁cell": 8306,
      "ights": 8307,
      "▁seen": 8308,
      "iously": 8309,
      "DP": 8310,
      "fic": 8311,
      "成就": 8312,
      "加拿": 8313,
      "会员": 8314,
      "▁bring": 8315,
      "▁idea": 8316,
      "阿尔": 8317,
      "先进": 8318,
      "饮食": 8319,
      "face": 8320,
      "格兰": 8321,
      "作出": 8322,
      "是中国": 8323,
      "我和": 8324,
      "的研究": 8325,
      "加工": 8326,
      "rict": 8327,
      "▁pack": 8328,
      "债务": 8329,
      "流量": 8330,
      "协调": 8331,
      "1P": 8332,
      "出发": 8333,
      "的内容": 8334,
      "▁Sy": 8335,
      "▁Euro": 8336,
      "ourn": 8337,
      "人体": 8338,
      "出现在": 8339,
      "联储": 8340,
      "62": 8341,
      "良好": 8342,
      "的水": 8343,
      "Ad": 8344,
      "精准": 8345,
      "的可能": 8346,
      "住宅": 8347,
      "罗马": 8348,
      "pecially": 8349,
      "难道": 8350,
      "效应": 8351,
      "厂商": 8352,
      "世界杯": 8353,
      "BC": 8354,
      "vent": 8355,
      "城区": 8356,
      "一份": 8357,
      "队员": 8358,
      "atural": 8359,
      "2日": 8360,
      "不得不": 8361,
      "ners": 8362,
      "的作用": 8363,
      "▁five": 8364,
      "标志": 8365,
      "ried": 8366,
      "▁appear": 8367,
      "▁stay": 8368,
      "▁如果": 8369,
      "16日": 8370,
      "你可以": 8371,
      "▁mot": 8372,
      "aur": 8373,
      "有望": 8374,
      "青春": 8375,
      "痛苦": 8376,
      "▁technology": 8377,
      "决策": 8378,
      "既然": 8379,
      "临床": 8380,
      "调节": 8381,
      "硕士": 8382,
      "朋友圈": 8383,
      "头发": 8384,
      "对其": 8385,
      "减肥": 8386,
      "未来的": 8387,
      "通道": 8388,
      "也不会": 8389,
      "氧化": 8390,
      "▁character": 8391,
      "在北京": 8392,
      "夫妻": 8393,
      "▁2010": 8394,
      "angu": 8395,
      "▁Your": 8396,
      "So": 8397,
      "▁believe": 8398,
      "▁pie": 8399,
      "▁把": 8400,
      "非法": 8401,
      "oid": 8402,
      "深刻": 8403,
      "illed": 8404,
      "每一个": 8405,
      "董事长": 8406,
      "报讯": 8407,
      "到达": 8408,
      "交警": 8409,
      "▁break": 8410,
      "ask": 8411,
      "▁industry": 8412,
      "新加坡": 8413,
      "ched": 8414,
      "防守": 8415,
      "   ": 8416,
      "三大": 8417,
      "话题": 8418,
      "法规": 8419,
      "是怎么": 8420,
      "思路": 8421,
      "万美元": 8422,
      "”,": 8423,
      "▁news": 8424,
      "增速": 8425,
      "rel": 8426,
      "好多": 8427,
      "也不是": 8428,
      "房产": 8429,
      "指令": 8430,
      "▁Ed": 8431,
      "▁tax": 8432,
      "分析师": 8433,
      "怀疑": 8434,
      "▁begin": 8435,
      "规律": 8436,
      "回忆": 8437,
      "得到了": 8438,
      "▁bad": 8439,
      "▁everything": 8440,
      "动态": 8441,
      "新疆": 8442,
      "文本": 8443,
      "已有": 8444,
      "eter": 8445,
      "零售": 8446,
      "7月2": 8447,
      "密度": 8448,
      "深度": 8449,
      "ze": 8450,
      "urch": 8451,
      "可见": 8452,
      "山西": 8453,
      "提到": 8454,
      "▁State": 8455,
      "▁pret": 8456,
      "eral": 8457,
      "权益": 8458,
      "ocu": 8459,
      "▁Count": 8460,
      "▁pict": 8461,
      "听说": 8462,
      "主角": 8463,
      "你要": 8464,
      "ilities": 8465,
      "▁有哪些": 8466,
      "演出": 8467,
      "报告期": 8468,
      "主场": 8469,
      "异常": 8470,
      "是指": 8471,
      "2014": 8472,
      "▁>": 8473,
      "▁sugg": 8474,
      "不可能": 8475,
      "63": 8476,
      "保留": 8477,
      "色彩": 8478,
      "投票": 8479,
      "5000": 8480,
      "同比增长": 8481,
      "的那": 8482,
      "▁suggest": 8483,
      "大家都": 8484,
      "生长": 8485,
      "下载": 8486,
      "▁priv": 8487,
      "▁clean": 8488,
      "▁City": 8489,
      "一度": 8490,
      "cell": 8491,
      "该公司": 8492,
      "▁Min": 8493,
      "不大": 8494,
      "解放": 8495,
      "▁These": 8496,
      "华为": 8497,
      "▁improve": 8498,
      "人群": 8499,
      "访问": 8500,
      "清晰": 8501,
      "选举": 8502,
      "CP": 8503,
      "差不多": 8504,
      "utions": 8505,
      "http": 8506,
      "▁above": 8507,
      "▁mess": 8508,
      "RE": 8509,
      "走向": 8510,
      "ively": 8511,
      "的投资": 8512,
      "安徽": 8513,
      "妹子": 8514,
      "QQ": 8515,
      "列车": 8516,
      "近年来": 8517,
      "ibility": 8518,
      "运动员": 8519,
      "森林": 8520,
      "后面": 8521,
      "roid": 8522,
      "2005年": 8523,
      "▁enc": 8524,
      "▁tool": 8525,
      "希腊": 8526,
      "尚未": 8527,
      "ruction": 8528,
      "▁<": 8529,
      "素质": 8530,
      "在本": 8531,
      "TV": 8532,
      "会的": 8533,
      "▁+": 8534,
      "形态": 8535,
      "▁item": 8536,
      "学位": 8537,
      "▁Ab": 8538,
      "失去": 8539,
      "aby": 8540,
      "之处": 8541,
      "宗教": 8542,
      "南方": 8543,
      "分别为": 8544,
      "必然": 8545,
      "们的": 8546,
      "▁jo": 8547,
      "▁polit": 8548,
      "When": 8549,
      "though": 8550,
      "我会": 8551,
      "iPhone": 8552,
      "elt": 8553,
      "▁Jan": 8554,
      "禁止": 8555,
      "ysis": 8556,
      "公安局": 8557,
      "off": 8558,
      "AD": 8559,
      "相关的": 8560,
      "净利润": 8561,
      "▁author": 8562,
      "巨大的": 8563,
      "▁anything": 8564,
      "To": 8565,
      "活跃": 8566,
      "走了": 8567,
      "监控": 8568,
      "ancial": 8569,
      "服装": 8570,
      "内地": 8571,
      "▁history": 8572,
      "atur": 8573,
      "一辆": 8574,
      "SU": 8575,
      "▁among": 8576,
      "itch": 8577,
      "小孩": 8578,
      "学历": 8579,
      "影片": 8580,
      "合法": 8581,
      "关心": 8582,
      "▁below": 8583,
      "▁2015": 8584,
      "销商": 8585,
      "心情": 8586,
      "▁21": 8587,
      "工商": 8588,
      "▁half": 8589,
      "影视": 8590,
      "▁self": 8591,
      "GB": 8592,
      "人和": 8593,
      "ply": 8594,
      "▁bar": 8595,
      "▁=": 8596,
      "uk": 8597,
      "天天": 8598,
      "▁known": 8599,
      "▁fall": 8600,
      "umb": 8601,
      "门口": 8602,
      "87": 8603,
      "！！": 8604,
      "赔偿": 8605,
      "治理": 8606,
      "照顾": 8607,
      "▁environment": 8608,
      "▁School": 8609,
      "提问": 8610,
      "ume": 8611,
      "▁2011": 8612,
      "生存": 8613,
      "处的": 8614,
      "irm": 8615,
      "▁watch": 8616,
      "提出了": 8617,
      "常常": 8618,
      "成分": 8619,
      "外的": 8620,
      "▁black": 8621,
      "上方": 8622,
      "发出": 8623,
      "的关系": 8624,
      "ouch": 8625,
      "冲突": 8626,
      "▁...": 8627,
      "强化": 8628,
      "▁minutes": 8629,
      "授权": 8630,
      "再度": 8631,
      "翻译成中文": 8632,
      "▁store": 8633,
      "一是": 8634,
      "含量": 8635,
      "val": 8636,
      "▁content": 8637,
      "级的": 8638,
      "什么样的": 8639,
      "▁period": 8640,
      "难度": 8641,
      "个性": 8642,
      "式的": 8643,
      "可以在": 8644,
      "上有": 8645,
      "生活中": 8646,
      "▁oil": 8647,
      "▁port": 8648,
      "▁games": 8649,
      "餐厅": 8650,
      "美食": 8651,
      "rem": 8652,
      "obal": 8653,
      "uter": 8654,
      "加盟": 8655,
      "主力": 8656,
      "一段": 8657,
      "呼吸": 8658,
      "▁Cal": 8659,
      "白色": 8660,
      "锻炼": 8661,
      "年轻人": 8662,
      "itter": 8663,
      "完成了": 8664,
      "abor": 8665,
      "ana": 8666,
      "也将": 8667,
      "▁signific": 8668,
      "▁Tw": 8669,
      "开启": 8670,
      "clus": 8671,
      "oe": 8672,
      "zh": 8673,
      "同一": 8674,
      "会不会": 8675,
      "爆炸": 8676,
      "暂时": 8677,
      "看的": 8678,
      "▁common": 8679,
      "▁с": 8680,
      "97": 8681,
      "最初": 8682,
      "Cl": 8683,
      "旗下": 8684,
      "打电话": 8685,
      "专项": 8686,
      "认可": 8687,
      "▁chall": 8688,
      "另一方面": 8689,
      "▁front": 8690,
      "明的": 8691,
      "多元": 8692,
      "▁taking": 8693,
      "▁Pe": 8694,
      "客观": 8695,
      "澳大": 8696,
      "学科": 8697,
      "▁whether": 8698,
      "新增": 8699,
      "交易所": 8700,
      "che": 8701,
      "▁dou": 8702,
      "一只": 8703,
      "院校": 8704,
      "▁Mc": 8705,
      "▁sex": 8706,
      "ites": 8707,
      "题目": 8708,
      "博物馆": 8709,
      "то": 8710,
      "▁Sun": 8711,
      "集体": 8712,
      "电视台": 8713,
      "释放": 8714,
      "行业的": 8715,
      "第一队和第二队的比分为0": 8716,
      "na": 8717,
      "预防": 8718,
      "亏损": 8719,
      "▁个": 8720,
      "IM": 8721,
      "我认为": 8722,
      "干净": 8723,
      "▁due": 8724,
      "是对": 8725,
      "病毒": 8726,
      "▁red": 8727,
      "气象": 8728,
      "波动": 8729,
      "地图": 8730,
      "▁However": 8731,
      "画面": 8732,
      "ctor": 8733,
      "装饰": 8734,
      "模拟": 8735,
      "▁repl": 8736,
      "一体": 8737,
      "▁que": 8738,
      "北京市": 8739,
      "▁Part": 8740,
      "ially": 8741,
      "asing": 8742,
      "▁в": 8743,
      "吸收": 8744,
      "净值": 8745,
      "ogn": 8746,
      "▁amount": 8747,
      "百姓": 8748,
      "形势": 8749,
      "▁miss": 8750,
      "明年": 8751,
      "了吗": 8752,
      "初中": 8753,
      "合格": 8754,
      "学的": 8755,
      "在大": 8756,
      "▁article": 8757,
      "没什么": 8758,
      "▁ال": 8759,
      "链接": 8760,
      "raft": 8761,
      "不错的": 8762,
      "景区": 8763,
      "▁struct": 8764,
      "▁Dr": 8765,
      "运作": 8766,
      "▁Not": 8767,
      "Com": 8768,
      "说我": 8769,
      "伦敦": 8770,
      "那么多": 8771,
      "time": 8772,
      "有趣": 8773,
      "▁function": 8774,
      "gest": 8775,
      "城镇": 8776,
      "ager": 8777,
      "成为了": 8778,
      "obile": 8779,
      "ained": 8780,
      "回归": 8781,
      "imate": 8782,
      "十八": 8783,
      "▁management": 8784,
      "oom": 8785,
      "不见": 8786,
      "喜欢的": 8787,
      "▁Per": 8788,
      "cle": 8789,
      "的比赛": 8790,
      "ches": 8791,
      "OU": 8792,
      "▁wonder": 8793,
      "加拿大": 8794,
      "▁companies": 8795,
      "fully": 8796,
      "▁和": 8797,
      "充足": 8798,
      "▁size": 8799,
      "见过": 8800,
      "即便": 8801,
      "▁Gl": 8802,
      "空调": 8803,
      "ued": 8804,
      "大师": 8805,
      "用了": 8806,
      "一方面": 8807,
      "公众号": 8808,
      "募集": 8809,
      "astic": 8810,
      "used": 8811,
      "创意": 8812,
      "▁crit": 8813,
      "Un": 8814,
      "敏感": 8815,
      "上半年": 8816,
      "era": 8817,
      "▁infl": 8818,
      "▁series": 8819,
      "未能": 8820,
      "长时间": 8821,
      "强势": 8822,
      "成的": 8823,
      "发言": 8824,
      "▁energy": 8825,
      "感兴趣": 8826,
      "澳大利亚": 8827,
      "的要求": 8828,
      "地震": 8829,
      "▁Go": 8830,
      "查询": 8831,
      "质疑": 8832,
      "无线": 8833,
      "延续": 8834,
      "一句": 8835,
      "▁pick": 8836,
      "在家": 8837,
      "面上": 8838,
      "▁cred": 8839,
      "军队": 8840,
      "麻烦": 8841,
      "这类": 8842,
      "获得了": 8843,
      "的第一": 8844,
      "转载": 8845,
      "乘客": 8846,
      "        ": 8847,
      "一开始": 8848,
      "江西": 8849,
      "▁search": 8850,
      "****": 8851,
      "当日": 8852,
      "▁card": 8853,
      "格局": 8854,
      "▁recomm": 8855,
      "围绕": 8856,
      "▁simple": 8857,
      "福利": 8858,
      "老年": 8859,
      "参数": 8860,
      "的外": 8861,
      "late": 8862,
      "acebook": 8863,
      "▁please": 8864,
      "硬件": 8865,
      "生涯": 8866,
      "不需要": 8867,
      "ification": 8868,
      "广播": 8869,
      "湖北": 8870,
      "过于": 8871,
      "拉克": 8872,
      "看过": 8873,
      "ili": 8874,
      "▁building": 8875,
      "真的是": 8876,
      "▁York": 8877,
      "商家": 8878,
      "▁consider": 8879,
      "小心": 8880,
      "留下": 8881,
      "▁vi": 8882,
      "睡觉": 8883,
      "ram": 8884,
      "买了": 8885,
      "航天": 8886,
      "的市场": 8887,
      "下方": 8888,
      "96": 8889,
      "公益": 8890,
      "://": 8891,
      "▁Sm": 8892,
      "▁phys": 8893,
      "试图": 8894,
      "才会": 8895,
      "110": 8896,
      "aching": 8897,
      "ators": 8898,
      "分数": 8899,
      "selves": 8900,
      "适当": 8901,
      "共产": 8902,
      "▁Sec": 8903,
      "所谓的": 8904,
      "ises": 8905,
      "积累": 8906,
      "练习": 8907,
      "▁exc": 8908,
      "背后": 8909,
      "▁issues": 8910,
      "前景": 8911,
      "▁respons": 8912,
      "的学生": 8913,
      "男孩": 8914,
      "▁white": 8915,
      "resh": 8916,
      "Pro": 8917,
      "▁da": 8918,
      "▁mach": 8919,
      "▁purch": 8920,
      "▁performance": 8921,
      "行驶": 8922,
      "周末": 8923,
      "监测": 8924,
      "舞台": 8925,
      "▁World": 8926,
      "轨道": 8927,
      "地区的": 8928,
      "产量": 8929,
      "但我": 8930,
      "▁trying": 8931,
      "ledge": 8932,
      "存款": 8933,
      "一人": 8934,
      "▁media": 8935,
      "的确": 8936,
      "长按二维码": 8937,
      "肌肉": 8938,
      "cy": 8939,
      "十三": 8940,
      "mp": 8941,
      "ops": 8942,
      "很容易": 8943,
      "国家的": 8944,
      "lling": 8945,
      "▁quite": 8946,
      "子女": 8947,
      "chie": 8948,
      "不良": 8949,
      "▁address": 8950,
      "▁relationship": 8951,
      "各自": 8952,
      "▁claim": 8953,
      "73": 8954,
      "被人": 8955,
      "率为": 8956,
      "民国": 8957,
      "手续": 8958,
      "▁almost": 8959,
      "▁problems": 8960,
      "提及": 8961,
      "义务": 8962,
      "随时": 8963,
      "大家的": 8964,
      "国有": 8965,
      "主体": 8966,
      "坐在": 8967,
      "ficult": 8968,
      "▁ה": 8969,
      "和我": 8970,
      "istic": 8971,
      "▁deb": 8972,
      "百万": 8973,
      "TC": 8974,
      "74": 8975,
      "学者": 8976,
      "arning": 8977,
      "▁either": 8978,
      "体制": 8979,
      "人民共和国": 8980,
      "的中国": 8981,
      "▁text": 8982,
      "各项": 8983,
      "号码": 8984,
      "之类的": 8985,
      "▁application": 8986,
      "ensive": 8987,
      "rie": 8988,
      "---": 8989,
      "对话": 8990,
      "10年": 8991,
      "▁log": 8992,
      "身材": 8993,
      "ided": 8994,
      "本书": 8995,
      "▁everyone": 8996,
      "害怕": 8997,
      "▁favor": 8998,
      "▁especially": 8999,
      "这部": 9000,
      "皇帝": 9001,
      "一款": 9002,
      "反复": 9003,
      "是为了": 9004,
      "App": 9005,
      "gress": 9006,
      "脂肪": 9007,
      "收藏": 9008,
      "助攻": 9009,
      "ude": 9010,
      "ibr": 9011,
      "▁After": 9012,
      "补贴": 9013,
      "▁features": 9014,
      "原理": 9015,
      "come": 9016,
      "地理": 9017,
      "My": 9018,
      "reg": 9019,
      "▁coup": 9020,
      "节奏": 9021,
      "证监会": 9022,
      "▁pub": 9023,
      "▁web": 9024,
      "▁further": 9025,
      "号线": 9026,
      "urance": 9027,
      "inks": 9028,
      "▁2017": 9029,
      "写的": 9030,
      "不对": 9031,
      "点评": 9032,
      "无数": 9033,
      "NA": 9034,
      "我很": 9035,
      "进展": 9036,
      "民间": 9037,
      "▁points": 9038,
      "earch": 9039,
      "自信": 9040,
      "▁parent": 9041,
      "▁Europe": 9042,
      "▁Will": 9043,
      "所得": 9044,
      "历史上": 9045,
      "▁abs": 9046,
      "▁Bar": 9047,
      "机器人": 9048,
      "▁ens": 9049,
      "▁introdu": 9050,
      "▁table": 9051,
      "▁pretty": 9052,
      "rug": 9053,
      "请问": 9054,
      "前后": 9055,
      "接下来": 9056,
      "得知": 9057,
      "将军": 9058,
      "ien": 9059,
      "提供的": 9060,
      "心态": 9061,
      "新能源": 9062,
      "激烈": 9063,
      "▁By": 9064,
      "一周": 9065,
      "托管": 9066,
      "苏联": 9067,
      "ese": 9068,
      "oved": 9069,
      "▁beautiful": 9070,
      "▁hom": 9071,
      "82": 9072,
      "跌幅": 9073,
      "▁field": 9074,
      "▁Ge": 9075,
      "场的": 9076,
      "▁South": 9077,
      "是一名": 9078,
      "★★": 9079,
      "▁22": 9080,
      "回报": 9081,
      "IA": 9082,
      "▁probably": 9083,
      "信任": 9084,
      "频道": 9085,
      "夏天": 9086,
      "▁travel": 9087,
      "证券投资": 9088,
      "▁exam": 9089,
      "ma": 9090,
      "报价": 9091,
      "优质": 9092,
      "后期": 9093,
      "第二次": 9094,
      "视觉": 9095,
      "▁Pres": 9096,
      "展现": 9097,
      "ufact": 9098,
      "高兴": 9099,
      "考察": 9100,
      "▁Pol": 9101,
      "厉害": 9102,
      "一大": 9103,
      "市镇": 9104,
      "▁exist": 9105,
      "发生了": 9106,
      "大大": 9107,
      "看到了": 9108,
      "▁determ": 9109,
      "▁ap": 9110,
      "障碍": 9111,
      "▁小": 9112,
      "▁else": 9113,
      "采购": 9114,
      "论文": 9115,
      "▁difficult": 9116,
      "回落": 9117,
      "元的": 9118,
      "转换": 9119,
      "男女": 9120,
      "出售": 9121,
      "宿舍": 9122,
      "禁区": 9123,
      "▁age": 9124,
      "▁film": 9125,
      "EL": 9126,
      "▁questions": 9127,
      "开了": 9128,
      "之所以": 9129,
      "气质": 9130,
      "iber": 9131,
      "简介": 9132,
      "都市": 9133,
      "主流": 9134,
      "美联储": 9135,
      "剧情": 9136,
      "初步": 9137,
      "诊断": 9138,
      "▁Cor": 9139,
      "▁answ": 9140,
      "证实": 9141,
      "尺寸": 9142,
      "year": 9143,
      "▁Ke": 9144,
      "▁н": 9145,
      "最为": 9146,
      "大道": 9147,
      "议案": 9148,
      "83": 9149,
      "生素": 9150,
      "▁dig": 9151,
      "oph": 9152,
      "▁National": 9153,
      "中共": 9154,
      "▁words": 9155,
      "▁lat": 9156,
      "▁wind": 9157,
      "首发": 9158,
      "仪式": 9159,
      "阿拉": 9160,
      "▁rate": 9161,
      "国产": 9162,
      "一件": 9163,
      "买入": 9164,
      "发达": 9165,
      "你是": 9166,
      "str": 9167,
      "配备": 9168,
      "经销商": 9169,
      "在一个": 9170,
      "仔细": 9171,
      "漫画": 9172,
      "位的": 9173,
      "▁sentences": 9174,
      "总理": 9175,
      "由此": 9176,
      "海洋": 9177,
      "一代": 9178,
      "休闲": 9179,
      "传媒": 9180,
      "争议": 9181,
      "互相": 9182,
      "84": 9183,
      "大神": 9184,
      "▁install": 9185,
      "和其他": 9186,
      "她说": 9187,
      "美术": 9188,
      "▁forward": 9189,
      "▁various": 9190,
      "▁addition": 9191,
      "子里": 9192,
      "itted": 9193,
      "转变": 9194,
      "平安": 9195,
      "▁color": 9196,
      "感动": 9197,
      "▁soon": 9198,
      "像素": 9199,
      "cn": 9200,
      "▁aud": 9201,
      "iter": 9202,
      "早期": 9203,
      "厦门": 9204,
      "陷入": 9205,
      "▁coming": 9206,
      "▁style": 9207,
      "▁More": 9208,
      "中华人民共和国": 9209,
      "米兰": 9210,
      "古代": 9211,
      "前期": 9212,
      "▁added": 9213,
      "▁Our": 9214,
      "：「": 9215,
      "随便": 9216,
      "身份证": 9217,
      "▁月": 9218,
      "为此": 9219,
      "转让": 9220,
      "▁wanted": 9221,
      "审计": 9222,
      "不喜欢": 9223,
      "签订": 9224,
      "成年": 9225,
      "▁likely": 9226,
      "▁living": 9227,
      "▁stat": 9228,
      "优先": 9229,
      "tic": 9230,
      "ables": 9231,
      "售价": 9232,
      "ires": 9233,
      "格式": 9234,
      "▁writing": 9235,
      "毕业生": 9236,
      "篮球": 9237,
      "丰富的": 9238,
      "▁range": 9239,
      "Be": 9240,
      "4个": 9241,
      "定期": 9242,
      "▁Stud": 9243,
      "进去": 9244,
      "▁North": 9245,
      "Ex": 9246,
      "▁position": 9247,
      "▁circ": 9248,
      "作家": 9249,
      "▁according": 9250,
      "违规": 9251,
      "▁taken": 9252,
      "工人": 9253,
      "▁upd": 9254,
      "▁Dep": 9255,
      "olution": 9256,
      "ival": 9257,
      "清华": 9258,
      "▁issue": 9259,
      "▁track": 9260,
      "如果是": 9261,
      "基层": 9262,
      "已被": 9263,
      "92": 9264,
      "2004年": 9265,
      ")：": 9266,
      "当初": 9267,
      "微软": 9268,
      "大赛": 9269,
      "二是": 9270,
      "陕西": 9271,
      "cription": 9272,
      "血管": 9273,
      "最早": 9274,
      "的就是": 9275,
      "71": 9276,
      "▁Oct": 9277,
      "创始": 9278,
      "提交": 9279,
      "配套": 9280,
      "审议": 9281,
      "在外": 9282,
      "的能力": 9283,
      "了一下": 9284,
      "61": 9285,
      "▁foot": 9286,
      "创建": 9287,
      "▁areas": 9288,
      "▁agree": 9289,
      "收获": 9290,
      "标题": 9291,
      "▁entire": 9292,
      "▁link": 9293,
      "▁defin": 9294,
      "沈阳": 9295,
      "iple": 9296,
      "室内": 9297,
      "少女": 9298,
      "ules": 9299,
      "▁needed": 9300,
      "▁aw": 9301,
      "被称为": 9302,
      "部署": 9303,
      "凭借": 9304,
      "旁边": 9305,
      "证书": 9306,
      "一段时间": 9307,
      "注重": 9308,
      "▁necess": 9309,
      "充电": 9310,
      "arget": 9311,
      "贝尔": 9312,
      "ny": 9313,
      "▁dam": 9314,
      "aged": 9315,
      "设计师": 9316,
      "地上": 9317,
      "日期": 9318,
      "▁super": 9319,
      "▁host": 9320,
      "sy": 9321,
      "科研": 9322,
      "这一点": 9323,
      "一片": 9324,
      "建成": 9325,
      "▁training": 9326,
      "辽宁": 9327,
      "ara": 9328,
      "▁States": 9329,
      "▁nothing": 9330,
      "文物": 9331,
      "退休": 9332,
      "车主": 9333,
      "aging": 9334,
      "药品": 9335,
      "▁isn": 9336,
      "大战": 9337,
      "贫困": 9338,
      "▁office": 9339,
      "pril": 9340,
      "eks": 9341,
      "不动": 9342,
      "下面的句子": 9343,
      "的结果": 9344,
      "水果": 9345,
      "认定": 9346,
      "进了": 9347,
      "▁lo": 9348,
      "▁six": 9349,
      "给大家": 9350,
      "强大": 9351,
      "的公司": 9352,
      "”（": 9353,
      "消失": 9354,
      "▁however": 9355,
      "发射": 9356,
      "idge": 9357,
      "重复": 9358,
      "▁significant": 9359,
      "包装": 9360,
      "见到": 9361,
      "疯狂": 9362,
      "▁comment": 9363,
      "▁swe": 9364,
      "斯科": 9365,
      "▁similar": 9366,
      "====": 9367,
      "越南": 9368,
      "的企业": 9369,
      "▁Park": 9370,
      "含有": 9371,
      "同年": 9372,
      "▁etc": 9373,
      "流通": 9374,
      "预算": 9375,
      ".)": 9376,
      "物品": 9377,
      "区间": 9378,
      "短信": 9379,
      "▁Af": 9380,
      "▁treatment": 9381,
      "人大": 9382,
      "去世": 9383,
      "现状": 9384,
      "之路": 9385,
      "ule": 9386,
      "▁他": 9387,
      "▁क": 9388,
      "文艺": 9389,
      "为止": 9390,
      "itting": 9391,
      "▁true": 9392,
      "首席": 9393,
      "舒服": 9394,
      "示范": 9395,
      "minist": 9396,
      "▁docu": 9397,
      "长沙": 9398,
      "uary": 9399,
      "3D": 9400,
      "顾客": 9401,
      "一带": 9402,
      "跟着": 9403,
      "收盘": 9404,
      "amb": 9405,
      "参赛": 9406,
      "▁select": 9407,
      "▁Ob": 9408,
      "前面": 9409,
      "MS": 9410,
      "总额": 9411,
      "看完": 9412,
      "业主": 9413,
      "▁nice": 9414,
      "外交": 9415,
      "怀孕": 9416,
      "辈子": 9417,
      "联邦": 9418,
      "无疑": 9419,
      "的表现": 9420,
      "▁Now": 9421,
      "审查": 9422,
      "的孩子": 9423,
      "带动": 9424,
      "还将": 9425,
      "▁fire": 9426,
      "ha": 9427,
      "ety": 9428,
      "范围内": 9429,
      "▁fail": 9430,
      "hel": 9431,
      "作战": 9432,
      "▁risk": 9433,
      "▁Aust": 9434,
      "使用的": 9435,
      "又是": 9436,
      "发的": 9437,
      "笔者": 9438,
      "本地": 9439,
      "全市": 9440,
      "2001年": 9441,
      "各大": 9442,
      "主管": 9443,
      "超市": 9444,
      "▁Aug": 9445,
      "驱动": 9446,
      "CC": 9447,
      "▁matter": 9448,
      "rect": 9449,
      "姆斯": 9450,
      "▁asked": 9451,
      "▁estab": 9452,
      "不及": 9453,
      "▁Bu": 9454,
      "辅助": 9455,
      "诈骗": 9456,
      "生活的": 9457,
      "带领": 9458,
      "病人": 9459,
      "▁Ag": 9460,
      "2个": 9461,
      "▁rather": 9462,
      "▁higher": 9463,
      "美女": 9464,
      "帝国": 9465,
      "摄像": 9466,
      "nd": 9467,
      "▁simply": 9468,
      "新鲜": 9469,
      "5个": 9470,
      "约翰": 9471,
      "reme": 9472,
      "▁rad": 9473,
      "▁third": 9474,
      "明显的": 9475,
      "erc": 9476,
      "两位": 9477,
      "物业": 9478,
      "▁road": 9479,
      "最后一": 9480,
      "观念": 9481,
      "BS": 9482,
      "中午": 9483,
      "等地": 9484,
      "▁education": 9485,
      "ades": 9486,
      "ief": 9487,
      "▁object": 9488,
      "保养": 9489,
      "对待": 9490,
      "▁Translate": 9491,
      "吃的": 9492,
      "热点": 9493,
      "负债": 9494,
      "楼市": 9495,
      "超越": 9496,
      "构建": 9497,
      "美国的": 9498,
      "全世界": 9499,
      "▁init": 9500,
      "▁gen": 9501,
      "oes": 9502,
      "的老": 9503,
      "▁ways": 9504,
      "ij": 9505,
      "采用了": 9506,
      "原创": 9507,
      "市场上": 9508,
      "▁sle": 9509,
      "行星": 9510,
      "热情": 9511,
      "▁Spe": 9512,
      "为人": 9513,
      "券商": 9514,
      "依赖": 9515,
      "三角": 9516,
      "饰演": 9517,
      "尴尬": 9518,
      "医药": 9519,
      "▁shows": 9520,
      "▁general": 9521,
      "bor": 9522,
      "▁increase": 9523,
      "ological": 9524,
      "▁把下面的句子": 9525,
      "别人的": 9526,
      "装置": 9527,
      "den": 9528,
      "▁seems": 9529,
      "大队": 9530,
      "公布的": 9531,
      "etimes": 9532,
      "▁о": 9533,
      "当你": 9534,
      "▁有": 9535,
      "▁Center": 9536,
      "十五": 9537,
      "谨慎": 9538,
      "长江": 9539,
      "▁op": 9540,
      "传统的": 9541,
      "▁kids": 9542,
      "▁patients": 9543,
      "赶紧": 9544,
      "家居": 9545,
      "贵州": 9546,
      "明天": 9547,
      "ring": 9548,
      "ham": 9549,
      "与此": 9550,
      "第六": 9551,
      "止损": 9552,
      "▁engine": 9553,
      "发布的": 9554,
      "没有任何": 9555,
      "有利于": 9556,
      "两名": 9557,
      "本质": 9558,
      "秘密": 9559,
      "empt": 9560,
      "ends": 9561,
      "接着": 9562,
      "不一样": 9563,
      "审核": 9564,
      "▁offers": 9565,
      "1个": 9566,
      "摩托": 9567,
      "▁但是": 9568,
      "东京": 9569,
      "座椅": 9570,
      "要么": 9571,
      "▁prep": 9572,
      "以往": 9573,
      "▁El": 9574,
      "▁staff": 9575,
      "anguage": 9576,
      "制的": 9577,
      "▁consum": 9578,
      "▁Just": 9579,
      "anced": 9580,
      "每一": 9581,
      "职工": 9582,
      "▁tre": 9583,
      "▁40": 9584,
      "共享": 9585,
      "iddle": 9586,
      "你就": 9587,
      "uge": 9588,
      "▁23": 9589,
      "▁coun": 9590,
      "▁wall": 9591,
      "出门": 9592,
      "oura": 9593,
      "▁provides": 9594,
      "。(": 9595,
      "▁cook": 9596,
      "▁achie": 9597,
      "单纯": 9598,
      "谷歌": 9599,
      "两天": 9600,
      "里斯": 9601,
      "民众": 9602,
      "还不": 9603,
      "我知道": 9604,
      "▁particip": 9605,
      "~~": 9606,
      "▁property": 9607,
      "大量的": 9608,
      "▁email": 9609,
      "itten": 9610,
      "体重": 9611,
      "目前的": 9612,
      "机的": 9613,
      "分割": 9614,
      "汇率": 9615,
      "南海": 9616,
      "缓解": 9617,
      "检验": 9618,
      "360": 9619,
      "ression": 9620,
      "▁role": 9621,
      "产生的": 9622,
      "▁required": 9623,
      "ees": 9624,
      "跟我": 9625,
      "▁dom": 9626,
      "bsp": 9627,
      "实用": 9628,
      "▁natural": 9629,
      "等人": 9630,
      "iff": 9631,
      "▁不": 9632,
      "SP": 9633,
      "魅力": 9634,
      "截止": 9635,
      "▁High": 9636,
      "举报": 9637,
      "高等": 9638,
      "izing": 9639,
      "局长": 9640,
      "00元": 9641,
      "变动": 9642,
      "地说": 9643,
      "产能": 9644,
      "搭载": 9645,
      "校长": 9646,
      "上网": 9647,
      "刑事": 9648,
      "▁behind": 9649,
      "救援": 9650,
      "▁death": 9651,
      "演讲": 9652,
      "气的": 9653,
      "来讲": 9654,
      "▁yourself": 9655,
      "鸡蛋": 9656,
      "▁extra": 9657,
      "机动": 9658,
      "复习": 9659,
      "播放": 9660,
      "▁subject": 9661,
      "▁accept": 9662,
      "▁wide": 9663,
      "占据": 9664,
      "▁changes": 9665,
      "第二天": 9666,
      "▁popular": 9667,
      "不但": 9668,
      "▁represent": 9669,
      "无限": 9670,
      "程度上": 9671,
      "二手": 9672,
      "put": 9673,
      "主持人": 9674,
      "▁looks": 9675,
      "非洲": 9676,
      "委托": 9677,
      "192": 9678,
      "预警": 9679,
      "▁reading": 9680,
      "几次": 9681,
      "▁continue": 9682,
      "aced": 9683,
      "纤维": 9684,
      "留在": 9685,
      "lin": 9686,
      "▁lay": 9687,
      "较高": 9688,
      "此后": 9689,
      "假设": 9690,
      "▁norm": 9691,
      "强度": 9692,
      "特性": 9693,
      "顾问": 9694,
      "英寸": 9695,
      "raw": 9696,
      "▁{": 9697,
      "豪华": 9698,
      "私人": 9699,
      "▁production": 9700,
      "▁customers": 9701,
      "▁Pa": 9702,
      "权力": 9703,
      "ky": 9704,
      "ml": 9705,
      "引擎": 9706,
      "食用": 9707,
      "▁party": 9708,
      "▁Reg": 9709,
      "击败": 9710,
      "（），": 9711,
      "这是一个": 9712,
      "▁software": 9713,
      "增加了": 9714,
      "▁neg": 9715,
      "了个": 9716,
      "▁action": 9717,
      "人是": 9718,
      "这件事": 9719,
      "神秘": 9720,
      "清洁": 9721,
      "倾向": 9722,
      "幼儿园": 9723,
      "▁describ": 9724,
      "▁board": 9725,
      "apt": 9726,
      "轿车": 9727,
      "unities": 9728,
      "跑步": 9729,
      "▁final": 9730,
      "职务": 9731,
      "▁Off": 9732,
      "获悉": 9733,
      "▁根据": 9734,
      "________": 9735,
      "重要的是": 9736,
      "▁recent": 9737,
      "▁ut": 9738,
      "途径": 9739,
      "▁respect": 9740,
      "秘书": 9741,
      "穿着": 9742,
      "▁assist": 9743,
      "常规": 9744,
      "VR": 9745,
      "起点": 9746,
      "▁hon": 9747,
      "是以": 9748,
      "的过程": 9749,
      "▁March": 9750,
      "到现在": 9751,
      "巴黎": 9752,
      "▁impact": 9753,
      "azing": 9754,
      "的信息": 9755,
      "了我": 9756,
      "▁cover": 9757,
      "依靠": 9758,
      "▁weeks": 9759,
      "睡眠": 9760,
      "93": 9761,
      "arter": 9762,
      "认证": 9763,
      "9月2": 9764,
      "当代": 9765,
      "奶奶": 9766,
      "部位": 9767,
      "ament": 9768,
      "半场": 9769,
      "改进": 9770,
      "mit": 9771,
      "▁日": 9772,
      "▁happy": 9773,
      "▁analysis": 9774,
      "ales": 9775,
      "可爱": 9776,
      "小姐": 9777,
      "帮忙": 9778,
      "ta": 9779,
      "陆续": 9780,
      "▁Don": 9781,
      "出一": 9782,
      "公民": 9783,
      "好友": 9784,
      "▁fa": 9785,
      "▁total": 9786,
      "▁outside": 9787,
      "偶尔": 9788,
      "▁anim": 9789,
      "泰国": 9790,
      "▁stop": 9791,
      "▁network": 9792,
      "▁phone": 9793,
      "▁concern": 9794,
      "cing": 9795,
      "尔斯": 9796,
      "▁West": 9797,
      "▁Act": 9798,
      "图像": 9799,
      "领域的": 9800,
      "zz": 9801,
      "▁Art": 9802,
      "我们在": 9803,
      "190": 9804,
      "验证": 9805,
      "某个": 9806,
      "蔬菜": 9807,
      "nes": 9808,
      "气温": 9809,
      "oke": 9810,
      "APP": 9811,
      "▁coll": 9812,
      "消化": 9813,
      "打破": 9814,
      "虚拟": 9815,
      "urb": 9816,
      "出国": 9817,
      "有效的": 9818,
      "▁obs": 9819,
      "▁pric": 9820,
      "强大的": 9821,
      "我自己": 9822,
      "hib": 9823,
      "浪费": 9824,
      "81": 9825,
      "死了": 9826,
      "▁Par": 9827,
      "荷兰": 9828,
      "ica": 9829,
      "那就": 9830,
      "快递": 9831,
      "ра": 9832,
      "疑问": 9833,
      "大了": 9834,
      "的车": 9835,
      "小时候": 9836,
      "维修": 9837,
      "▁growth": 9838,
      "看好": 9839,
      "大数据": 9840,
      "予以": 9841,
      "股指": 9842,
      "紧急": 9843,
      "▁fig": 9844,
      "相当于": 9845,
      "aving": 9846,
      "结果表明": 9847,
      "▁2009": 9848,
      "几十": 9849,
      "▁box": 9850,
      "住了": 9851,
      "▁fast": 9852,
      "合约": 9853,
      "种植": 9854,
      "▁financial": 9855,
      "▁running": 9856,
      "退出": 9857,
      "▁и": 9858,
      "海南": 9859,
      "ender": 9860,
      "▁takes": 9861,
      "间的": 9862,
      "面向": 9863,
      "命运": 9864,
      "欣赏": 9865,
      "等方面": 9866,
      "No": 9867,
      "据说": 9868,
      "一生": 9869,
      "的基础上": 9870,
      "5月2": 9871,
      "四大": 9872,
      "故意": 9873,
      "想想": 9874,
      "▁systems": 9875,
      "天然气": 9876,
      "抑制": 9877,
      "试点": 9878,
      "\n\n　　": 9879,
      "的需求": 9880,
      "就开始": 9881,
      "国王": 9882,
      "coming": 9883,
      "▁Dav": 9884,
      "▁ideas": 9885,
      "收益率": 9886,
      "证券投资基金": 9887,
      "境内": 9888,
      "北方": 9889,
      "开车": 9890,
      "询问": 9891,
      "聪明": 9892,
      "气候": 9893,
      "▁saw": 9894,
      "又有": 9895,
      "签署": 9896,
      "诉讼": 9897,
      "▁Im": 9898,
      "遭到": 9899,
      "不行": 9900,
      "▁County": 9901,
      "专注": 9902,
      "ari": 9903,
      "全省": 9904,
      "更换": 9905,
      "东部": 9906,
      "NBA": 9907,
      "笔记本": 9908,
      "apan": 9909,
      "▁professional": 9910,
      "▁moment": 9911,
      "身高": 9912,
      "▁Day": 9913,
      "▁mass": 9914,
      "生日": 9915,
      "灵活": 9916,
      "现货": 9917,
      "主办": 9918,
      "▁prim": 9919,
      "专利": 9920,
      "▁investig": 9921,
      "乐观": 9922,
      "▁analy": 9923,
      "▁Feb": 9924,
      "没人": 9925,
      "▁Health": 9926,
      "能不能": 9927,
      "讲述": 9928,
      "搜狐": 9929,
      "得分": 9930,
      "based": 9931,
      "反正": 9932,
      "广西": 9933,
      "▁worth": 9934,
      "巴马": 9935,
      "▁dog": 9936,
      "性质": 9937,
      "向上": 9938,
      "lebr": 9939,
      "将来": 9940,
      "妇女": 9941,
      "的一部分": 9942,
      "▁loss": 9943,
      "的位置": 9944,
      "出身": 9945,
      "现车": 9946,
      "发电": 9947,
      "年底": 9948,
      "▁base": 9949,
      "ming": 9950,
      "▁security": 9951,
      "pm": 9952,
      "奇怪": 9953,
      "ray": 9954,
      "留言": 9955,
      "的情": 9956,
      "▁associ": 9957,
      "记载": 9958,
      "▁Some": 9959,
      "图书馆": 9960,
      ",“": 9961,
      "▁cannot": 9962,
      "▁communic": 9963,
      "▁ri": 9964,
      "overed": 9965,
      "▁announ": 9966,
      "新兴": 9967,
      "场上": 9968,
      "自行车": 9969,
      "家属": 9970,
      "▁His": 9971,
      "opy": 9972,
      "▁bott": 9973,
      "▁ball": 9974,
      "迎来": 9975,
      "关闭": 9976,
      "mon": 9977,
      "▁collect": 9978,
      "这时": 9979,
      "▁sound": 9980,
      "和谐": 9981,
      "▁Sept": 9982,
      "彼此": 9983,
      "ube": 9984,
      "的历史": 9985,
      "助于": 9986,
      "arl": 9987,
      "周一": 9988,
      "无奈": 9989,
      "Ar": 9990,
      "出行": 9991,
      "接口": 9992,
      "得很": 9993,
      "medi": 9994,
      "他们在": 9995,
      "视为": 9996,
      "▁Fin": 9997,
      "▁couple": 9998,
      "▁official": 9999,
      "是很": 10000,
      "）：": 10001,
      "▁details": 10002,
      "宇宙": 10003,
      "这家": 10004,
      "白银": 10005,
      "▁June": 10006,
      "转向": 10007,
      "正确的": 10008,
      "每月": 10009,
      "二人": 10010,
      "可以说": 10011,
      "宏观": 10012,
      "下文": 10013,
      "物的": 10014,
      "海拔": 10015,
      "后者": 10016,
      "鉴定": 10017,
      "▁anyone": 10018,
      "▁regard": 10019,
      "达到了": 10020,
      "tr": 10021,
      "▁usually": 10022,
      "氛围": 10023,
      "的手": 10024,
      "收集": 10025,
      "掉了": 10026,
      "MP": 10027,
      "▁date": 10028,
      "▁2018": 10029,
      "......": 10030,
      "一日": 10031,
      "的有": 10032,
      "济南": 10033,
      "伊朗": 10034,
      "▁tit": 10035,
      "All": 10036,
      "atory": 10037,
      "哥哥": 10038,
      "总部": 10039,
      "一部": 10040,
      "基金份额": 10041,
      "▁affect": 10042,
      "以外": 10043,
      "电子商务": 10044,
      "▁America": 10045,
      "登陆": 10046,
      "eds": 10047,
      "▁teac": 10048,
      "考核": 10049,
      "地面": 10050,
      "家中": 10051,
      "▁longer": 10052,
      "ests": 10053,
      "▁sens": 10054,
      "更高": 10055,
      "相反": 10056,
      "可惜": 10057,
      "的多": 10058,
      "有一些": 10059,
      "马克": 10060,
      "首都": 10061,
      "▁Mon": 10062,
      "弟弟": 10063,
      "违反": 10064,
      "▁provided": 10065,
      "婚礼": 10066,
      "幅度": 10067,
      "这也": 10068,
      "不然": 10069,
      "▁House": 10070,
      "的三": 10071,
      "煤炭": 10072,
      "%、": 10073,
      "去做": 10074,
      "▁version": 10075,
      "可靠": 10076,
      "94": 10077,
      "一系列": 10078,
      "成功的": 10079,
      "，”": 10080,
      "ris": 10081,
      "▁national": 10082,
      "▁word": 10083,
      "协助": 10084,
      "党的": 10085,
      "温暖": 10086,
      "许可": 10087,
      "5万": 10088,
      "委书记": 10089,
      "马拉": 10090,
      "▁inside": 10091,
      "路口": 10092,
      "4月2": 10093,
      "▁Tra": 10094,
      "大力": 10095,
      "▁stri": 10096,
      "占比": 10097,
      "时许": 10098,
      "钢铁": 10099,
      "十六": 10100,
      "IL": 10101,
      "▁flow": 10102,
      "整治": 10103,
      "onse": 10104,
      "▁Us": 10105,
      "团体": 10106,
      "卫星": 10107,
      "要是": 10108,
      "▁ill": 10109,
      "▁held": 10110,
      "曾在": 10111,
      "▁download": 10112,
      "▁bi": 10113,
      "我现在": 10114,
      "加息": 10115,
      "▁bo": 10116,
      "nbsp": 10117,
      "评级": 10118,
      "答主": 10119,
      "AA": 10120,
      "▁skin": 10121,
      "▁60": 10122,
      "▁song": 10123,
      "见面": 10124,
      "开发商": 10125,
      "头的": 10126,
      "▁Sw": 10127,
      "▁son": 10128,
      "\n\n\n\n": 10129,
      "adem": 10130,
      "▁events": 10131,
      "▁deep": 10132,
      "ipment": 10133,
      "urg": 10134,
      "▁是": 10135,
      "担保": 10136,
      "级别": 10137,
      "mas": 10138,
      "发放": 10139,
      "党员": 10140,
      "大学的": 10141,
      "哲学": 10142,
      "姐姐": 10143,
      "▁image": 10144,
      "尽快": 10145,
      "cast": 10146,
      "蓝色": 10147,
      "也就是说": 10148,
      "▁cases": 10149,
      "血液": 10150,
      "尔夫": 10151,
      "考虑到": 10152,
      "▁safe": 10153,
      "just": 10154,
      "2003年": 10155,
      "南部": 10156,
      "一部分": 10157,
      "erve": 10158,
      "场所": 10159,
      "▁pers": 10160,
      "分的": 10161,
      "女神": 10162,
      "TS": 10163,
      "的人生": 10164,
      "说说": 10165,
      "好看": 10166,
      "公开发": 10167,
      "维生素": 10168,
      "▁print": 10169,
      "卫视": 10170,
      "暴力": 10171,
      "拍照": 10172,
      "不仅仅": 10173,
      "但他": 10174,
      "新区": 10175,
      "股东大会": 10176,
      "交易日": 10177,
      "辛苦": 10178,
      "2000年": 10179,
      "也被": 10180,
      "存储": 10181,
      "aining": 10182,
      "▁indic": 10183,
      "江南": 10184,
      "争取": 10185,
      "是否有": 10186,
      "复制": 10187,
      "基督": 10188,
      "拉斯": 10189,
      "力于": 10190,
      "\".": 10191,
      "产权": 10192,
      "▁accom": 10193,
      "伊斯": 10194,
      "▁mother": 10195,
      "like": 10196,
      "却是": 10197,
      "▁sun": 10198,
      "▁ver": 10199,
      "风景": 10200,
      "便利": 10201,
      "▁contract": 10202,
      "uth": 10203,
      "继承": 10204,
      "第三方": 10205,
      "ен": 10206,
      "局面": 10207,
      "手动": 10208,
      "引入": 10209,
      "著名的": 10210,
      "▁knowledge": 10211,
      "心中": 10212,
      "签约": 10213,
      "后续": 10214,
      "这条": 10215,
      "订阅": 10216,
      "每股": 10217,
      "▁26": 10218,
      "的长": 10219,
      "处理器": 10220,
      "百年": 10221,
      "▁manufact": 10222,
      "▁unique": 10223,
      "▁Val": 10224,
      "▁deg": 10225,
      "▁sense": 10226,
      "那时候": 10227,
      "游泳": 10228,
      "拓展": 10229,
      "权威": 10230,
      "北部": 10231,
      "与其": 10232,
      "是要": 10233,
      "苏州": 10234,
      "工程师": 10235,
      "激励": 10236,
      "会被": 10237,
      "▁designed": 10238,
      "uel": 10239,
      "▁28": 10240,
      "发起": 10241,
      "落后": 10242,
      "不停": 10243,
      "毫米": 10244,
      "▁attack": 10245,
      "▁includes": 10246,
      "奥运会": 10247,
      "索尼": 10248,
      "▁sales": 10249,
      "实验室": 10250,
      "▁created": 10251,
      "在国内": 10252,
      "免疫": 10253,
      "终端": 10254,
      "6月2": 10255,
      "▁April": 10256,
      "91": 10257,
      "▁leave": 10258,
      "▁potential": 10259,
      "▁cause": 10260,
      "IV": 10261,
      "花园": 10262,
      "我对": 10263,
      "▁Sch": 10264,
      "ground": 10265,
      "都被": 10266,
      "市区": 10267,
      "HK": 10268,
      "reng": 10269,
      "▁squ": 10270,
      "▁recogn": 10271,
      "调控": 10272,
      "De": 10273,
      "某种": 10274,
      "▁feature": 10275,
      "▁policy": 10276,
      "建造": 10277,
      "airs": 10278,
      "了吧": 10279,
      "xx": 10280,
      "▁inn": 10281,
      "谈判": 10282,
      "chan": 10283,
      "下来的": 10284,
      ");": 10285,
      "上课": 10286,
      "la": 10287,
      "概率": 10288,
      "购房": 10289,
      "单独": 10290,
      "从此": 10291,
      "▁autom": 10292,
      "▁dise": 10293,
      "▁TV": 10294,
      "修复": 10295,
      "更大": 10296,
      "▁July": 10297,
      "▁file": 10298,
      "ague": 10299,
      "▁target": 10300,
      "替补": 10301,
      "台北": 10302,
      "袭击": 10303,
      "▁woman": 10304,
      "多家": 10305,
      "统治": 10306,
      "ovember": 10307,
      "的技术": 10308,
      "季节": 10309,
      "奖励": 10310,
      "信仰": 10311,
      "leased": 10312,
      "▁Inc": 10313,
      "ington": 10314,
      "GDP": 10315,
      "▁war": 10316,
      "▁boy": 10317,
      "▁heav": 10318,
      "▁upon": 10319,
      "That": 10320,
      "▁hol": 10321,
      "▁late": 10322,
      "▁cool": 10323,
      "水的": 10324,
      "余额": 10325,
      "One": 10326,
      "转化": 10327,
      "就被": 10328,
      "采访时": 10329,
      "▁2008": 10330,
      "▁grad": 10331,
      "▁books": 10332,
      "版权": 10333,
      "uses": 10334,
      "▁options": 10335,
      "▁practice": 10336,
      "▁@": 10337,
      "欧盟": 10338,
      "写作": 10339,
      "2017": 10340,
      "▁李": 10341,
      "4000": 10342,
      "▁town": 10343,
      "子公司": 10344,
      "队友": 10345,
      "京东": 10346,
      "全力": 10347,
      "周年": 10348,
      "孩子们": 10349,
      "能在": 10350,
      "履行": 10351,
      "ension": 10352,
      "密切": 10353,
      "▁sn": 10354,
      "运营商": 10355,
      "itchen": 10356,
      "CEO": 10357,
      "aly": 10358,
      "▁propos": 10359,
      "▁morning": 10360,
      "改为": 10361,
      "昆明": 10362,
      "复合": 10363,
      "扮演": 10364,
      "放入": 10365,
      "▁sil": 10366,
      "很久": 10367,
      "2018年": 10368,
      "▁recently": 10369,
      "▁blood": 10370,
      "▁cy": 10371,
      "的消息": 10372,
      "的经济": 10373,
      "婴儿": 10374,
      "线下": 10375,
      "巴巴": 10376,
      "解读": 10377,
      "导弹": 10378,
      "一套": 10379,
      "精力": 10380,
      "▁Soc": 10381,
      "ael": 10382,
      "180": 10383,
      "投诉": 10384,
      "▁王": 10385,
      "▁choose": 10386,
      "读者": 10387,
      "自杀": 10388,
      "的相关": 10389,
      "扩张": 10390,
      "认购": 10391,
      "的最": 10392,
      "下辖": 10393,
      "wood": 10394,
      "iment": 10395,
      "！”": 10396,
      "的首": 10397,
      "▁Of": 10398,
      "ournal": 10399,
      "ples": 10400,
      "ady": 10401,
      "万吨": 10402,
      "观看": 10403,
      "发布会": 10404,
      "的回答": 10405,
      "远远": 10406,
      "高效": 10407,
      "测量": 10408,
      "那就是": 10409,
      "的数据": 10410,
      "开通": 10411,
      "国家队": 10412,
      "▁countries": 10413,
      "中新": 10414,
      "现有": 10415,
      "回去": 10416,
      "表情": 10417,
      "▁exact": 10418,
      "主人": 10419,
      "引进": 10420,
      "▁speak0": 10421,
      "▁learning": 10422,
      "▁Black": 10423,
      "EM": 10424,
      "和他": 10425,
      "理性": 10426,
      "传说": 10427,
      "实现了": 10428,
      "新浪体育": 10429,
      "中山": 10430,
      "▁sat": 10431,
      "DA": 10432,
      "篮板": 10433,
      "研究所": 10434,
      "其余": 10435,
      "一看": 10436,
      "题材": 10437,
      "SUV": 10438,
      "▁modern": 10439,
      "rs": 10440,
      "项目的": 10441,
      "▁Air": 10442,
      "leg": 10443,
      "board": 10444,
      "amed": 10445,
      "一块": 10446,
      "有一种": 10447,
      "放松": 10448,
      "ester": 10449,
      "▁hit": 10450,
      "制造业": 10451,
      "在他": 10452,
      "ached": 10453,
      "结束后": 10454,
      "▁brand": 10455,
      "带有": 10456,
      "▁President": 10457,
      "▁Mus": 10458,
      "利息": 10459,
      "遗憾": 10460,
      "的两": 10461,
      "▁27": 10462,
      "▁ready": 10463,
      "发育": 10464,
      "▁contrib": 10465,
      "▁dest": 10466,
      "肌肤": 10467,
      "觉得自己": 10468,
      "zy": 10469,
      "火车": 10470,
      "▁via": 10471,
      "org": 10472,
      "1999": 10473,
      "aker": 10474,
      "IG": 10475,
      "经纪": 10476,
      "▁lower": 10477,
      "阵容": 10478,
      "???": 10479,
      "▁effic": 10480,
      "ams": 10481,
      "▁code": 10482,
      "▁ep": 10483,
      "pped": 10484,
      "ING": 10485,
      "过度": 10486,
      "数的": 10487,
      "解答": 10488,
      "设计的": 10489,
      "从业": 10490,
      "与此同时": 10491,
      "排除": 10492,
      "ст": 10493,
      "▁users": 10494,
      "At": 10495,
      "▁regular": 10496,
      "不存在": 10497,
      "▁comments": 10498,
      "orks": 10499,
      "寻求": 10500,
      "有一天": 10501,
      "这项": 10502,
      "公主": 10503,
      "判决": 10504,
      "请求": 10505,
      "▁hair": 10506,
      "信贷": 10507,
      "▁ground": 10508,
      "▁received": 10509,
      "你在": 10510,
      "相应的": 10511,
      "郑州": 10512,
      "厨房": 10513,
      "师傅": 10514,
      "亮相": 10515,
      "▁lost": 10516,
      "认知": 10517,
      "oring": 10518,
      "付出": 10519,
      "这两个": 10520,
      "变成了": 10521,
      "▁member": 10522,
      "▁opportunity": 10523,
      "设定": 10524,
      "rown": 10525,
      "ivity": 10526,
      "一半": 10527,
      "期限": 10528,
      "是从": 10529,
      "审批": 10530,
      "框架": 10531,
      "认同": 10532,
      "我都": 10533,
      "▁bal": 10534,
      "epend": 10535,
      "发现了": 10536,
      "是非常": 10537,
      "▁comfort": 10538,
      "orge": 10539,
      "▁90": 10540,
      "入口": 10541,
      "▁write": 10542,
      "主演": 10543,
      "ening": 10544,
      "犯罪嫌疑人": 10545,
      "atform": 10546,
      "早已": 10547,
      "大连": 10548,
      "淘汰": 10549,
      "此事": 10550,
      "扶贫": 10551,
      "吐槽": 10552,
      "▁Har": 10553,
      "的风险": 10554,
      "cember": 10555,
      "为例": 10556,
      "单身": 10557,
      "▁PM": 10558,
      "▁新": 10559,
      "》《": 10560,
      "▁original": 10561,
      "With": 10562,
      "▁…": 10563,
      "得以": 10564,
      "▁drug": 10565,
      "奥巴马": 10566,
      "▁La": 10567,
      "后卫": 10568,
      "讲话": 10569,
      "抓获": 10570,
      "支出": 10571,
      "这张": 10572,
      "▁enter": 10573,
      "同步": 10574,
      "▁Aut": 10575,
      "就没有": 10576,
      "▁张": 10577,
      "不论": 10578,
      "二年": 10579,
      "重的": 10580,
      "乡村": 10581,
      "诸多": 10582,
      "▁pan": 10583,
      "▁News": 10584,
      "key": 10585,
      "心脏": 10586,
      "负担": 10587,
      "等级": 10588,
      "▁players": 10589,
      "▁从": 10590,
      "您的": 10591,
      "Pl": 10592,
      "▁influ": 10593,
      "ett": 10594,
      "均线": 10595,
      "随意": 10596,
      "持股": 10597,
      "夏季": 10598,
      "light": 10599,
      "马来": 10600,
      "平米": 10601,
      "不开": 10602,
      "焦点": 10603,
      ":“": 10604,
      "叫做": 10605,
      "rup": 10606,
      "以此": 10607,
      "忘记": 10608,
      "New": 10609,
      "今后": 10610,
      "任意": 10611,
      "不利": 10612,
      "前三": 10613,
      "ession": 10614,
      "▁related": 10615,
      "▁Red": 10616,
      "创始人": 10617,
      "▁built": 10618,
      "▁fit": 10619,
      "不变": 10620,
      "赶到": 10621,
      "▁door": 10622,
      "告诉我": 10623,
      "▁draw": 10624,
      "▁但": 10625,
      "克兰": 10626,
      "想知道": 10627,
      "机身": 10628,
      "积分": 10629,
      "▁myself": 10630,
      "为1": 10631,
      "的基本": 10632,
      "终点": 10633,
      "取代": 10634,
      "▁Ser": 10635,
      "atter": 10636,
      "ctions": 10637,
      "illing": 10638,
      "▁computer": 10639,
      "携带": 10640,
      "▁mix": 10641,
      "受益": 10642,
      "▁imm": 10643,
      "科学家": 10644,
      "▁Add": 10645,
      "高峰": 10646,
      "主教": 10647,
      "uit": 10648,
      "▁plant": 10649,
      "创业板": 10650,
      "):": 10651,
      "打工": 10652,
      "▁weight": 10653,
      "？”": 10654,
      "城市的": 10655,
      "数码": 10656,
      "院长": 10657,
      "=\"": 10658,
      "租赁": 10659,
      "SS": 10660,
      "定制": 10661,
      "。」": 10662,
      "▁请将": 10663,
      "ecut": 10664,
      "▁Pat": 10665,
      "德里": 10666,
      "嘉宾": 10667,
      "▁international": 10668,
      "hern": 10669,
      "▁ability": 10670,
      "▁decision": 10671,
      "申购": 10672,
      "▁Dis": 10673,
      "irit": 10674,
      "保健": 10675,
      "的态度": 10676,
      "让自己": 10677,
      "imum": 10678,
      "说到": 10679,
      "传递": 10680,
      "差别": 10681,
      "肿瘤": 10682,
      "从未": 10683,
      "▁ones": 10684,
      "▁summer": 10685,
      "ML": 10686,
      "两个人": 10687,
      "设有": 10688,
      "言论": 10689,
      "▁对": 10690,
      "损害": 10691,
      "▁remember": 10692,
      "全年": 10693,
      "▁inj": 10694,
      "▁然后": 10695,
      "纳入": 10696,
      "让她": 10697,
      "大规模": 10698,
      "乡镇": 10699,
      "▁leaders": 10700,
      "五十": 10701,
      "▁court": 10702,
      "新生": 10703,
      "iction": 10704,
      "做过": 10705,
      "▁drive": 10706,
      "二次": 10707,
      "否认": 10708,
      "东莞": 10709,
      "ко": 10710,
      "危害": 10711,
      "ville": 10712,
      "cm": 10713,
      "▁playing": 10714,
      "▁themselves": 10715,
      "优雅": 10716,
      "▁Ac": 10717,
      "2013": 10718,
      "问我": 10719,
      "买房": 10720,
      "车身": 10721,
      "当时的": 10722,
      "▁Google": 10723,
      "▁credit": 10724,
      "▁lives": 10725,
      "时光": 10726,
      "Con": 10727,
      "通用": 10728,
      "oul": 10729,
      "一把": 10730,
      "热门": 10731,
      "▁meeting": 10732,
      "▁chance": 10733,
      "▁wrong": 10734,
      "本公司": 10735,
      "真的很": 10736,
      "变速": 10737,
      "各国": 10738,
      "不算": 10739,
      "IF": 10740,
      "▁bank": 10741,
      "浪漫": 10742,
      "亲自": 10743,
      "后果": 10744,
      "一定会": 10745,
      "清理": 10746,
      "交往": 10747,
      "什么时候": 10748,
      "▁goes": 10749,
      "事发": 10750,
      "合肥": 10751,
      "待遇": 10752,
      "真心": 10753,
      "▁private": 10754,
      "的国家": 10755,
      "▁Her": 10756,
      "立刻": 10757,
      "上学": 10758,
      "attle": 10759,
      "的书": 10760,
      "抓住": 10761,
      "一百": 10762,
      "?”": 10763,
      "▁clos": 10764,
      "ION": 10765,
      "▁user": 10766,
      "HE": 10767,
      "出于": 10768,
      "延伸": 10769,
      "调研": 10770,
      "▁hands": 10771,
      "较低": 10772,
      "澳洲": 10773,
      "块钱": 10774,
      "英格兰": 10775,
      "▁former": 10776,
      "标签": 10777,
      "▁integr": 10778,
      "武装": 10779,
      "cil": 10780,
      "公斤": 10781,
      "承受": 10782,
      "学校的": 10783,
      "外界": 10784,
      "礼物": 10785,
      "受害": 10786,
      "ressed": 10787,
      "做什么": 10788,
      "餐饮": 10789,
      "媒体报道": 10790,
      "omen": 10791,
      "人力": 10792,
      "ection": 10793,
      "▁veh": 10794,
      "替代": 10795,
      "合理的": 10796,
      "▁currently": 10797,
      "播出": 10798,
      "定价": 10799,
      "▁shall": 10800,
      "理工": 10801,
      "▁Post": 10802,
      "认为是": 10803,
      "拿着": 10804,
      "那是": 10805,
      "可谓": 10806,
      "知友": 10807,
      "四十": 10808,
      "同样的": 10809,
      "是如何": 10810,
      "▁Acc": 10811,
      "同志": 10812,
[...]
