{
  "version": "1.0",
  "truncation": null,
  "padding": null,
  "added_tokens": [
    {
      "id": 0,
      "content": "<unk>",
      "single_word": false,
      "lstrip": false,
      "rstrip": false,
      "normalized": false,
      "special": true
    },
    {
      "id": 1,
      "content": "<s>",
      "single_word": false,
      "lstrip": false,
      "rstrip": false,
      "normalized": false,
      "special": true
    },
    {
      "id": 2,
      "content": "</s>",
      "single_word": false,
      "lstrip": false,
      "rstrip": false,
      "normalized": false,
      "special": true
    }
  ],
  "normalizer": {
    "type": "Sequence",
    "normalizers": [
      {
        "type": "Prepend",
        "prepend": "▁"
      },
      {
        "type": "Replace",
        "pattern": {
          "String": " "
        },
        "content": "▁"
      }
    ]
  },
  "pre_tokenizer": {
    "type": "Sequence",
    "pretokenizers": [
      {
        "type": "Split",
        "pattern": {
          "Regex": "▁"
        },
        "behavior": "MergedWithNext",
        "invert": false
      },
      {
        "type": "Split",
        "pattern": {
          "Regex": "▁*(\\w+|[^\\w\\s]+)"
        },
        "behavior": "Isolated",
        "invert": false
      }
    ]
  },
  "post_processor": null,
  "decoder": {
    "type": "Sequence",
    "decoders": [
      {
        "type": "Replace",
        "pattern": {
          "String": "▁"
        },
        "content": " "
      },
      {
        "type": "ByteFallback"
      },
      {
        "type": "Fuse"
      },
      {
        "type": "Strip",
        "content": " ",
        "start": 1,
        "stop": 0
      }
    ]
  },
  "model": {
    "type": "BPE",
    "dropout": null,
    "unk_token": "<unk>",
    "continuing_subword_prefix": null,
    "end_of_word_suffix": null,
    "fuse_unk": true,
    "byte_fallback": true,
    "vocab": {
      "<unk>": 0,
      "<s>": 1,
      "</s>": 2,
      "<0x00>": 3,
      "<0x01>": 4,
      "<0x02>": 5,
      "<0x03>": 6,
      "<0x04>": 7,
      "<0x05>": 8,
      "<0x06>": 9,
      "<0x07>": 10,
      "<0x08>": 11,
      "<0x09>": 12,
      "<0x0A>": 13,
      "<0x0B>": 14,
      "<0x0C>": 15,
      "<0x0D>": 16,
      "<0x0E>": 17,
      "<0x0F>": 18,
      "<0x10>": 19,
      "<0x11>": 20,
      "<0x12>": 21,
      "<0x13>": 22,
      "<0x14>": 23,
      "<0x15>": 24,
      "<0x16>": 25,
      "<0x17>": 26,
      "<0x18>": 27,
      "<0x19>": 28,
      "<0x1A>": 29,
      "<0x1B>": 30,
      "<0x1C>": 31,
      "<0x1D>": 32,
      "<0x1E>": 33,
      "<0x1F>": 34,
      "<0x20>": 35,
      "<0x21>": 36,
      "<0x22>": 37,
      "<0x23>": 38,
      "<0x24>": 39,
      "<0x25>": 40,
      "<0x26>": 41,
      "<0x27>": 42,
      "<0x28>": 43,
      "<0x29>": 44,
      "<0x2A>": 45,
      "<0x2B>": 46,
      "<0x2C>": 47,
      "<0x2D>": 48,
      "<0x2E>": 49,
      "<0x2F>": 50,
      "<0x30>": 51,
      "<0x31>": 52,
      "<0x32>": 53,
      "<0x33>": 54,
      "<0x34>": 55,
      "<0x35>": 56,
      "<0x36>": 57,
      "<0x37>": 58,
      "<0x38>": 59,
      "<0x39>": 60,
      "<0x3A>": 61,
      "<0x3B>": 62,
      "<0x3C>": 63,
      "<0x3D>": 64,
      "<0x3E>": 65,
      "<0x3F>": 66,
      "<0x40>": 67,
      "<0x41>": 68,
      "<0x42>": 69,
      "<0x43>": 70,
      "<0x44>": 71,
      "<0x45>": 72,
      "<0x46>": 73,
      "<0x47>": 74,
      "<0x48>": 75,
      "<0x49>": 76,
      "<0x4A>": 77,
      "<0x4B>": 78,
      "<0x4C>": 79,
      "<0x4D>": 80,
      "<0x4E>": 81,
      "<0x4F>": 82,
      "<0x50>": 83,
      "<0x51>": 84,
      "<0x52>": 85,
      "<0x53>": 86,
      "<0x54>": 87,
      "<0x55>": 88,
      "<0x56>": 89,
      "<0x57>": 90,
      "<0x58>": 91,
      "<0x59>": 92,
      "<0x5A>": 93,
      "<0x5B>": 94,
      "<0x5C>": 95,
      "<0x5D>": 96,
      "<0x5E>": 97,
      "<0x5F>": 98,
      "<0x60>": 99,
      "<0x61>": 100,
      "<0x62>": 101,
      "<0x63>": 102,
      "<0x64>": 103,
      "<0x65>": 104,
      "<0x66>": 105,
      "<0x67>": 106,
      "<0x68>": 107,
      "<0x69>": 108,
      "<0x6A>": 109,
      "<0x6B>": 110,
      "<0x6C>": 111,
      "<0x6D>": 112,
      "<0x6E>": 113,
      "<0x6F>": 114,
      "<0x70>": 115,
      "<0x71>": 116,
      "<0x72>": 117,
      "<0x73>": 118,
      "<0x74>": 119,
      "<0x75>": 120,
      "<0x76>": 121,
      "<0x77>": 122,
      "<0x78>": 123,
      "<0x79>": 124,
      "<0x7A>": 125,
      "<0x7B>": 126,
      "<0x7C>": 127,
      "<0x7D>": 128,
      "<0x7E>": 129,
      "<0x7F>": 130,
      "<0x80>": 131,
      "<0x81>": 132,
      "<0x82>": 133,
      "<0x83>": 134,
      "<0x84>": 135,
      "<0x85>": 136,
      "<0x86>": 137,
      "<0x87>": 138,
      "<0x88>": 139,
      "<0x89>": 140,
      "<0x8A>": 141,
      "<0x8B>": 142,
      "<0x8C>": 143,
      "<0x8D>": 144,
      "<0x8E>": 145,
      "<0x8F>": 146,
      "<0x90>": 147,
      "<0x91>": 148,
      "<0x92>": 149,
      "<0x93>": 150,
      "<0x94>": 151,
      "<0x95>": 152,
      "<0x96>": 153,
      "<0x97>": 154,
      "<0x98>": 155,
      "<0x99>": 156,
      "<0x9A>": 157,
      "<0x9B>": 158,
      "<0x9C>": 159,
      "<0x9D>": 160,
      "<0x9E>": 161,
      "<0x9F>": 162,
      "<0xA0>": 163,
      "<0xA1>": 164,
      "<0xA2>": 165,
      "<0xA3>": 166,
      "<0xA4>": 167,
      "<0xA5>": 168,
      "<0xA6>": 169,
      "<0xA7>": 170,
      "<0xA8>": 171,
      "<0xA9>": 172,
      "<0xAA>": 173,
      "<0xAB>": 174,
      "<0xAC>": 175,
      "<0xAD>": 176,
      "<0xAE>": 177,
      "<0xAF>": 178,
      "<0xB0>": 179,
      "<0xB1>": 180,
      "<0xB2>": 181,
      "<0xB3>": 182,
      "<0xB4>": 183,
      "<0xB5>": 184,
      "<0xB6>": 185,
      "<0xB7>": 186,
      "<0xB8>": 187,
      "<0xB9>": 188,
      "<0xBA>": 189,
      "<0xBB>": 190,
      "<0xBC>": 191,
      "<0xBD>": 192,
      "<0xBE>": 193,
      "<0xBF>": 194,
      "<0xC0>": 195,
      "<0xC1>": 196,
      "<0xC2>": 197,
      "<0xC3>": 198,
      "<0xC4>": 199,
      "<0xC5>": 200,
      "<0xC6>": 201,
      "<0xC7>": 202,
      "<0xC8>": 203,
      "<0xC9>": 204,
      "<0xCA>": 205,
      "<0xCB>": 206,
      "<0xCC>": 207,
      "<0xCD>": 208,
      "<0xCE>": 209,
      "<0xCF>": 210,
      "<0xD0>": 211,
      "<0xD1>": 212,
      "<0xD2>": 213,
      "<0xD3>": 214,
      "<0xD4>": 215,
      "<0xD5>": 216,
      "<0xD6>": 217,
      "<0xD7>": 218,
      "<0xD8>": 219,
      "<0xD9>": 220,
      "<0xDA>": 221,
      "<0xDB>": 222,
      "<0xDC>": 223,
      "<0xDD>": 224,
      "<0xDE>": 225,
      "<0xDF>": 226,
      "<0xE0>": 227,
      "<0xE1>": 228,
      "<0xE2>": 229,
      "<0xE3>": 230,
      "<0xE4>": 231,
      "<0xE5>": 232,
      "<0xE6>": 233,
      "<0xE7>": 234,
      "<0xE8>": 235,
      "<0xE9>": 236,
      "<0xEA>": 237,
      "<0xEB>": 238,
      "<0xEC>": 239,
      "<0xED>": 240,
      "<0xEE>": 241,
      "<0xEF>": 242,
      "<0xF0>": 243,
      "<0xF1>": 244,
      "<0xF2>": 245,
      "<0xF3>": 246,
      "<0xF4>": 247,
      "<0xF5>": 248,
      "<0xF6>": 249,
      "<0xF7>": 250,
      "<0xF8>": 251,
      "<0xF9>": 252,
      "<0xFA>": 253,
      "<0xFB>": 254,
      "<0xFC>": 255,
      "<0xFD>": 256,
      "<0xFE>": 257,
      "<0xFF>": 258,
      "\u0002": 259,
      "\t": 260,
      "\n": 261,
      "!": 262,
      "\"": 263,
      "#": 264,
      "$": 265,
      "%": 266,
      "&": 267,
      "'": 268,
      "(": 269,
      ")": 270,
      "*": 271,
      "+": 272,
      ",": 273,
      "-": 274,
      ".": 275,
      "/": 276,
      "0": 277,
      "1": 278,
      "2": 279,
      "3": 280,
      "4": 281,
      "5": 282,
      "6": 283,
      "7": 284,
      "8": 285,
      "9": 286,
      ":": 287,
      ";": 288,
      "<": 289,
      "=": 290,
      ">": 291,
      "?": 292,
      "@": 293,
      "A": 294,
      "B": 295,
      "C": 296,
      "D": 297,
      "E": 298,
      "F": 299,
      "G": 300,
      "H": 301,
      "I": 302,
      "J": 303,
      "K": 304,
      "L": 305,
      "M": 306,
      "N": 307,
      "O": 308,
      "P": 309,
      "Q": 310,
      "R": 311,
      "S": 312,
      "T": 313,
      "U": 314,
      "V": 315,
      "W": 316,
      "X": 317,
      "Y": 318,
      "Z": 319,
      "[": 320,
      "\\": 321,
      "]": 322,
      "^": 323,
      "_": 324,
      "`": 325,
      "a": 326,
      "b": 327,
      "c": 328,
      "d": 329,
      "e": 330,
      "f": 331,
      "g": 332,
      "h": 333,
      "i": 334,
      "j": 335,
      "k": 336,
      "l": 337,
      "m": 338,
      "n": 339,
      "o": 340,
      "p": 341,
      "q": 342,
      "r": 343,
      "s": 344,
      "t": 345,
      "u": 346,
      "v": 347,
      "w": 348,
      "x": 349,
      "y": 350,
      "z": 351,
      "{": 352,
      "|": 353,
      "}": 354,
      "~": 355,
      " ": 356,
      "£": 357,
      "§": 358,
      "©": 359,
      "«": 360,
      "®": 361,
      "°": 362,
      "±": 363,
      "·": 364,
      "»": 365,
      "×": 366,
      "à": 367,
      "á": 368,
      "â": 369,
      "ã": 370,
      "ä": 371,
      "ç": 372,
      "è": 373,
      "é": 374,
      "ê": 375,
      "í": 376,
      "î": 377,
      "ñ": 378,
      "ó": 379,
      "ô": 380,
      "ö": 381,
      "ú": 382,
      "ü": 383,
      "ā": 384,
      "ă": 385,
      "đ": 386,
      "ğ": 387,
      "ı": 388,
      "ş": 389,
      "š": 390,
      "ư": 391,
      "ə": 392,
      "ά": 393,
      "έ": 394,
      "ή": 395,
      "ί": 396,
      "α": 397,
      "β": 398,
      "γ": 399,
      "δ": 400,
      "ε": 401,
      "η": 402,
      "ι": 403,
      "κ": 404,
      "λ": 405,
      "μ": 406,
      "ν": 407,
      "ο": 408,
      "π": 409,
      "ρ": 410,
      "ς": 411,
      "σ": 412,
      "τ": 413,
      "υ": 414,
      "ω": 415,
      "ό": 416,
      "С": 417,
      "а": 418,
      "б": 419,
      "в": 420,
      "г": 421,
      "д": 422,
      "е": 423,
      "ж": 424,
      "з": 425,
      "и": 426,
      "й": 427,
      "к": 428,
      "л": 429,
      "м": 430,
      "н": 431,
      "о": 432,
      "п": 433,
      "р": 434,
      "с": 435,
      "т": 436,
      "у": 437,
      "ф": 438,
      "х": 439,
      "ц": 440,
      "ч": 441,
      "ш": 442,
      "щ": 443,
      "ы": 444,
      "ь": 445,
      "э": 446,
      "ю": 447,
      "я": 448,
      "і": 449,
      "א": 450,
      "ב": 451,
      "ג": 452,
      "ד": 453,
      "ה": 454,
      "ו": 455,
      "ז": 456,
      "ח": 457,
      "ט": 458,
      "י": 459,
      "כ": 460,
      "ל": 461,
      "ם": 462,
      "מ": 463,
      "ן": 464,
      "נ": 465,
      "ס": 466,
      "ע": 467,
      "פ": 468,
      "צ": 469,
      "ק": 470,
      "ר": 471,
      "ש": 472,
      "ת": 473,
      "،": 474,
      "أ": 475,
      "ا": 476,
      "ب": 477,
      "ة": 478,
      "ت": 479,
      "ج": 480,
      "ح": 481,
      "خ": 482,
      "د": 483,
      "ر": 484,
      "ز": 485,
      "س": 486,
      "ش": 487,
      "ص": 488,
      "ط": 489,
      "ع": 490,
      "ف": 491,
      "ق": 492,
      "ك": 493,
      "ل": 494,
      "م": 495,
      "ن": 496,
      "ه": 497,
      "و": 498,
      "ى": 499,
      "ي": 500,
      "ک": 501,
      "ی": 502,
      "ं": 503,
      "अ": 504,
      "ए": 505,
      "क": 506,
      "ग": 507,
      "च": 508,
      "ज": 509,
      "ट": 510,
      "ड": 511,
      "त": 512,
      "द": 513,
      "न": 514,
      "प": 515,
      "ब": 516,
      "म": 517,
      "य": 518,
      "र": 519,
      "ल": 520,
      "व": 521,
      "श": 522,
      "स": 523,
      "ह": 524,
      "ा": 525,
      "ि": 526,
      "ी": 527,
      "ु": 528,
      "े": 529,
      "ै": 530,
      "ो": 531,
      "्": 532,
      "।": 533,
      "ক": 534,
      "ত": 535,
      "ন": 536,
      "ব": 537,
      "য": 538,
      "র": 539,
      "স": 540,
      "া": 541,
      "ি": 542,
      "ে": 543,
      "্": 544,
      "ા": 545,
      "ે": 546,
      "க": 547,
      "த": 548,
      "ி": 549,
      "ு": 550,
      "்": 551,
      "ക": 552,
      "ത": 553,
      "ന": 554,
      "പ": 555,
      "യ": 556,
      "ര": 557,
      "ാ": 558,
      "ി": 559,
      "ു": 560,
      "്": 561,
      "ก": 562,
      "ข": 563,
      "ค": 564,
      "ง": 565,
      "ด": 566,
      "ต": 567,
      "ท": 568,
      "น": 569,
      "บ": 570,
      "ป": 571,
      "ม": 572,
      "ย": 573,
      "ร": 574,
      "ล": 575,
      "ว": 576,
      "ส": 577,
      "ห": 578,
      "อ": 579,
      "ะ": 580,
      "ั": 581,
      "า": 582,
      "ิ": 583,
      "ี": 584,
      "เ": 585,
      "แ": 586,
      "ใ": 587,
      "่": 588,
      "้": 589,
      "์": 590,
      "ာ": 591,
      "ု": 592,
      "း": 593,
      "်": 594,
      "ა": 595,
      "ე": 596,
      "ი": 597,
      "ს": 598,
      "ក": 599,
      "ង": 600,
      "ត": 601,
      "ន": 602,
      "ប": 603,
      "ម": 604,
      "រ": 605,
      "ល": 606,
      "ស": 607,
      "ា": 608,
      "្": 609,
      "ế": 610,
      "–": 611,
      "—": 612,
      "―": 613,
      "‘": 614,
      "’": 615,
      "“": 616,
      "”": 617,
      "•": 618,
      "…": 619,
      "€": 620,
      "℃": 621,
      "™": 622,
      "↑": 623,
      "→": 624,
      "↓": 625,
      "①": 626,
      "②": 627,
      "③": 628,
      "─": 629,
      "▁": 630,
      "■": 631,
      "□": 632,
      "▲": 633,
      "▼": 634,
      "▽": 635,
      "◆": 636,
      "○": 637,
      "●": 638,
      "★": 639,
      "☆": 640,
      "♫": 641,
      "　": 642,
      "、": 643,
      "。": 644,
      "〈": 645,
      "〉": 646,
      "《": 647,
      "》": 648,
      "「": 649,
      "」": 650,
      "『": 651,
      "』": 652,
      "【": 653,
      "】": 654,
      "〔": 655,
      "〕": 656,
      "あ": 657,
      "い": 658,
      "う": 659,
      "か": 660,
      "が": 661,
      "き": 662,
      "く": 663,
      "こ": 664,
      "さ": 665,
      "し": 666,
      "す": 667,
      "た": 668,
      "っ": 669,
      "て": 670,
      "で": 671,
      "と": 672,
      "な": 673,
      "に": 674,
      "の": 675,
      "は": 676,
      "ま": 677,
      "も": 678,
      "ら": 679,
      "り": 680,
      "る": 681,
      "れ": 682,
      "を": 683,
      "ん": 684,
      "ア": 685,
      "イ": 686,
      "ク": 687,
      "ス": 688,
      "ト": 689,
      "ラ": 690,
      "リ": 691,
      "ル": 692,
      "ン": 693,
      "・": 694,
      "ー": 695,
      "㎡": 696,
      "一": 697,
      "丁": 698,
      "七": 699,
      "万": 700,
      "丈": 701,
      "三": 702,
      "上": 703,
      "下": 704,
      "不": 705,
      "与": 706,
      "丑": 707,
      "专": 708,
      "且": 709,
      "世": 710,
      "丘": 711,
      "丙": 712,
      "业": 713,
      "丛": 714,
      "东": 715,
      "丝": 716,
      "丞": 717,
      "丢": 718,
      "两": 719,
      "严": 720,
      "並": 721,
      "丧": 722,
      "丨": 723,
      "个": 724,
      "丫": 725,
      "中": 726,
      "丰": 727,
      "串": 728,
      "临": 729,
      "丸": 730,
      "丹": 731,
      "为": 732,
      "主": 733,
      "丽": 734,
      "举": 735,
      "乃": 736,
      "久": 737,
      "么": 738,
      "义": 739,
      "之": 740,
      "乌": 741,
      "乍": 742,
      "乎": 743,
      "乏": 744,
      "乐": 745,
      "乒": 746,
      "乓": 747,
      "乔": 748,
      "乖": 749,
      "乘": 750,
      "乙": 751,
      "九": 752,
      "乞": 753,
      "也": 754,
      "习": 755,
      "乡": 756,
      "书": 757,
      "买": 758,
      "乱": 759,
      "乳": 760,
      "乾": 761,
      "了": 762,
      "予": 763,
      "争": 764,
      "事": 765,
      "二": 766,
      "于": 767,
      "亏": 768,
      "云": 769,
      "互": 770,
      "五": 771,
      "井": 772,
      "亚": 773,
      "些": 774,
      "亟": 775,
      "亡": 776,
      "交": 777,
      "亥": 778,
      "亦": 779,
      "产": 780,
      "亨": 781,
      "亩": 782,
      "享": 783,
      "京": 784,
      "亭": 785,
      "亮": 786,
      "亲": 787,
      "人": 788,
      "亿": 789,
      "什": 790,
      "仁": 791,
      "仅": 792,
      "仆": 793,
      "仇": 794,
      "今": 795,
      "介": 796,
      "仍": 797,
      "从": 798,
      "仑": 799,
      "仓": 800,
      "仔": 801,
      "仕": 802,
      "他": 803,
      "仗": 804,
      "付": 805,
      "仙": 806,
      "代": 807,
      "令": 808,
      "以": 809,
      "仪": 810,
      "们": 811,
      "仰": 812,
      "仲": 813,
      "件": 814,
      "价": 815,
      "任": 816,
      "份": 817,
      "仿": 818,
      "企": 819,
      "伊": 820,
      "伍": 821,
      "伏": 822,
      "伐": 823,
      "休": 824,
      "众": 825,
      "优": 826,
      "伙": 827,
      "会": 828,
      "伞": 829,
      "伟": 830,
      "传": 831,
      "伤": 832,
      "伦": 833,
      "伪": 834,
      "伯": 835,
      "估": 836,
      "伴": 837,
      "伸": 838,
      "伺": 839,
      "似": 840,
      "伽": 841,
      "但": 842,
      "位": 843,
      "低": 844,
      "住": 845,
      "佐": 846,
      "佑": 847,
      "体": 848,
      "何": 849,
      "余": 850,
      "佛": 851,
      "作": 852,
      "你": 853,
      "佣": 854,
      "佩": 855,
      "佬": 856,
      "佳": 857,
      "使": 858,
      "侃": 859,
      "侄": 860,
      "來": 861,
      "侈": 862,
      "例": 863,
      "侍": 864,
      "供": 865,
      "依": 866,
      "侠": 867,
      "侣": 868,
      "侦": 869,
      "侧": 870,
      "侨": 871,
      "侮": 872,
      "侯": 873,
      "侵": 874,
      "便": 875,
      "促": 876,
      "俄": 877,
      "俊": 878,
      "俏": 879,
      "俗": 880,
      "俘": 881,
      "保": 882,
      "俞": 883,
      "信": 884,
      "俩": 885,
      "俭": 886,
      "修": 887,
      "俯": 888,
      "俱": 889,
      "個": 890,
      "倍": 891,
      "們": 892,
      "倒": 893,
      "倘": 894,
      "候": 895,
      "倚": 896,
      "借": 897,
      "倡": 898,
      "倦": 899,
      "倩": 900,
      "倪": 901,
      "债": 902,
      "值": 903,
      "倾": 904,
      "假": 905,
      "偏": 906,
      "做": 907,
      "停": 908,
      "健": 909,
      "偶": 910,
      "偷": 911,
      "偿": 912,
      "傅": 913,
      "傍": 914,
      "備": 915,
      "储": 916,
      "催": 917,
      "傲": 918,
      "傳": 919,
      "傻": 920,
      "像": 921,
      "僚": 922,
      "僧": 923,
      "僵": 924,
      "僻": 925,
      "儒": 926,
      "儿": 927,
      "允": 928,
      "元": 929,
      "兄": 930,
      "充": 931,
      "兆": 932,
      "先": 933,
      "光": 934,
      "克": 935,
      "免": 936,
      "兑": 937,
      "兔": 938,
      "党": 939,
      "兜": 940,
      "入": 941,
      "內": 942,
      "全": 943,
      "兩": 944,
      "八": 945,
      "公": 946,
      "六": 947,
      "兮": 948,
      "兰": 949,
      "共": 950,
      "关": 951,
      "兴": 952,
      "兵": 953,
      "其": 954,
      "具": 955,
      "典": 956,
      "兹": 957,
      "养": 958,
      "兼": 959,
      "兽": 960,
      "冀": 961,
      "内": 962,
      "冈": 963,
      "冉": 964,
      "册": 965,
      "再": 966,
      "冒": 967,
      "冕": 968,
      "写": 969,
      "军": 970,
      "农": 971,
      "冠": 972,
      "冤": 973,
      "冥": 974,
      "冬": 975,
      "冯": 976,
      "冰": 977,
      "冲": 978,
      "决": 979,
      "况": 980,
      "冶": 981,
      "冷": 982,
      "冻": 983,
      "净": 984,
      "凄": 985,
      "准": 986,
      "凉": 987,
      "凌": 988,
      "减": 989,
      "凑": 990,
      "凝": 991,
      "几": 992,
      "凡": 993,
      "凤": 994,
      "凭": 995,
      "凯": 996,
      "凰": 997,
      "凳": 998,
      "凶": 999,
      "凸": 1000,
      "凹": 1001,
      "出": 1002,
      "击": 1003,
      "函": 1004,
      "凿": 1005,
      "刀": 1006,
      "刃": 1007,
      "分": 1008,
      "切": 1009,
      "刊": 1010,
      "刑": 1011,
      "划": 1012,
      "列": 1013,
      "刘": 1014,
      "则": 1015,
      "刚": 1016,
      "创": 1017,
      "初": 1018,
      "删": 1019,
      "判": 1020,
      "別": 1021,
      "利": 1022,
      "别": 1023,
      "刮": 1024,
      "到": 1025,
      "制": 1026,
      "刷": 1027,
      "券": 1028,
      "刹": 1029,
      "刺": 1030,
      "刻": 1031,
      "剂": 1032,
      "則": 1033,
      "削": 1034,
      "前": 1035,
      "剑": 1036,
      "剔": 1037,
      "剖": 1038,
      "剥": 1039,
      "剧": 1040,
      "剩": 1041,
      "剪": 1042,
      "副": 1043,
      "割": 1044,
      "劈": 1045,
      "劉": 1046,
      "力": 1047,
      "劝": 1048,
      "办": 1049,
      "功": 1050,
      "加": 1051,
      "务": 1052,
      "劣": 1053,
      "动": 1054,
      "助": 1055,
      "努": 1056,
      "劫": 1057,
      "励": 1058,
      "劲": 1059,
      "劳": 1060,
      "势": 1061,
      "勃": 1062,
      "勇": 1063,
      "勉": 1064,
      "勋": 1065,
      "勒": 1066,
      "動": 1067,
      "勘": 1068,
      "勝": 1069,
      "募": 1070,
      "勢": 1071,
      "勤": 1072,
      "勺": 1073,
      "勾": 1074,
      "勿": 1075,
      "匀": 1076,
      "包": 1077,
      "匆": 1078,
      "匈": 1079,
      "化": 1080,
      "北": 1081,
      "匙": 1082,
      "匠": 1083,
      "匪": 1084,
      "匹": 1085,
      "区": 1086,
      "医": 1087,
      "匿": 1088,
      "十": 1089,
      "千": 1090,
      "升": 1091,
      "午": 1092,
      "卉": 1093,
      "半": 1094,
      "华": 1095,
      "协": 1096,
      "卑": 1097,
      "卒": 1098,
      "卓": 1099,
      "单": 1100,
      "卖": 1101,
      "南": 1102,
      "博": 1103,
      "卜": 1104,
      "占": 1105,
      "卡": 1106,
      "卢": 1107,
      "卤": 1108,
      "卦": 1109,
      "卧": 1110,
      "卫": 1111,
      "卯": 1112,
      "印": 1113,
      "危": 1114,
      "即": 1115,
      "却": 1116,
      "卵": 1117,
      "卷": 1118,
      "卸": 1119,
      "卿": 1120,
      "厂": 1121,
      "厄": 1122,
      "厅": 1123,
      "历": 1124,
      "厉": 1125,
      "压": 1126,
      "厌": 1127,
      "厕": 1128,
      "厘": 1129,
      "厚": 1130,
      "原": 1131,
      "厢": 1132,
      "厥": 1133,
      "厦": 1134,
      "厨": 1135,
      "去": 1136,
      "县": 1137,
      "参": 1138,
      "參": 1139,
      "又": 1140,
      "叉": 1141,
      "及": 1142,
      "友": 1143,
      "双": 1144,
      "反": 1145,
      "发": 1146,
      "叔": 1147,
      "取": 1148,
      "受": 1149,
      "变": 1150,
      "叙": 1151,
      "叛": 1152,
      "叠": 1153,
      "口": 1154,
      "古": 1155,
      "句": 1156,
      "另": 1157,
      "叨": 1158,
      "只": 1159,
      "叫": 1160,
      "召": 1161,
      "叭": 1162,
      "叮": 1163,
      "可": 1164,
      "台": 1165,
      "史": 1166,
      "右": 1167,
      "叶": 1168,
      "号": 1169,
      "司": 1170,
      "叹": 1171,
      "吁": 1172,
      "吃": 1173,
      "各": 1174,
      "合": 1175,
      "吉": 1176,
      "吊": 1177,
      "同": 1178,
      "名": 1179,
      "后": 1180,
      "吏": 1181,
      "吐": 1182,
      "向": 1183,
      "吓": 1184,
      "吕": 1185,
      "吗": 1186,
      "君": 1187,
      "吞": 1188,
      "吟": 1189,
      "否": 1190,
      "吧": 1191,
      "吨": 1192,
      "含": 1193,
      "听": 1194,
      "启": 1195,
      "吳": 1196,
      "吴": 1197,
      "吵": 1198,
      "吸": 1199,
      "吹": 1200,
      "吻": 1201,
      "吼": 1202,
      "吾": 1203,
      "呀": 1204,
      "呃": 1205,
      "呆": 1206,
      "呈": 1207,
      "告": 1208,
      "呐": 1209,
      "呕": 1210,
      "呗": 1211,
      "员": 1212,
      "呜": 1213,
      "呢": 1214,
      "周": 1215,
      "味": 1216,
      "呵": 1217,
      "呼": 1218,
      "命": 1219,
      "咋": 1220,
      "和": 1221,
      "咏": 1222,
      "咒": 1223,
      "咖": 1224,
      "咨": 1225,
      "咪": 1226,
      "咬": 1227,
      "咯": 1228,
      "咱": 1229,
      "咳": 1230,
      "咸": 1231,
      "咽": 1232,
      "哀": 1233,
      "品": 1234,
      "哄": 1235,
      "哇": 1236,
      "哈": 1237,
      "哉": 1238,
      "响": 1239,
      "哎": 1240,
      "哑": 1241,
      "哒": 1242,
      "哗": 1243,
      "哟": 1244,
      "員": 1245,
      "哥": 1246,
      "哦": 1247,
      "哨": 1248,
      "哩": 1249,
      "哪": 1250,
      "哭": 1251,
      "哮": 1252,
      "哲": 1253,
      "哺": 1254,
      "哼": 1255,
      "唇": 1256,
      "唉": 1257,
      "唐": 1258,
      "唤": 1259,
      "售": 1260,
      "唯": 1261,
      "唱": 1262,
      "商": 1263,
      "啊": 1264,
      "問": 1265,
      "啡": 1266,
      "啤": 1267,
      "啥": 1268,
      "啦": 1269,
      "啪": 1270,
      "啸": 1271,
      "啼": 1272,
      "喀": 1273,
      "喂": 1274,
      "善": 1275,
      "喇": 1276,
      "喉": 1277,
      "喊": 1278,
      "喘": 1279,
      "喜": 1280,
      "喝": 1281,
      "喧": 1282,
      "喵": 1283,
      "喷": 1284,
      "喻": 1285,
      "嗅": 1286,
      "嗓": 1287,
      "嗜": 1288,
      "嗟": 1289,
      "嗣": 1290,
      "嗨": 1291,
      "嗯": 1292,
      "嗽": 1293,
      "嘉": 1294,
      "嘗": 1295,
      "嘘": 1296,
      "嘛": 1297,
      "嘱": 1298,
      "嘲": 1299,
      "嘴": 1300,
      "嘻": 1301,
      "嘿": 1302,
      "器": 1303,
      "噩": 1304,
      "噪": 1305,
      "噶": 1306,
      "嚣": 1307,
      "嚼": 1308,
      "囊": 1309,
      "囚": 1310,
      "四": 1311,
      "回": 1312,
      "因": 1313,
      "团": 1314,
      "园": 1315,
      "困": 1316,
      "围": 1317,
      "固": 1318,
      "国": 1319,
      "图": 1320,
      "圆": 1321,
      "圈": 1322,
      "國": 1323,
      "圖": 1324,
      "土": 1325,
      "圣": 1326,
      "在": 1327,
      "圭": 1328,
      "地": 1329,
      "圳": 1330,
      "场": 1331,
      "圾": 1332,
      "址": 1333,
      "坂": 1334,
      "均": 1335,
      "坊": 1336,
      "坎": 1337,
      "坏": 1338,
      "坐": 1339,
      "坑": 1340,
      "块": 1341,
      "坚": 1342,
      "坛": 1343,
      "坝": 1344,
      "坞": 1345,
      "坟": 1346,
      "坠": 1347,
      "坡": 1348,
      "坤": 1349,
      "坦": 1350,
      "坪": 1351,
      "垂": 1352,
      "垃": 1353,
      "垄": 1354,
      "型": 1355,
      "垒": 1356,
      "垢": 1357,
      "垣": 1358,
      "垫": 1359,
      "垮": 1360,
      "埃": 1361,
      "埋": 1362,
      "城": 1363,
      "埔": 1364,
      "域": 1365,
      "埠": 1366,
      "培": 1367,
      "基": 1368,
      "堂": 1369,
      "堆": 1370,
      "堕": 1371,
      "堡": 1372,
      "堤": 1373,
      "堪": 1374,
      "堰": 1375,
      "報": 1376,
      "場": 1377,
      "堵": 1378,
      "塌": 1379,
      "塑": 1380,
      "塔": 1381,
      "塘": 1382,
      "塞": 1383,
      "填": 1384,
      "境": 1385,
      "墅": 1386,
      "墓": 1387,
      "墙": 1388,
      "增": 1389,
      "墟": 1390,
      "墨": 1391,
      "墩": 1392,
      "壁": 1393,
      "壤": 1394,
      "士": 1395,
      "壬": 1396,
      "壮": 1397,
      "声": 1398,
      "壳": 1399,
      "壶": 1400,
      "壹": 1401,
      "处": 1402,
      "备": 1403,
      "复": 1404,
      "夏": 1405,
      "夕": 1406,
      "外": 1407,
      "多": 1408,
      "夜": 1409,
      "够": 1410,
      "大": 1411,
      "天": 1412,
      "太": 1413,
      "夫": 1414,
      "央": 1415,
      "失": 1416,
      "头": 1417,
      "夷": 1418,
      "夸": 1419,
      "夹": 1420,
      "夺": 1421,
      "奇": 1422,
      "奈": 1423,
      "奉": 1424,
      "奋": 1425,
      "奎": 1426,
      "奏": 1427,
      "契": 1428,
      "奔": 1429,
      "奕": 1430,
      "奖": 1431,
      "套": 1432,
      "奠": 1433,
      "奢": 1434,
      "奥": 1435,
      "女": 1436,
      "奴": 1437,
      "奶": 1438,
      "奸": 1439,
      "她": 1440,
      "好": 1441,
      "如": 1442,
      "妃": 1443,
      "妄": 1444,
      "妆": 1445,
      "妇": 1446,
      "妈": 1447,
      "妊": 1448,
      "妍": 1449,
      "妒": 1450,
      "妓": 1451,
      "妖": 1452,
      "妙": 1453,
      "妞": 1454,
      "妥": 1455,
      "妨": 1456,
      "妮": 1457,
      "妹": 1458,
      "妻": 1459,
      "妾": 1460,
      "姆": 1461,
      "姊": 1462,
      "始": 1463,
      "姐": 1464,
      "姑": 1465,
      "姓": 1466,
      "委": 1467,
      "姚": 1468,
      "姜": 1469,
      "姥": 1470,
      "姨": 1471,
      "姬": 1472,
      "姻": 1473,
      "姿": 1474,
      "威": 1475,
      "娃": 1476,
      "娅": 1477,
      "娇": 1478,
      "娘": 1479,
      "娜": 1480,
      "娟": 1481,
      "娠": 1482,
      "娥": 1483,
      "娱": 1484,
      "娶": 1485,
      "婆": 1486,
      "婉": 1487,
      "婚": 1488,
      "婴": 1489,
      "婷": 1490,
      "婿": 1491,
      "媒": 1492,
      "媚": 1493,
      "媛": 1494,
      "媳": 1495,
      "嫁": 1496,
      "嫂": 1497,
      "嫉": 1498,
      "嫌": 1499,
      "嫣": 1500,
      "嫩": 1501,
      "子": 1502,
      "孔": 1503,
      "孕": 1504,
      "字": 1505,
      "存": 1506,
      "孙": 1507,
      "孜": 1508,
      "孝": 1509,
      "孟": 1510,
      "季": 1511,
      "孤": 1512,
      "学": 1513,
      "孩": 1514,
      "孫": 1515,
      "孰": 1516,
      "孵": 1517,
      "學": 1518,
      "宁": 1519,
      "它": 1520,
      "宅": 1521,
      "宇": 1522,
      "守": 1523,
      "安": 1524,
      "宋": 1525,
      "完": 1526,
      "宏": 1527,
      "宗": 1528,
      "官": 1529,
      "宙": 1530,
      "定": 1531,
      "宛": 1532,
      "宜": 1533,
      "宝": 1534,
      "实": 1535,
      "宠": 1536,
      "审": 1537,
      "客": 1538,
      "宣": 1539,
      "室": 1540,
      "宦": 1541,
      "宪": 1542,
      "宫": 1543,
      "宮": 1544,
      "宰": 1545,
      "害": 1546,
      "宴": 1547,
      "宵": 1548,
      "家": 1549,
      "容": 1550,
      "宽": 1551,
      "宾": 1552,
      "宿": 1553,
      "寂": 1554,
      "寄": 1555,
      "寅": 1556,
      "密": 1557,
      "寇": 1558,
      "富": 1559,
      "寒": 1560,
      "寓": 1561,
      "寝": 1562,
      "寞": 1563,
      "察": 1564,
      "寡": 1565,
      "寥": 1566,
      "實": 1567,
      "寧": 1568,
      "寨": 1569,
      "寸": 1570,
      "对": 1571,
      "寺": 1572,
      "寻": 1573,
      "导": 1574,
      "寿": 1575,
      "封": 1576,
      "射": 1577,
      "将": 1578,
      "將": 1579,
      "尉": 1580,
      "尊": 1581,
      "對": 1582,
      "小": 1583,
      "少": 1584,
      "尔": 1585,
      "尖": 1586,
      "尘": 1587,
      "尚": 1588,
      "尝": 1589,
      "尤": 1590,
      "尧": 1591,
      "尬": 1592,
      "就": 1593,
      "尴": 1594,
      "尸": 1595,
      "尹": 1596,
      "尺": 1597,
      "尼": 1598,
      "尽": 1599,
      "尾": 1600,
      "尿": 1601,
      "局": 1602,
      "屁": 1603,
      "层": 1604,
      "居": 1605,
      "屈": 1606,
      "届": 1607,
      "屋": 1608,
      "屌": 1609,
      "屎": 1610,
      "屏": 1611,
      "屑": 1612,
      "展": 1613,
      "属": 1614,
      "屠": 1615,
      "屡": 1616,
      "履": 1617,
      "屬": 1618,
      "屯": 1619,
      "山": 1620,
      "屿": 1621,
      "岁": 1622,
      "岂": 1623,
      "岐": 1624,
      "岑": 1625,
      "岗": 1626,
      "岚": 1627,
      "岛": 1628,
      "岩": 1629,
      "岭": 1630,
      "岳": 1631,
      "岸": 1632,
      "峡": 1633,
      "峨": 1634,
      "峰": 1635,
      "峻": 1636,
      "崇": 1637,
      "崎": 1638,
      "崔": 1639,
      "崖": 1640,
      "崛": 1641,
      "崩": 1642,
      "嵌": 1643,
      "嵩": 1644,
      "巅": 1645,
      "巍": 1646,
      "川": 1647,
      "州": 1648,
      "巡": 1649,
      "巢": 1650,
      "工": 1651,
      "左": 1652,
      "巧": 1653,
      "巨": 1654,
      "巩": 1655,
      "巫": 1656,
      "差": 1657,
      "己": 1658,
      "已": 1659,
      "巳": 1660,
      "巴": 1661,
      "巷": 1662,
      "巾": 1663,
      "币": 1664,
      "市": 1665,
      "布": 1666,
      "帅": 1667,
      "帆": 1668,
      "师": 1669,
      "希": 1670,
      "帐": 1671,
      "帕": 1672,
      "帖": 1673,
      "帘": 1674,
      "帜": 1675,
      "帝": 1676,
      "带": 1677,
      "師": 1678,
      "席": 1679,
      "帮": 1680,
      "帶": 1681,
      "帷": 1682,
      "常": 1683,
      "帽": 1684,
      "幂": 1685,
      "幅": 1686,
      "幕": 1687,
      "幢": 1688,
      "干": 1689,
      "平": 1690,
      "年": 1691,
      "并": 1692,
      "幸": 1693,
      "幻": 1694,
      "幼": 1695,
      "幽": 1696,
      "幾": 1697,
      "广": 1698,
      "庄": 1699,
      "庆": 1700,
      "庇": 1701,
      "床": 1702,
      "序": 1703,
      "庐": 1704,
      "库": 1705,
      "应": 1706,
      "底": 1707,
      "店": 1708,
      "庙": 1709,
      "庚": 1710,
      "府": 1711,
      "庞": 1712,
      "废": 1713,
      "度": 1714,
      "座": 1715,
      "庭": 1716,
      "庵": 1717,
      "庶": 1718,
      "康": 1719,
      "庸": 1720,
      "廉": 1721,
      "廊": 1722,
      "廓": 1723,
      "廖": 1724,
      "廟": 1725,
      "廣": 1726,
      "延": 1727,
      "廷": 1728,
      "建": 1729,
      "开": 1730,
      "异": 1731,
      "弃": 1732,
      "弄": 1733,
      "弈": 1734,
      "弊": 1735,
      "式": 1736,
      "弓": 1737,
      "引": 1738,
      "弗": 1739,
      "弘": 1740,
      "弟": 1741,
      "张": 1742,
      "弥": 1743,
      "弦": 1744,
      "弧": 1745,
      "弯": 1746,
      "弱": 1747,
      "張": 1748,
      "弹": 1749,
      "强": 1750,
      "归": 1751,
      "当": 1752,
      "录": 1753,
      "形": 1754,
      "彤": 1755,
      "彦": 1756,
      "彩": 1757,
      "彪": 1758,
      "彬": 1759,
      "彭": 1760,
      "彰": 1761,
      "影": 1762,
      "役": 1763,
      "彻": 1764,
      "彼": 1765,
      "往": 1766,
      "征": 1767,
      "径": 1768,
      "待": 1769,
      "很": 1770,
      "徊": 1771,
      "律": 1772,
      "後": 1773,
      "徐": 1774,
      "徒": 1775,
      "得": 1776,
      "徘": 1777,
      "徙": 1778,
      "從": 1779,
      "御": 1780,
      "復": 1781,
      "循": 1782,
      "微": 1783,
      "徳": 1784,
      "德": 1785,
      "徽": 1786,
      "心": 1787,
      "必": 1788,
      "忆": 1789,
      "忌": 1790,
      "忍": 1791,
      "志": 1792,
      "忘": 1793,
      "忙": 1794,
      "忠": 1795,
      "忧": 1796,
      "快": 1797,
      "念": 1798,
      "忽": 1799,
      "怀": 1800,
      "态": 1801,
      "怎": 1802,
      "怒": 1803,
      "怕": 1804,
      "怖": 1805,
      "怜": 1806,
      "思": 1807,
      "怠": 1808,
      "怡": 1809,
      "急": 1810,
      "性": 1811,
      "怨": 1812,
      "怪": 1813,
      "总": 1814,
      "恋": 1815,
      "恍": 1816,
      "恐": 1817,
      "恒": 1818,
      "恕": 1819,
      "恢": 1820,
      "恤": 1821,
      "恨": 1822,
      "恩": 1823,
      "恭": 1824,
      "息": 1825,
      "恰": 1826,
      "恳": 1827,
      "恶": 1828,
      "恼": 1829,
      "悄": 1830,
      "悉": 1831,
      "悍": 1832,
      "悔": 1833,
      "悟": 1834,
      "悠": 1835,
      "患": 1836,
      "悦": 1837,
      "您": 1838,
      "悬": 1839,
      "悲": 1840,
      "悼": 1841,
      "情": 1842,
      "惊": 1843,
      "惑": 1844,
      "惕": 1845,
      "惜": 1846,
      "惟": 1847,
      "惠": 1848,
      "惧": 1849,
      "惨": 1850,
      "惩": 1851,
      "惫": 1852,
      "惭": 1853,
      "惯": 1854,
      "想": 1855,
      "惹": 1856,
      "愁": 1857,
      "愈": 1858,
      "愉": 1859,
      "意": 1860,
      "愚": 1861,
      "愛": 1862,
      "感": 1863,
      "愤": 1864,
      "愧": 1865,
      "愿": 1866,
      "慈": 1867,
      "慌": 1868,
      "慎": 1869,
      "慕": 1870,
      "慢": 1871,
      "慧": 1872,
      "慨": 1873,
      "慰": 1874,
      "慶": 1875,
      "憋": 1876,
      "憾": 1877,
      "懂": 1878,
      "懈": 1879,
      "應": 1880,
      "懒": 1881,
      "懵": 1882,
      "戈": 1883,
      "戊": 1884,
      "戌": 1885,
      "戎": 1886,
      "戏": 1887,
      "成": 1888,
      "我": 1889,
      "戒": 1890,
      "或": 1891,
      "战": 1892,
      "戚": 1893,
      "截": 1894,
      "戰": 1895,
      "戳": 1896,
      "戴": 1897,
      "戶": 1898,
      "户": 1899,
      "房": 1900,
      "所": 1901,
      "扁": 1902,
      "扇": 1903,
      "手": 1904,
      "才": 1905,
      "扎": 1906,
      "扑": 1907,
      "扒": 1908,
      "打": 1909,
      "扔": 1910,
      "托": 1911,
      "扛": 1912,
      "扣": 1913,
      "执": 1914,
      "扩": 1915,
      "扫": 1916,
      "扬": 1917,
      "扭": 1918,
      "扮": 1919,
      "扯": 1920,
      "扰": 1921,
      "扳": 1922,
      "扶": 1923,
      "批": 1924,
      "找": 1925,
      "承": 1926,
      "技": 1927,
      "抄": 1928,
      "把": 1929,
      "抑": 1930,
      "抒": 1931,
      "抓": 1932,
      "投": 1933,
      "抖": 1934,
      "抗": 1935,
      "折": 1936,
      "抚": 1937,
      "抛": 1938,
      "抢": 1939,
      "护": 1940,
      "报": 1941,
      "披": 1942,
      "抬": 1943,
      "抱": 1944,
      "抵": 1945,
      "抹": 1946,
      "押": 1947,
      "抽": 1948,
      "拂": 1949,
      "担": 1950,
      "拆": 1951,
      "拇": 1952,
      "拉": 1953,
      "拌": 1954,
      "拍": 1955,
      "拐": 1956,
      "拒": 1957,
      "拓": 1958,
      "拔": 1959,
      "拖": 1960,
      "拘": 1961,
      "拙": 1962,
      "招": 1963,
      "拜": 1964,
      "拟": 1965,
      "拢": 1966,
      "拥": 1967,
      "拦": 1968,
      "拨": 1969,
      "择": 1970,
      "括": 1971,
      "拭": 1972,
      "拯": 1973,
      "拱": 1974,
      "拳": 1975,
      "拼": 1976,
      "拽": 1977,
      "拾": 1978,
      "拿": 1979,
      "持": 1980,
      "挂": 1981,
      "指": 1982,
      "按": 1983,
      "挑": 1984,
      "挖": 1985,
      "挚": 1986,
      "挠": 1987,
      "挡": 1988,
      "挣": 1989,
      "挤": 1990,
      "挥": 1991,
      "挨": 1992,
      "挪": 1993,
      "挫": 1994,
      "振": 1995,
      "挺": 1996,
      "挽": 1997,
      "捂": 1998,
      "捅": 1999,
      "捆": 2000,
      "捉": 2001,
      "捏": 2002,
      "捐": 2003,
      "捕": 2004,
      "捞": 2005,
      "损": 2006,
      "捡": 2007,
      "换": 2008,
      "捣": 2009,
      "捧": 2010,
      "据": 2011,
      "捷": 2012,
      "掀": 2013,
      "授": 2014,
      "掉": 2015,
      "掌": 2016,
      "掏": 2017,
      "掐": 2018,
      "排": 2019,
      "掘": 2020,
      "掠": 2021,
      "探": 2022,
      "接": 2023,
      "控": 2024,
      "推": 2025,
      "掩": 2026,
      "措": 2027,
      "掷": 2028,
      "掺": 2029,
      "揉": 2030,
      "描": 2031,
      "提": 2032,
      "插": 2033,
      "握": 2034,
      "揣": 2035,
      "揭": 2036,
      "援": 2037,
      "揽": 2038,
      "搁": 2039,
      "搅": 2040,
      "搏": 2041,
      "搓": 2042,
      "搜": 2043,
      "搞": 2044,
      "搬": 2045,
      "搭": 2046,
      "携": 2047,
      "摄": 2048,
      "摆": 2049,
      "摇": 2050,
      "摊": 2051,
      "摔": 2052,
      "摘": 2053,
      "摧": 2054,
      "摩": 2055,
      "摸": 2056,
      "撑": 2057,
      "撒": 2058,
      "撕": 2059,
      "撞": 2060,
      "撤": 2061,
      "撩": 2062,
      "撫": 2063,
      "播": 2064,
      "撰": 2065,
      "撸": 2066,
      "撼": 2067,
      "擅": 2068,
      "擊": 2069,
      "操": 2070,
      "擎": 2071,
      "擒": 2072,
      "據": 2073,
      "擦": 2074,
      "攀": 2075,
      "攒": 2076,
      "支": 2077,
      "收": 2078,
      "改": 2079,
      "攻": 2080,
      "放": 2081,
      "政": 2082,
      "故": 2083,
      "效": 2084,
      "敌": 2085,
      "敏": 2086,
      "救": 2087,
      "教": 2088,
      "敛": 2089,
      "敞": 2090,
      "敢": 2091,
      "散": 2092,
      "敦": 2093,
      "敬": 2094,
      "数": 2095,
      "敲": 2096,
      "整": 2097,
      "敷": 2098,
      "數": 2099,
      "文": 2100,
      "斋": 2101,
      "斌": 2102,
      "斐": 2103,
      "斑": 2104,
      "斗": 2105,
      "料": 2106,
      "斜": 2107,
      "斤": 2108,
      "斥": 2109,
      "斧": 2110,
      "斩": 2111,
      "断": 2112,
      "斯": 2113,
      "新": 2114,
      "方": 2115,
      "於": 2116,
      "施": 2117,
      "旁": 2118,
      "旅": 2119,
      "旋": 2120,
      "旌": 2121,
      "族": 2122,
      "旗": 2123,
      "无": 2124,
      "既": 2125,
      "日": 2126,
      "旦": 2127,
      "旧": 2128,
      "旨": 2129,
      "早": 2130,
      "旬": 2131,
      "旭": 2132,
      "旱": 2133,
      "时": 2134,
      "旷": 2135,
      "旺": 2136,
      "昂": 2137,
      "昆": 2138,
      "昊": 2139,
      "昌": 2140,
      "明": 2141,
      "昏": 2142,
      "易": 2143,
      "昔": 2144,
      "昕": 2145,
      "星": 2146,
      "映": 2147,
      "春": 2148,
      "昧": 2149,
      "昨": 2150,
      "昭": 2151,
      "是": 2152,
      "昼": 2153,
      "显": 2154,
      "時": 2155,
      "晃": 2156,
      "晉": 2157,
      "晋": 2158,
      "晏": 2159,
      "晒": 2160,
      "晓": 2161,
      "晕": 2162,
      "晖": 2163,
      "晗": 2164,
      "晚": 2165,
      "晤": 2166,
      "晦": 2167,
      "晨": 2168,
      "普": 2169,
      "景": 2170,
      "晰": 2171,
      "晴": 2172,
      "晶": 2173,
      "智": 2174,
      "暂": 2175,
      "暇": 2176,
      "暑": 2177,
      "暖": 2178,
      "暗": 2179,
      "暧": 2180,
      "暨": 2181,
      "暮": 2182,
      "暴": 2183,
      "曙": 2184,
      "曝": 2185,
      "曦": 2186,
      "曰": 2187,
      "曲": 2188,
      "更": 2189,
      "書": 2190,
      "曹": 2191,
      "曼": 2192,
      "曾": 2193,
      "替": 2194,
      "最": 2195,
      "會": 2196,
      "月": 2197,
      "有": 2198,
      "朋": 2199,
      "服": 2200,
      "朔": 2201,
      "朕": 2202,
      "朗": 2203,
      "望": 2204,
      "朝": 2205,
      "期": 2206,
      "木": 2207,
      "未": 2208,
      "末": 2209,
      "本": 2210,
      "札": 2211,
      "术": 2212,
      "朱": 2213,
      "朴": 2214,
      "朵": 2215,
      "机": 2216,
      "杀": 2217,
      "杂": 2218,
      "权": 2219,
      "杆": 2220,
      "杉": 2221,
      "李": 2222,
      "杏": 2223,
      "材": 2224,
      "村": 2225,
      "杖": 2226,
      "杜": 2227,
      "杞": 2228,
      "束": 2229,
      "杠": 2230,
      "条": 2231,
      "来": 2232,
      "杨": 2233,
      "杭": 2234,
      "杯": 2235,
      "杰": 2236,
      "東": 2237,
      "松": 2238,
      "板": 2239,
      "极": 2240,
      "构": 2241,
      "枉": 2242,
      "析": 2243,
      "枕": 2244,
      "林": 2245,
      "枚": 2246,
      "果": 2247,
      "枝": 2248,
      "枢": 2249,
      "枣": 2250,
      "枪": 2251,
      "枫": 2252,
      "枯": 2253,
      "架": 2254,
      "柄": 2255,
      "柏": 2256,
      "某": 2257,
      "染": 2258,
      "柔": 2259,
      "柚": 2260,
      "柜": 2261,
      "柠": 2262,
      "查": 2263,
      "柬": 2264,
      "柯": 2265,
      "柱": 2266,
      "柳": 2267,
      "柴": 2268,
      "柿": 2269,
      "栅": 2270,
      "标": 2271,
      "栈": 2272,
      "栋": 2273,
      "栏": 2274,
      "树": 2275,
      "栓": 2276,
      "栖": 2277,
      "栗": 2278,
      "校": 2279,
      "株": 2280,
      "样": 2281,
      "核": 2282,
      "根": 2283,
      "格": 2284,
      "栽": 2285,
      "桂": 2286,
      "桃": 2287,
      "框": 2288,
      "案": 2289,
      "桌": 2290,
      "桐": 2291,
      "桑": 2292,
      "桓": 2293,
      "档": 2294,
      "桥": 2295,
      "桩": 2296,
      "桶": 2297,
      "梁": 2298,
      "梅": 2299,
      "梓": 2300,
      "梗": 2301,
      "梦": 2302,
      "梧": 2303,
      "梨": 2304,
      "梭": 2305,
      "梯": 2306,
      "械": 2307,
      "梳": 2308,
      "梵": 2309,
      "检": 2310,
      "棉": 2311,
      "棋": 2312,
      "棍": 2313,
      "棒": 2314,
      "棕": 2315,
      "棘": 2316,
      "棚": 2317,
      "棠": 2318,
      "森": 2319,
      "棱": 2320,
      "棵": 2321,
      "棺": 2322,
      "椅": 2323,
      "植": 2324,
      "椎": 2325,
      "椒": 2326,
      "椰": 2327,
      "楊": 2328,
      "楚": 2329,
      "楠": 2330,
      "業": 2331,
      "極": 2332,
      "楷": 2333,
      "楼": 2334,
      "概": 2335,
      "榄": 2336,
      "榆": 2337,
      "榜": 2338,
      "榨": 2339,
      "榴": 2340,
      "槐": 2341,
      "槛": 2342,
      "槽": 2343,
      "樂": 2344,
      "樊": 2345,
      "樓": 2346,
      "模": 2347,
      "横": 2348,
      "樱": 2349,
      "橄": 2350,
      "橋": 2351,
      "橘": 2352,
      "橙": 2353,
      "機": 2354,
      "橡": 2355,
      "橱": 2356,
      "檀": 2357,
      "檐": 2358,
      "檬": 2359,
      "欠": 2360,
      "次": 2361,
      "欢": 2362,
      "欣": 2363,
      "欧": 2364,
      "欲": 2365,
      "欺": 2366,
      "款": 2367,
      "歇": 2368,
      "歉": 2369,
      "歌": 2370,
      "止": 2371,
      "正": 2372,
      "此": 2373,
      "步": 2374,
      "武": 2375,
      "歧": 2376,
      "歪": 2377,
      "歲": 2378,
      "歸": 2379,
      "歹": 2380,
      "死": 2381,
      "歼": 2382,
      "殊": 2383,
      "残": 2384,
      "殖": 2385,
      "殡": 2386,
      "殴": 2387,
      "段": 2388,
      "殷": 2389,
      "殺": 2390,
      "殿": 2391,
      "毁": 2392,
      "毅": 2393,
      "毋": 2394,
      "母": 2395,
      "每": 2396,
      "毒": 2397,
      "比": 2398,
      "毕": 2399,
      "毗": 2400,
      "毙": 2401,
      "毛": 2402,
      "毫": 2403,
      "毯": 2404,
      "氏": 2405,
      "民": 2406,
      "氓": 2407,
      "气": 2408,
      "氛": 2409,
      "氟": 2410,
      "氢": 2411,
      "氣": 2412,
      "氧": 2413,
      "氨": 2414,
      "氮": 2415,
      "氯": 2416,
      "水": 2417,
      "永": 2418,
      "汀": 2419,
      "汁": 2420,
      "求": 2421,
      "汇": 2422,
      "汉": 2423,
      "汕": 2424,
      "汗": 2425,
      "汛": 2426,
      "汝": 2427,
      "江": 2428,
      "池": 2429,
      "污": 2430,
      "汤": 2431,
      "汪": 2432,
      "汰": 2433,
      "汶": 2434,
      "決": 2435,
      "汽": 2436,
      "汾": 2437,
      "沁": 2438,
      "沂": 2439,
      "沃": 2440,
      "沈": 2441,
      "沉": 2442,
      "沐": 2443,
      "沒": 2444,
      "沙": 2445,
      "沛": 2446,
      "沟": 2447,
      "没": 2448,
      "沥": 2449,
      "沦": 2450,
      "沧": 2451,
      "沪": 2452,
      "沫": 2453,
      "沮": 2454,
      "河": 2455,
      "沸": 2456,
      "油": 2457,
      "治": 2458,
      "沼": 2459,
      "沽": 2460,
      "沾": 2461,
      "沿": 2462,
      "泄": 2463,
      "泉": 2464,
      "泊": 2465,
      "泌": 2466,
      "法": 2467,
      "泛": 2468,
      "泡": 2469,
      "波": 2470,
      "泣": 2471,
      "泥": 2472,
      "注": 2473,
      "泪": 2474,
      "泰": 2475,
      "泳": 2476,
      "泵": 2477,
      "泸": 2478,
      "泻": 2479,
      "泼": 2480,
      "泽": 2481,
      "洁": 2482,
      "洋": 2483,
      "洒": 2484,
      "洗": 2485,
      "洛": 2486,
      "洞": 2487,
      "津": 2488,
      "洪": 2489,
      "洲": 2490,
      "活": 2491,
      "洼": 2492,
      "洽": 2493,
      "派": 2494,
      "流": 2495,
      "浅": 2496,
      "浆": 2497,
      "浇": 2498,
      "浊": 2499,
      "测": 2500,
      "济": 2501,
      "浏": 2502,
      "浑": 2503,
      "浓": 2504,
      "浙": 2505,
      "浦": 2506,
      "浩": 2507,
      "浪": 2508,
      "浮": 2509,
      "浴": 2510,
      "海": 2511,
      "浸": 2512,
      "涂": 2513,
      "涅": 2514,
      "消": 2515,
      "涉": 2516,
      "涌": 2517,
      "涕": 2518,
      "涛": 2519,
      "涡": 2520,
      "涤": 2521,
      "润": 2522,
      "涧": 2523,
      "涨": 2524,
      "涩": 2525,
      "涯": 2526,
      "液": 2527,
      "涵": 2528,
      "淀": 2529,
      "淇": 2530,
      "淋": 2531,
      "淑": 2532,
      "淘": 2533,
      "淡": 2534,
      "淤": 2535,
      "淫": 2536,
      "淮": 2537,
      "深": 2538,
      "淳": 2539,
      "混": 2540,
      "淹": 2541,
      "添": 2542,
      "清": 2543,
      "渊": 2544,
      "渍": 2545,
      "渐": 2546,
      "渔": 2547,
      "渗": 2548,
      "渝": 2549,
      "渠": 2550,
      "渡": 2551,
      "渣": 2552,
      "渤": 2553,
      "温": 2554,
      "渭": 2555,
      "港": 2556,
      "渲": 2557,
      "渴": 2558,
      "游": 2559,
      "渺": 2560,
      "湃": 2561,
      "湖": 2562,
      "湘": 2563,
      "湛": 2564,
      "湾": 2565,
      "湿": 2566,
      "溃": 2567,
      "源": 2568,
      "溜": 2569,
      "溢": 2570,
      "溪": 2571,
      "溯": 2572,
      "溶": 2573,
      "溺": 2574,
      "滇": 2575,
      "滋": 2576,
      "滑": 2577,
      "滕": 2578,
      "滚": 2579,
      "滞": 2580,
      "满": 2581,
      "滤": 2582,
      "滥": 2583,
      "滨": 2584,
      "滩": 2585,
      "滴": 2586,
      "漂": 2587,
      "漆": 2588,
      "漏": 2589,
      "漓": 2590,
      "演": 2591,
      "漠": 2592,
      "漢": 2593,
      "漫": 2594,
      "漳": 2595,
      "潇": 2596,
      "潘": 2597,
      "潜": 2598,
      "潭": 2599,
      "潮": 2600,
      "澄": 2601,
      "澎": 2602,
      "澜": 2603,
      "澡": 2604,
      "澳": 2605,
      "激": 2606,
      "濒": 2607,
      "濟": 2608,
      "瀑": 2609,
      "灌": 2610,
      "灣": 2611,
      "火": 2612,
      "灭": 2613,
      "灯": 2614,
      "灰": 2615,
      "灵": 2616,
      "灶": 2617,
      "灸": 2618,
      "灼": 2619,
      "灾": 2620,
      "灿": 2621,
      "炉": 2622,
      "炎": 2623,
      "炒": 2624,
      "炖": 2625,
      "炫": 2626,
      "炭": 2627,
      "炮": 2628,
      "炳": 2629,
      "炸": 2630,
      "点": 2631,
      "為": 2632,
      "炼": 2633,
      "烂": 2634,
      "烈": 2635,
      "烘": 2636,
      "烛": 2637,
      "烟": 2638,
      "烤": 2639,
      "烦": 2640,
      "烧": 2641,
      "烫": 2642,
      "热": 2643,
      "烯": 2644,
      "烷": 2645,
      "烹": 2646,
      "焉": 2647,
      "焊": 2648,
      "焕": 2649,
      "焚": 2650,
      "無": 2651,
      "焦": 2652,
      "焰": 2653,
      "然": 2654,
      "煌": 2655,
      "煎": 2656,
      "煞": 2657,
      "煤": 2658,
      "照": 2659,
      "煮": 2660,
      "煲": 2661,
      "熄": 2662,
      "熊": 2663,
      "熏": 2664,
      "熔": 2665,
      "熙": 2666,
      "熟": 2667,
      "熬": 2668,
      "燃": 2669,
      "燕": 2670,
      "營": 2671,
      "燥": 2672,
      "爆": 2673,
      "爪": 2674,
      "爬": 2675,
      "爱": 2676,
      "爵": 2677,
      "父": 2678,
      "爷": 2679,
      "爸": 2680,
      "爹": 2681,
      "爽": 2682,
      "爾": 2683,
      "片": 2684,
      "版": 2685,
      "牌": 2686,
      "牙": 2687,
      "牛": 2688,
      "牟": 2689,
      "牠": 2690,
      "牡": 2691,
      "牢": 2692,
      "牧": 2693,
      "物": 2694,
      "牲": 2695,
      "牵": 2696,
      "特": 2697,
      "牺": 2698,
      "犀": 2699,
      "犬": 2700,
      "犯": 2701,
      "状": 2702,
      "犹": 2703,
      "狂": 2704,
      "狄": 2705,
      "狐": 2706,
      "狗": 2707,
      "狠": 2708,
      "独": 2709,
      "狭": 2710,
      "狮": 2711,
      "狱": 2712,
      "狸": 2713,
      "狼": 2714,
      "猎": 2715,
      "猛": 2716,
      "猜": 2717,
      "猥": 2718,
      "猩": 2719,
      "猪": 2720,
      "猫": 2721,
      "献": 2722,
      "猴": 2723,
      "猶": 2724,
      "猿": 2725,
      "獨": 2726,
      "玄": 2727,
      "率": 2728,
      "玉": 2729,
      "王": 2730,
      "玛": 2731,
      "玩": 2732,
      "玫": 2733,
      "玮": 2734,
      "环": 2735,
      "现": 2736,
      "玲": 2737,
      "玻": 2738,
      "珀": 2739,
      "珊": 2740,
      "珍": 2741,
      "珠": 2742,
      "班": 2743,
      "現": 2744,
      "球": 2745,
      "琅": 2746,
      "理": 2747,
      "琉": 2748,
      "琐": 2749,
      "琢": 2750,
      "琦": 2751,
      "琪": 2752,
      "琳": 2753,
      "琴": 2754,
      "琼": 2755,
      "瑕": 2756,
      "瑚": 2757,
      "瑜": 2758,
      "瑞": 2759,
      "瑟": 2760,
      "瑰": 2761,
      "瑶": 2762,
      "璃": 2763,
      "璐": 2764,
      "璧": 2765,
      "瓜": 2766,
      "瓣": 2767,
      "瓦": 2768,
      "瓶": 2769,
      "瓷": 2770,
      "甄": 2771,
      "甘": 2772,
      "甚": 2773,
      "甜": 2774,
      "生": 2775,
      "用": 2776,
      "甩": 2777,
      "甫": 2778,
      "田": 2779,
      "由": 2780,
      "甲": 2781,
      "申": 2782,
      "电": 2783,
      "男": 2784,
      "甸": 2785,
      "町": 2786,
      "画": 2787,
      "畅": 2788,
      "界": 2789,
      "畏": 2790,
      "畔": 2791,
      "留": 2792,
      "畜": 2793,
      "略": 2794,
      "番": 2795,
      "異": 2796,
      "畴": 2797,
      "當": 2798,
      "畸": 2799,
      "疆": 2800,
      "疏": 2801,
      "疑": 2802,
      "疗": 2803,
      "疡": 2804,
      "疤": 2805,
      "疫": 2806,
      "疮": 2807,
      "疯": 2808,
      "疲": 2809,
      "疹": 2810,
      "疼": 2811,
      "疾": 2812,
      "病": 2813,
      "症": 2814,
      "痒": 2815,
      "痕": 2816,
      "痘": 2817,
      "痛": 2818,
      "痰": 2819,
      "痴": 2820,
      "瘤": 2821,
      "瘦": 2822,
      "瘫": 2823,
      "瘾": 2824,
      "癌": 2825,
      "癸": 2826,
      "登": 2827,
      "發": 2828,
      "白": 2829,
      "百": 2830,
      "皂": 2831,
      "的": 2832,
      "皆": 2833,
      "皇": 2834,
      "皓": 2835,
      "皮": 2836,
      "皱": 2837,
      "盆": 2838,
      "盈": 2839,
      "益": 2840,
      "盎": 2841,
      "盐": 2842,
      "监": 2843,
      "盒": 2844,
      "盔": 2845,
      "盖": 2846,
      "盗": 2847,
      "盘": 2848,
      "盛": 2849,
      "盟": 2850,
      "盡": 2851,
      "監": 2852,
      "目": 2853,
      "盯": 2854,
      "盲": 2855,
      "直": 2856,
      "相": 2857,
      "盼": 2858,
      "盾": 2859,
      "省": 2860,
      "眉": 2861,
      "看": 2862,
      "真": 2863,
      "眠": 2864,
      "眩": 2865,
      "眷": 2866,
      "眼": 2867,
      "眾": 2868,
      "着": 2869,
      "睁": 2870,
      "睐": 2871,
      "睛": 2872,
      "睡": 2873,
      "督": 2874,
      "睦": 2875,
      "睫": 2876,
      "睹": 2877,
      "睿": 2878,
      "瞄": 2879,
      "瞎": 2880,
      "瞒": 2881,
      "瞧": 2882,
      "瞩": 2883,
      "瞬": 2884,
      "瞻": 2885,
      "矛": 2886,
      "矢": 2887,
      "矣": 2888,
      "知": 2889,
      "矩": 2890,
      "矫": 2891,
      "短": 2892,
      "矮": 2893,
      "石": 2894,
      "矶": 2895,
      "矿": 2896,
      "码": 2897,
      "砂": 2898,
      "砌": 2899,
      "砍": 2900,
      "研": 2901,
      "砖": 2902,
      "破": 2903,
      "砸": 2904,
      "础": 2905,
      "硅": 2906,
      "硕": 2907,
      "硝": 2908,
      "硫": 2909,
      "硬": 2910,
      "确": 2911,
      "碌": 2912,
      "碍": 2913,
      "碎": 2914,
      "碑": 2915,
      "碗": 2916,
      "碟": 2917,
      "碧": 2918,
      "碰": 2919,
      "碱": 2920,
      "碳": 2921,
      "碾": 2922,
      "磁": 2923,
      "磅": 2924,
      "磊": 2925,
      "磕": 2926,
      "磨": 2927,
      "磷": 2928,
      "礁": 2929,
      "示": 2930,
      "礼": 2931,
      "社": 2932,
      "祀": 2933,
      "祁": 2934,
      "祈": 2935,
      "祐": 2936,
      "祖": 2937,
      "祛": 2938,
      "祝": 2939,
      "神": 2940,
      "祠": 2941,
      "祥": 2942,
      "票": 2943,
      "祭": 2944,
      "祷": 2945,
      "祸": 2946,
      "祺": 2947,
      "禁": 2948,
      "禄": 2949,
      "禅": 2950,
      "福": 2951,
      "禧": 2952,
      "禮": 2953,
      "禹": 2954,
      "离": 2955,
      "禽": 2956,
      "禾": 2957,
      "秀": 2958,
      "私": 2959,
      "秉": 2960,
      "秋": 2961,
      "种": 2962,
      "科": 2963,
      "秒": 2964,
      "秘": 2965,
      "租": 2966,
      "秤": 2967,
      "秦": 2968,
      "秩": 2969,
      "积": 2970,
      "称": 2971,
      "移": 2972,
      "秽": 2973,
      "稀": 2974,
      "程": 2975,
      "稍": 2976,
      "税": 2977,
      "稚": 2978,
      "稠": 2979,
      "稣": 2980,
      "種": 2981,
      "稱": 2982,
      "稳": 2983,
      "稻": 2984,
      "稽": 2985,
      "稿": 2986,
      "穆": 2987,
      "穗": 2988,
      "穴": 2989,
      "究": 2990,
      "穷": 2991,
      "空": 2992,
      "穿": 2993,
      "突": 2994,
      "窃": 2995,
      "窄": 2996,
      "窍": 2997,
      "窑": 2998,
      "窗": 2999,
      "窜": 3000,
      "窝": 3001,
      "窟": 3002,
      "窥": 3003,
      "窦": 3004,
      "立": 3005,
      "竖": 3006,
      "站": 3007,
      "竞": 3008,
      "竟": 3009,
      "章": 3010,
      "竣": 3011,
      "童": 3012,
      "竭": 3013,
      "端": 3014,
      "竹": 3015,
      "竿": 3016,
      "笋": 3017,
      "笑": 3018,
      "笔": 3019,
      "笛": 3020,
      "符": 3021,
      "笨": 3022,
      "第": 3023,
      "笼": 3024,
      "等": 3025,
      "筋": 3026,
      "筑": 3027,
      "筒": 3028,
      "答": 3029,
      "策": 3030,
      "筛": 3031,
      "筝": 3032,
      "筷": 3033,
      "筹": 3034,
      "签": 3035,
      "简": 3036,
      "算": 3037,
      "管": 3038,
      "箭": 3039,
      "箱": 3040,
      "節": 3041,
      "篇": 3042,
      "篮": 3043,
      "篷": 3044,
      "簧": 3045,
      "簿": 3046,
      "籍": 3047,
      "米": 3048,
      "类": 3049,
      "籽": 3050,
      "粉": 3051,
      "粒": 3052,
      "粗": 3053,
      "粘": 3054,
      "粟": 3055,
      "粤": 3056,
      "粥": 3057,
      "粪": 3058,
      "粮": 3059,
      "粹": 3060,
      "精": 3061,
      "糊": 3062,
      "糕": 3063,
      "糖": 3064,
      "糙": 3065,
      "糟": 3066,
      "糯": 3067,
      "系": 3068,
      "紀": 3069,
      "素": 3070,
      "索": 3071,
      "紧": 3072,
      "紫": 3073,
      "累": 3074,
      "終": 3075,
      "給": 3076,
      "絮": 3077,
      "統": 3078,
      "經": 3079,
      "縣": 3080,
      "總": 3081,
      "繁": 3082,
      "纠": 3083,
      "红": 3084,
      "纤": 3085,
      "约": 3086,
      "级": 3087,
      "纪": 3088,
      "纬": 3089,
      "纯": 3090,
      "纱": 3091,
      "纲": 3092,
      "纳": 3093,
      "纵": 3094,
      "纶": 3095,
      "纷": 3096,
      "纸": 3097,
      "纹": 3098,
      "纺": 3099,
      "纽": 3100,
      "线": 3101,
      "练": 3102,
      "组": 3103,
      "绅": 3104,
      "细": 3105,
      "织": 3106,
      "终": 3107,
      "绍": 3108,
      "绎": 3109,
      "经": 3110,
      "绑": 3111,
      "绒": 3112,
      "结": 3113,
      "绕": 3114,
      "绘": 3115,
      "给": 3116,
      "络": 3117,
      "绝": 3118,
      "绞": 3119,
      "统": 3120,
      "绣": 3121,
      "继": 3122,
      "绩": 3123,
      "绪": 3124,
      "续": 3125,
      "绮": 3126,
      "绯": 3127,
      "绰": 3128,
      "绳": 3129,
      "维": 3130,
      "绵": 3131,
      "绸": 3132,
      "综": 3133,
      "绽": 3134,
      "绿": 3135,
      "缀": 3136,
      "缅": 3137,
      "缆": 3138,
      "缉": 3139,
      "缓": 3140,
      "缔": 3141,
      "缕": 3142,
      "编": 3143,
      "缘": 3144,
      "缚": 3145,
      "缝": 3146,
      "缠": 3147,
      "缩": 3148,
      "缪": 3149,
      "缴": 3150,
      "缸": 3151,
      "缺": 3152,
      "罐": 3153,
      "网": 3154,
      "罕": 3155,
      "罗": 3156,
      "罚": 3157,
      "罢": 3158,
      "罩": 3159,
      "罪": 3160,
      "置": 3161,
      "署": 3162,
      "羁": 3163,
      "羅": 3164,
      "羊": 3165,
      "美": 3166,
      "羞": 3167,
      "羡": 3168,
      "群": 3169,
      "義": 3170,
      "羽": 3171,
      "翁": 3172,
      "翅": 3173,
      "翔": 3174,
      "翘": 3175,
      "翠": 3176,
      "翡": 3177,
      "翩": 3178,
      "翰": 3179,
      "翻": 3180,
      "翼": 3181,
      "耀": 3182,
      "老": 3183,
      "考": 3184,
      "者": 3185,
      "而": 3186,
      "耍": 3187,
      "耐": 3188,
      "耕": 3189,
      "耗": 3190,
      "耳": 3191,
      "耶": 3192,
      "耻": 3193,
      "耽": 3194,
      "耿": 3195,
      "聂": 3196,
      "聆": 3197,
      "聊": 3198,
      "职": 3199,
      "联": 3200,
      "聖": 3201,
      "聘": 3202,
      "聚": 3203,
      "聞": 3204,
      "聪": 3205,
      "聲": 3206,
      "肃": 3207,
      "肆": 3208,
      "肇": 3209,
      "肉": 3210,
      "肋": 3211,
      "肌": 3212,
      "肖": 3213,
      "肘": 3214,
      "肚": 3215,
      "肝": 3216,
      "肠": 3217,
      "股": 3218,
      "肢": 3219,
      "肤": 3220,
      "肥": 3221,
      "肩": 3222,
      "肪": 3223,
      "肯": 3224,
      "育": 3225,
      "肺": 3226,
      "肾": 3227,
      "肿": 3228,
      "胀": 3229,
      "胁": 3230,
      "胃": 3231,
      "胆": 3232,
      "背": 3233,
      "胎": 3234,
      "胖": 3235,
      "胚": 3236,
      "胜": 3237,
      "胞": 3238,
      "胡": 3239,
      "胰": 3240,
      "胳": 3241,
      "胶": 3242,
      "胸": 3243,
      "胺": 3244,
      "能": 3245,
      "脂": 3246,
      "脆": 3247,
      "脉": 3248,
      "脊": 3249,
      "脏": 3250,
      "脐": 3251,
      "脑": 3252,
      "脖": 3253,
      "脚": 3254,
      "脱": 3255,
      "脸": 3256,
      "脾": 3257,
      "腊": 3258,
      "腌": 3259,
      "腐": 3260,
      "腔": 3261,
      "腕": 3262,
      "腥": 3263,
      "腰": 3264,
      "腹": 3265,
      "腺": 3266,
      "腻": 3267,
      "腾": 3268,
      "腿": 3269,
      "膀": 3270,
      "膊": 3271,
      "膏": 3272,
      "膜": 3273,
      "膝": 3274,
      "膨": 3275,
      "膳": 3276,
      "臀": 3277,
      "臂": 3278,
      "臣": 3279,
      "臨": 3280,
      "自": 3281,
      "臭": 3282,
      "至": 3283,
      "致": 3284,
      "舅": 3285,
      "舆": 3286,
      "與": 3287,
      "興": 3288,
      "舉": 3289,
      "舊": 3290,
      "舌": 3291,
      "舍": 3292,
      "舒": 3293,
      "舜": 3294,
      "舞": 3295,
      "舟": 3296,
      "航": 3297,
      "般": 3298,
      "舰": 3299,
      "舱": 3300,
      "舶": 3301,
      "船": 3302,
      "艇": 3303,
      "艘": 3304,
      "良": 3305,
      "艰": 3306,
      "色": 3307,
      "艳": 3308,
      "艺": 3309,
      "艾": 3310,
      "节": 3311,
      "芒": 3312,
      "芙": 3313,
      "芜": 3314,
      "芝": 3315,
      "芦": 3316,
      "芬": 3317,
      "芭": 3318,
      "芯": 3319,
      "花": 3320,
      "芳": 3321,
      "芸": 3322,
      "芹": 3323,
      "芽": 3324,
      "苍": 3325,
      "苏": 3326,
      "苑": 3327,
      "苔": 3328,
      "苗": 3329,
      "苛": 3330,
      "苟": 3331,
      "若": 3332,
      "苦": 3333,
      "苯": 3334,
      "英": 3335,
      "苹": 3336,
      "茂": 3337,
      "范": 3338,
      "茄": 3339,
      "茅": 3340,
      "茎": 3341,
      "茜": 3342,
      "茨": 3343,
      "茫": 3344,
      "茵": 3345,
      "茶": 3346,
      "茹": 3347,
      "荆": 3348,
      "草": 3349,
      "荐": 3350,
      "荒": 3351,
      "荔": 3352,
      "荡": 3353,
      "荣": 3354,
      "荧": 3355,
      "荫": 3356,
      "药": 3357,
      "荷": 3358,
      "莆": 3359,
      "莉": 3360,
      "莎": 3361,
      "莓": 3362,
      "莞": 3363,
      "莫": 3364,
      "莱": 3365,
      "莲": 3366,
      "获": 3367,
      "莹": 3368,
      "莺": 3369,
      "莽": 3370,
      "菇": 3371,
      "菊": 3372,
      "菌": 3373,
      "菜": 3374,
      "菠": 3375,
      "菩": 3376,
      "華": 3377,
      "菱": 3378,
      "菲": 3379,
      "萃": 3380,
      "萄": 3381,
      "萌": 3382,
      "萍": 3383,
      "萎": 3384,
      "萝": 3385,
      "营": 3386,
      "萧": 3387,
      "萨": 3388,
      "萬": 3389,
      "萱": 3390,
      "落": 3391,
      "葉": 3392,
      "著": 3393,
      "葛": 3394,
      "葡": 3395,
      "董": 3396,
      "葩": 3397,
      "葫": 3398,
      "葬": 3399,
      "葱": 3400,
      "葵": 3401,
      "蒂": 3402,
      "蒋": 3403,
      "蒙": 3404,
      "蒜": 3405,
      "蒲": 3406,
      "蒸": 3407,
      "蒿": 3408,
      "蓄": 3409,
      "蓉": 3410,
      "蓋": 3411,
      "蓝": 3412,
      "蓬": 3413,
      "蔓": 3414,
      "蔚": 3415,
      "蔡": 3416,
      "蔬": 3417,
      "蔽": 3418,
      "蕃": 3419,
      "蕉": 3420,
      "蕊": 3421,
      "蕴": 3422,
      "蕾": 3423,
      "薄": 3424,
      "薇": 3425,
      "薛": 3426,
      "薪": 3427,
      "薯": 3428,
      "藉": 3429,
      "藏": 3430,
      "藤": 3431,
      "藩": 3432,
      "藻": 3433,
      "蘇": 3434,
      "蘑": 3435,
      "蘭": 3436,
      "虎": 3437,
      "虏": 3438,
      "虐": 3439,
      "虑": 3440,
      "處": 3441,
      "虚": 3442,
      "虞": 3443,
      "號": 3444,
      "虫": 3445,
      "虹": 3446,
      "虽": 3447,
      "虾": 3448,
      "蚀": 3449,
      "蚁": 3450,
      "蚂": 3451,
      "蚊": 3452,
      "蚕": 3453,
      "蛇": 3454,
      "蛋": 3455,
      "蛙": 3456,
      "蛛": 3457,
      "蛮": 3458,
      "蜀": 3459,
      "蜂": 3460,
      "蜗": 3461,
      "蜘": 3462,
      "蜜": 3463,
      "蜡": 3464,
      "蝇": 3465,
      "蝉": 3466,
      "蝎": 3467,
      "蝙": 3468,
      "蝠": 3469,
      "蝴": 3470,
      "蝶": 3471,
      "融": 3472,
      "螺": 3473,
      "蟹": 3474,
      "蠢": 3475,
      "血": 3476,
      "行": 3477,
      "衍": 3478,
      "衔": 3479,
      "街": 3480,
      "衛": 3481,
      "衡": 3482,
      "衣": 3483,
      "补": 3484,
      "表": 3485,
      "衫": 3486,
      "衬": 3487,
      "衰": 3488,
      "衷": 3489,
      "袁": 3490,
      "袋": 3491,
      "袍": 3492,
      "袖": 3493,
      "袜": 3494,
      "被": 3495,
      "袭": 3496,
      "裁": 3497,
      "裂": 3498,
      "装": 3499,
      "裔": 3500,
      "裕": 3501,
      "裙": 3502,
      "裡": 3503,
      "裤": 3504,
      "裳": 3505,
      "裴": 3506,
      "裸": 3507,
      "裹": 3508,
      "褐": 3509,
      "褒": 3510,
      "襄": 3511,
      "襟": 3512,
      "西": 3513,
      "要": 3514,
      "覆": 3515,
      "見": 3516,
      "視": 3517,
      "親": 3518,
      "觀": 3519,
      "见": 3520,
      "观": 3521,
      "规": 3522,
      "觅": 3523,
      "视": 3524,
      "览": 3525,
      "觉": 3526,
      "角": 3527,
      "解": 3528,
      "触": 3529,
      "言": 3530,
      "計": 3531,
      "記": 3532,
      "設": 3533,
      "許": 3534,
      "詩": 3535,
      "詹": 3536,
      "誉": 3537,
      "誌": 3538,
      "誓": 3539,
      "語": 3540,
      "說": 3541,
      "誰": 3542,
      "請": 3543,
      "論": 3544,
      "諭": 3545,
      "諸": 3546,
      "謂": 3547,
      "警": 3548,
      "譬": 3549,
      "議": 3550,
      "變": 3551,
      "计": 3552,
      "订": 3553,
      "认": 3554,
      "讨": 3555,
      "让": 3556,
      "训": 3557,
      "议": 3558,
      "讯": 3559,
      "记": 3560,
      "讲": 3561,
      "讳": 3562,
      "讶": 3563,
      "许": 3564,
      "论": 3565,
      "讼": 3566,
      "讽": 3567,
      "设": 3568,
      "访": 3569,
      "诀": 3570,
      "证": 3571,
      "评": 3572,
      "识": 3573,
      "诈": 3574,
      "诉": 3575,
      "诊": 3576,
      "词": 3577,
      "诏": 3578,
      "译": 3579,
      "试": 3580,
      "诗": 3581,
      "诚": 3582,
      "诛": 3583,
      "话": 3584,
      "诞": 3585,
      "诠": 3586,
      "诡": 3587,
      "询": 3588,
      "该": 3589,
      "详": 3590,
      "诫": 3591,
      "语": 3592,
      "误": 3593,
      "诱": 3594,
      "说": 3595,
      "诵": 3596,
      "请": 3597,
      "诸": 3598,
      "诺": 3599,
      "读": 3600,
      "课": 3601,
      "谁": 3602,
      "调": 3603,
      "谅": 3604,
      "谈": 3605,
      "谊": 3606,
      "谋": 3607,
      "谍": 3608,
      "谎": 3609,
      "谐": 3610,
      "谓": 3611,
      "谜": 3612,
      "谢": 3613,
      "谣": 3614,
      "谦": 3615,
      "谨": 3616,
      "谭": 3617,
      "谱": 3618,
      "谴": 3619,
      "谷": 3620,
      "豁": 3621,
      "豆": 3622,
      "豚": 3623,
      "象": 3624,
      "豪": 3625,
      "豫": 3626,
      "豹": 3627,
      "貌": 3628,
      "貴": 3629,
      "賊": 3630,
      "賢": 3631,
      "賽": 3632,
      "贝": 3633,
      "贞": 3634,
      "负": 3635,
      "贡": 3636,
      "财": 3637,
      "责": 3638,
      "贤": 3639,
      "败": 3640,
      "账": 3641,
      "货": 3642,
      "质": 3643,
      "贩": 3644,
      "贪": 3645,
      "贫": 3646,
      "贬": 3647,
      "购": 3648,
      "贯": 3649,
      "贱": 3650,
      "贴": 3651,
      "贵": 3652,
      "贷": 3653,
      "贸": 3654,
      "费": 3655,
      "贺": 3656,
      "贼": 3657,
      "贾": 3658,
      "贿": 3659,
      "赁": 3660,
      "赃": 3661,
      "资": 3662,
      "赋": 3663,
      "赌": 3664,
      "赎": 3665,
      "赏": 3666,
      "赐": 3667,
      "赔": 3668,
      "赖": 3669,
      "赚": 3670,
      "赛": 3671,
      "赞": 3672,
      "赠": 3673,
      "赢": 3674,
      "赣": 3675,
      "赤": 3676,
      "赫": 3677,
      "走": 3678,
      "赴": 3679,
      "赵": 3680,
      "赶": 3681,
      "起": 3682,
      "趁": 3683,
      "超": 3684,
      "越": 3685,
      "趋": 3686,
      "趙": 3687,
      "趟": 3688,
      "趣": 3689,
      "足": 3690,
      "趴": 3691,
      "趾": 3692,
      "跃": 3693,
      "跋": 3694,
      "跌": 3695,
      "跑": 3696,
      "距": 3697,
      "跟": 3698,
      "跨": 3699,
      "跪": 3700,
      "路": 3701,
      "跳": 3702,
      "践": 3703,
      "踏": 3704,
      "踢": 3705,
      "踩": 3706,
      "踪": 3707,
      "蹄": 3708,
      "蹈": 3709,
      "蹦": 3710,
      "蹭": 3711,
      "蹲": 3712,
      "躁": 3713,
      "身": 3714,
      "躬": 3715,
      "躯": 3716,
      "躲": 3717,
      "躺": 3718,
      "車": 3719,
      "軍": 3720,
      "載": 3721,
      "车": 3722,
      "轨": 3723,
      "轩": 3724,
      "转": 3725,
      "轮": 3726,
      "软": 3727,
      "轰": 3728,
      "轴": 3729,
      "轻": 3730,
      "载": 3731,
      "轿": 3732,
      "较": 3733,
      "辄": 3734,
      "辅": 3735,
      "辆": 3736,
      "辈": 3737,
      "辉": 3738,
      "辐": 3739,
      "辑": 3740,
      "输": 3741,
      "辖": 3742,
      "辙": 3743,
      "辛": 3744,
      "辜": 3745,
      "辞": 3746,
      "辟": 3747,
      "辣": 3748,
      "辦": 3749,
      "辨": 3750,
      "辩": 3751,
      "辰": 3752,
      "辱": 3753,
      "边": 3754,
      "辽": 3755,
      "达": 3756,
      "迁": 3757,
      "迄": 3758,
      "迅": 3759,
      "过": 3760,
      "迈": 3761,
      "迎": 3762,
      "运": 3763,
      "近": 3764,
      "返": 3765,
      "还": 3766,
      "这": 3767,
      "进": 3768,
      "远": 3769,
      "违": 3770,
      "连": 3771,
      "迟": 3772,
      "迦": 3773,
      "迪": 3774,
      "迫": 3775,
      "迭": 3776,
      "述": 3777,
      "迷": 3778,
      "迹": 3779,
      "追": 3780,
      "退": 3781,
      "送": 3782,
      "适": 3783,
      "逃": 3784,
      "逆": 3785,
      "选": 3786,
      "逊": 3787,
      "透": 3788,
      "逐": 3789,
      "递": 3790,
      "途": 3791,
      "逗": 3792,
      "這": 3793,
      "通": 3794,
      "逛": 3795,
      "逝": 3796,
      "速": 3797,
      "造": 3798,
      "逢": 3799,
      "連": 3800,
      "逮": 3801,
      "進": 3802,
      "逸": 3803,
      "逻": 3804,
      "逼": 3805,
      "逾": 3806,
      "遂": 3807,
      "遇": 3808,
      "運": 3809,
      "遍": 3810,
      "過": 3811,
      "遏": 3812,
      "道": 3813,
      "達": 3814,
      "遗": 3815,
      "遣": 3816,
      "遥": 3817,
      "遭": 3818,
      "遮": 3819,
      "遵": 3820,
      "選": 3821,
      "避": 3822,
      "邀": 3823,
      "還": 3824,
      "邑": 3825,
      "邓": 3826,
      "邢": 3827,
      "那": 3828,
      "邦": 3829,
      "邪": 3830,
      "邮": 3831,
      "邱": 3832,
      "邵": 3833,
      "邹": 3834,
      "邻": 3835,
      "郁": 3836,
      "郊": 3837,
      "郎": 3838,
      "郑": 3839,
      "郝": 3840,
      "郡": 3841,
      "部": 3842,
      "郭": 3843,
      "都": 3844,
      "鄂": 3845,
      "鄉": 3846,
      "鄙": 3847,
      "鄭": 3848,
      "酉": 3849,
      "酋": 3850,
      "酌": 3851,
      "配": 3852,
      "酒": 3853,
      "酚": 3854,
      "酥": 3855,
      "酪": 3856,
      "酬": 3857,
      "酮": 3858,
      "酯": 3859,
      "酰": 3860,
      "酱": 3861,
      "酵": 3862,
      "酶": 3863,
      "酷": 3864,
      "酸": 3865,
      "酿": 3866,
      "醇": 3867,
      "醉": 3868,
      "醋": 3869,
      "醒": 3870,
      "醛": 3871,
      "采": 3872,
      "釉": 3873,
      "释": 3874,
      "里": 3875,
      "重": 3876,
      "野": 3877,
      "量": 3878,
      "金": 3879,
      "鉴": 3880,
      "銀": 3881,
      "銝": 3882,
      "錢": 3883,
      "鎮": 3884,
      "鑫": 3885,
      "针": 3886,
      "钉": 3887,
      "钓": 3888,
      "钙": 3889,
      "钛": 3890,
      "钞": 3891,
      "钟": 3892,
      "钠": 3893,
      "钢": 3894,
      "钥": 3895,
      "钦": 3896,
      "钧": 3897,
      "钩": 3898,
      "钮": 3899,
      "钱": 3900,
      "钻": 3901,
      "钾": 3902,
      "铁": 3903,
      "铃": 3904,
      "铅": 3905,
      "铜": 3906,
      "铝": 3907,
      "铬": 3908,
      "铭": 3909,
      "铲": 3910,
      "银": 3911,
      "铸": 3912,
      "铺": 3913,
      "链": 3914,
      "销": 3915,
      "锁": 3916,
      "锂": 3917,
      "锅": 3918,
      "锈": 3919,
      "锋": 3920,
      "锌": 3921,
      "锐": 3922,
      "错": 3923,
      "锡": 3924,
      "锣": 3925,
      "锤": 3926,
      "锥": 3927,
      "锦": 3928,
      "键": 3929,
      "锯": 3930,
      "锻": 3931,
      "镀": 3932,
      "镁": 3933,
      "镇": 3934,
      "镑": 3935,
      "镜": 3936,
      "镶": 3937,
      "長": 3938,
      "长": 3939,
      "門": 3940,
      "開": 3941,
      "閒": 3942,
      "間": 3943,
      "關": 3944,
      "门": 3945,
      "闪": 3946,
      "闫": 3947,
      "闭": 3948,
      "问": 3949,
      "闯": 3950,
      "闲": 3951,
      "间": 3952,
      "闵": 3953,
      "闷": 3954,
      "闸": 3955,
      "闹": 3956,
      "闺": 3957,
      "闻": 3958,
      "闽": 3959,
      "阀": 3960,
      "阁": 3961,
      "阅": 3962,
      "阎": 3963,
      "阐": 3964,
      "阑": 3965,
      "阔": 3966,
      "阙": 3967,
      "阜": 3968,
      "队": 3969,
      "阪": 3970,
      "阮": 3971,
      "阱": 3972,
      "防": 3973,
      "阳": 3974,
      "阴": 3975,
      "阵": 3976,
      "阶": 3977,
      "阻": 3978,
      "阿": 3979,
      "陀": 3980,
      "附": 3981,
      "际": 3982,
      "陆": 3983,
      "陇": 3984,
      "陈": 3985,
      "陋": 3986,
      "陌": 3987,
      "降": 3988,
      "限": 3989,
      "陕": 3990,
      "陛": 3991,
      "陡": 3992,
      "院": 3993,
      "除": 3994,
      "陨": 3995,
      "险": 3996,
      "陪": 3997,
      "陳": 3998,
      "陵": 3999,
      "陶": 4000,
      "陷": 4001,
      "陸": 4002,
      "陽": 4003,
      "隅": 4004,
      "隆": 4005,
      "隋": 4006,
      "随": 4007,
      "隐": 4008,
      "隔": 4009,
      "隙": 4010,
      "障": 4011,
      "隧": 4012,
      "隨": 4013,
      "隶": 4014,
      "难": 4015,
      "雀": 4016,
      "雁": 4017,
      "雄": 4018,
      "雅": 4019,
      "集": 4020,
      "雇": 4021,
      "雌": 4022,
      "雍": 4023,
      "雏": 4024,
      "雕": 4025,
      "雖": 4026,
      "難": 4027,
      "雨": 4028,
      "雪": 4029,
      "雯": 4030,
      "雲": 4031,
      "零": 4032,
      "雷": 4033,
      "雾": 4034,
      "需": 4035,
      "霄": 4036,
      "霆": 4037,
      "震": 4038,
      "霉": 4039,
      "霍": 4040,
      "霖": 4041,
      "霜": 4042,
      "霞": 4043,
      "露": 4044,
      "霸": 4045,
      "霾": 4046,
      "靈": 4047,
      "青": 4048,
      "靓": 4049,
      "靖": 4050,
      "静": 4051,
      "非": 4052,
      "靠": 4053,
      "靡": 4054,
      "面": 4055,
      "革": 4056,
      "靴": 4057,
      "靶": 4058,
      "鞋": 4059,
      "鞍": 4060,
      "鞠": 4061,
      "鞭": 4062,
      "韦": 4063,
      "韧": 4064,
      "韩": 4065,
      "韬": 4066,
      "音": 4067,
      "韵": 4068,
      "韶": 4069,
      "順": 4070,
      "領": 4071,
      "頭": 4072,
      "題": 4073,
      "額": 4074,
      "類": 4075,
      "页": 4076,
      "顶": 4077,
      "顷": 4078,
      "项": 4079,
      "顺": 4080,
      "须": 4081,
      "顽": 4082,
      "顾": 4083,
      "顿": 4084,
      "颁": 4085,
      "颂": 4086,
      "预": 4087,
      "颅": 4088,
      "领": 4089,
      "颇": 4090,
      "颈": 4091,
      "颌": 4092,
      "颐": 4093,
      "频": 4094,
      "颓": 4095,
      "颖": 4096,
      "颗": 4097,
      "题": 4098,
      "颜": 4099,
      "额": 4100,
      "颠": 4101,
      "颤": 4102,
      "風": 4103,
      "风": 4104,
      "飓": 4105,
      "飘": 4106,
      "飙": 4107,
      "飞": 4108,
      "食": 4109,
      "餐": 4110,
      "餘": 4111,
      "饥": 4112,
      "饪": 4113,
      "饭": 4114,
      "饮": 4115,
      "饰": 4116,
      "饱": 4117,
      "饲": 4118,
      "饵": 4119,
      "饶": 4120,
      "饺": 4121,
      "饼": 4122,
      "饿": 4123,
      "馀": 4124,
      "馅": 4125,
      "馆": 4126,
      "馈": 4127,
      "首": 4128,
      "香": 4129,
      "馨": 4130,
      "馬": 4131,
      "马": 4132,
      "驭": 4133,
      "驰": 4134,
      "驱": 4135,
      "驳": 4136,
      "驴": 4137,
      "驶": 4138,
      "驻": 4139,
      "驼": 4140,
      "驾": 4141,
      "驿": 4142,
      "骁": 4143,
      "骂": 4144,
      "骄": 4145,
      "骆": 4146,
      "验": 4147,
      "骏": 4148,
      "骑": 4149,
      "骗": 4150,
      "骚": 4151,
      "骤": 4152,
      "骨": 4153,
      "骼": 4154,
      "髓": 4155,
      "體": 4156,
      "高": 4157,
      "髙": 4158,
      "髦": 4159,
      "鬓": 4160,
      "鬼": 4161,
      "魁": 4162,
      "魂": 4163,
      "魄": 4164,
      "魅": 4165,
      "魏": 4166,
      "魔": 4167,
      "鱼": 4168,
      "鲁": 4169,
      "鲍": 4170,
      "鲜": 4171,
      "鲤": 4172,
      "鲨": 4173,
      "鲸": 4174,
      "鳄": 4175,
      "鳌": 4176,
      "鳍": 4177,
      "鳞": 4178,
      "鸟": 4179,
      "鸡": 4180,
      "鸣": 4181,
      "鸥": 4182,
      "鸦": 4183,
      "鸭": 4184,
      "鸽": 4185,
      "鸿": 4186,
      "鹅": 4187,
      "鹏": 4188,
      "鹤": 4189,
      "鹰": 4190,
      "鹿": 4191,
      "麒": 4192,
      "麓": 4193,
      "麟": 4194,
      "麦": 4195,
      "麻": 4196,
      "麼": 4197,
      "黃": 4198,
      "黄": 4199,
      "黎": 4200,
      "黏": 4201,
      "黑": 4202,
      "黔": 4203,
      "默": 4204,
      "黛": 4205,
      "鼎": 4206,
      "鼓": 4207,
      "鼠": 4208,
      "鼻": 4209,
      "齊": 4210,
      "齐": 4211,
      "齿": 4212,
      "龄": 4213,
      "龍": 4214,
      "龙": 4215,
      "龚": 4216,
      "龟": 4217,
      "가": 4218,
      "고": 4219,
      "그": 4220,
      "기": 4221,
      "는": 4222,
      "니": 4223,
      "다": 4224,
      "들": 4225,
      "로": 4226,
      "리": 4227,
      "서": 4228,
      "에": 4229,
      "은": 4230,
      "을": 4231,
      "의": 4232,
      "이": 4233,
      "있": 4234,
      "지": 4235,
      "하": 4236,
      "！": 4237,
      "％": 4238,
      "（": 4239,
      "）": 4240,
      "＋": 4241,
      "，": 4242,
      "－": 4243,
      "．": 4244,
      "／": 4245,
      "０": 4246,
      "１": 4247,
      "２": 4248,
      "３": 4249,
      "４": 4250,
      "５": 4251,
      "：": 4252,
      "；": 4253,
      "？": 4254,
      "｜": 4255,
      "～": 4256,
      "�": 4257,
      "🙂": 4258,
      "▁t": 4259,
      "▁a": 4260,
      "in": 4261,
      "he": 4262,
      "re": 4263,
      "on": 4264,
      "er": 4265,
      "▁the": 4266,
      "▁s": 4267,
      "at": 4268,
      "▁w": 4269,
      "▁o": 4270,
      "en": 4271,
      "▁c": 4272,
      "an": 4273,
      "it": 4274,
      "or": 4275,
      "es": 4276,
      "is": 4277,
      "ou": 4278,
      "ing": 4279,
      "▁f": 4280,
      "▁b": 4281,
      "▁p": 4282,
      "▁an": 4283,
      "al": 4284,
      "ed": 4285,
      "▁m": 4286,
      "ar": 4287,
      "▁to": 4288,
      "▁of": 4289,
      "▁in": 4290,
      "▁and": 4291,
      "▁d": 4292,
      "ic": 4293,
      "le": 4294,
      "as": 4295,
      "om": 4296,
      "▁h": 4297,
      "ion": 4298,
      "▁th": 4299,
      "20": 4300,
      "ll": 4301,
      "ent": 4302,
      "▁l": 4303,
      "ro": 4304,
      "ve": 4305,
      "st": 4306,
      "--": 4307,
      "\n\n": 4308,
      "▁n": 4309,
      "▁re": 4310,
      "▁e": 4311,
      "▁I": 4312,
      "▁g": 4313,
      "et": 4314,
      "ct": 4315,
      "▁y": 4316,
      "ly": 4317,
      "▁T": 4318,
      "▁S": 4319,
      "00": 4320,
      "ut": 4321,
      "id": 4322,
      "ot": 4323,
      "▁C": 4324,
      "▁is": 4325,
      "一个": 4326,
      "　　": 4327,
      "▁be": 4328,
      "ow": 4329,
      "ay": 4330,
      "▁you": 4331,
      "▁A": 4332,
      "▁on": 4333,
      "▁for": 4334,
      "\n　　": 4335,
      "ad": 4336,
      "im": 4337,
      "ac": 4338,
      "us": 4339,
      "am": 4340,
      "ur": 4341,
      "ig": 4342,
      "il": 4343,
      "ol": 4344,
      "ver": 4345,
      "ation": 4346,
      "un": 4347,
      "▁M": 4348,
      "▁st": 4349,
      "▁that": 4350,
      "201": 4351,
      "ith": 4352,
      "ir": 4353,
      "ch": 4354,
      "ce": 4355,
      "▁1": 4356,
      "▁P": 4357,
      "se": 4358,
      "▁with": 4359,
      "▁B": 4360,
      "▁it": 4361,
      "公司": 4362,
      "可以": 4363,
      "自己": 4364,
      "中国": 4365,
      "▁he": 4366,
      "我们": 4367,
      "没有": 4368,
      "ter": 4369,
      "▁we": 4370,
      "什么": 4371,
      "----": 4372,
      "ill": 4373,
      "if": 4374,
      "▁wh": 4375,
      "ra": 4376,
      "ul": 4377,
      "▁as": 4378,
      "oo": 4379,
      "ke": 4380,
      "10": 4381,
      "el": 4382,
      "▁W": 4383,
      "▁D": 4384,
      "▁pro": 4385,
      "▁H": 4386,
      "ge": 4387,
      "ers": 4388,
      "▁are": 4389,
      "pp": 4390,
      "ate": 4391,
      "▁con": 4392,
      "▁F": 4393,
      "19": 4394,
      "▁R": 4395,
      "ri": 4396,
      "ment": 4397,
      "her": 4398,
      "▁(": 4399,
      "..": 4400,
      "est": 4401,
      "ess": 4402,
      "ab": 4403,
      "这个": 4404,
      "ore": 4405,
      "▁com": 4406,
      "▁ha": 4407,
      "问题": 4408,
      "ld": 4409,
      "▁The": 4410,
      "and": 4411,
      "th": 4412,
      "▁L": 4413,
      "▁de": 4414,
      "就是": 4415,
      "▁at": 4416,
      "op": 4417,
      "igh": 4418,
      "ist": 4419,
      "▁se": 4420,
      "▁or": 4421,
      "qu": 4422,
      "▁G": 4423,
      "ew": 4424,
      "rom": 4425,
      "▁v": 4426,
      "um": 4427,
      "▁was": 4428,
      "▁E": 4429,
      "oun": 4430,
      "os": 4431,
      "ant": 4432,
      "em": 4433,
      "▁ex": 4434,
      "ure": 4435,
      "▁N": 4436,
      "ity": 4437,
      "▁r": 4438,
      "工作": 4439,
      "他们": 4440,
      "市场": 4441,
      "ive": 4442,
      "200": 4443,
      "时间": 4444,
      "因为": 4445,
      "ort": 4446,
      "如果": 4447,
      "▁have": 4448,
      "oc": 4449,
      "ust": 4450,
      "ain": 4451,
      "进行": 4452,
      "不是": 4453,
      "art": 4454,
      "▁this": 4455,
      "pe": 4456,
      "▁sh": 4457,
      "▁O": 4458,
      "时候": 4459,
      "可能": 4460,
      "▁by": 4461,
      "▁ch": 4462,
      "▁al": 4463,
      "up": 4464,
      "▁from": 4465,
      "od": 4466,
      "的人": 4467,
      "▁not": 4468,
      "ies": 4469,
      "▁your": 4470,
      "ight": 4471,
      "已经": 4472,
      "▁can": 4473,
      "res": 4474,
      "end": 4475,
      "all": 4476,
      "投资": 4477,
      "现在": 4478,
      "但是": 4479,
      "ard": 4480,
      "12": 4481,
      "▁us": 4482,
      "ud": 4483,
      "发展": 4484,
      "▁2": 4485,
      "ome": 4486,
      "ould": 4487,
      "out": 4488,
      "▁le": 4489,
      "11": 4490,
      "our": 4491,
      "iv": 4492,
      "还是": 4493,
      "ear": 4494,
      "ost": 4495,
      "▁J": 4496,
      "ak": 4497,
      "▁su": 4498,
      "第一": 4499,
      "▁k": 4500,
      "开始": 4501,
      "▁ab": 4502,
      "ine": 4503,
      "美国": 4504,
      "▁will": 4505,
      "ag": 4506,
      "30": 4507,
      "ren": 4508,
      "企业": 4509,
      "ack": 4510,
      "很多": 4511,
      "--------": 4512,
      "ally": 4513,
      "ast": 4514,
      "▁un": 4515,
      "ect": 4516,
      "gh": 4517,
      "▁j": 4518,
      "这样": 4519,
      "▁wor": 4520,
      "▁do": 4521,
      "▁pl": 4522,
      "The": 4523,
      "的一": 4524,
      "ide": 4525,
      "通过": 4526,
      "需要": 4527,
      "所以": 4528,
      "red": 4529,
      "ap": 4530,
      "15": 4531,
      "孩子": 4532,
      "▁all": 4533,
      "知道": 4534,
      "ff": 4535,
      "都是": 4536,
      "one": 4537,
      "age": 4538,
      "▁me": 4539,
      "ice": 4540,
      "国家": 4541,
      "▁ne": 4542,
      "管理": 4543,
      "▁-": 4544,
      "大学": 4545,
      "经济": 4546,
      "ip": 4547,
      "▁In": 4548,
      "og": 4549,
      "基金": 4550,
      "ind": 4551,
      "情况": 4552,
      "ial": 4553,
      "的是": 4554,
      "如何": 4555,
      "te": 4556,
      "”，": 4557,
      "研究": 4558,
      "目前": 4559,
      "18": 4560,
      "这些": 4561,
      "ook": 4562,
      "▁has": 4563,
      "hen": 4564,
      "世界": 4565,
      "▁but": 4566,
      "方面": 4567,
      "产品": 4568,
      "ough": 4569,
      "服务": 4570,
      "ry": 4571,
      "▁U": 4572,
      "表示": 4573,
      "生活": 4574,
      "一些": 4575,
      "的时候": 4576,
      "▁\"": 4577,
      "大家": 4578,
      "50": 4579,
      "ong": 4580,
      "▁comp": 4581,
      "技术": 4582,
      "ich": 4583,
      "人的": 4584,
      "觉得": 4585,
      "记者": 4586,
      "▁out": 4587,
      "怎么": 4588,
      "▁ad": 4589,
      "也是": 4590,
      "iz": 4591,
      "ions": 4592,
      "ans": 4593,
      "▁so": 4594,
      "成为": 4595,
      "影响": 4596,
      "以及": 4597,
      "ake": 4598,
      "pt": 4599,
      "ood": 4600,
      "部分": 4601,
      "朋友": 4602,
      "ie": 4603,
      "认为": 4604,
      "ound": 4605,
      "到了": 4606,
      "ther": 4607,
      "主要": 4608,
      "▁up": 4609,
      "同时": 4610,
      "▁en": 4611,
      "发现": 4612,
      "▁my": 4613,
      "16": 4614,
      "自己的": 4615,
      "ia": 4616,
      "使用": 4617,
      "ous": 4618,
      "000": 4619,
      "对于": 4620,
      "▁they": 4621,
      "per": 4622,
      "very": 4623,
      "able": 4624,
      "ated": 4625,
      "大的": 4626,
      "orm": 4627,
      "ime": 4628,
      "▁more": 4629,
      "ike": 4630,
      "其他": 4631,
      "act": 4632,
      "ber": 4633,
      "ite": 4634,
      "pl": 4635,
      "▁3": 4636,
      "▁K": 4637,
      "▁“": 4638,
      "作为": 4639,
      "▁cl": 4640,
      "中的": 4641,
      "▁201": 4642,
      "非常": 4643,
      "设计": 4644,
      "不能": 4645,
      "ace": 4646,
      "系统": 4647,
      "cc": 4648,
      "了一": 4649,
      "▁Th": 4650,
      "der": 4651,
      "这种": 4652,
      "13": 4653,
      "信息": 4654,
      "▁te": 4655,
      "好的": 4656,
      "▁im": 4657,
      "▁their": 4658,
      "还有": 4659,
      "），": 4660,
      "▁one": 4661,
      "北京": 4662,
      "14": 4663,
      "重要": 4664,
      "▁tr": 4665,
      "17": 4666,
      "”。": 4667,
      "第二": 4668,
      "比较": 4669,
      "▁ar": 4670,
      "du": 4671,
      "是一": 4672,
      "  ": 4673,
      "ame": 4674,
      "之后": 4675,
      "ep": 4676,
      "：“": 4677,
      "社会": 4678,
      "▁sa": 4679,
      "so": 4680,
      "ance": 4681,
      "are": 4682,
      "ks": 4683,
      "▁Ch": 4684,
      "或者": 4685,
      "ue": 4686,
      "不同": 4687,
      "ult": 4688,
      "▁about": 4689,
      "▁Y": 4690,
      "不会": 4691,
      "▁qu": 4692,
      "月2": 4693,
      "▁V": 4694,
      "▁cont": 4695,
      "喜欢": 4696,
      "选择": 4697,
      "相关": 4698,
      "ub": 4699,
      "▁man": 4700,
      "▁St": 4701,
      "政府": 4702,
      "▁his": 4703,
      "ign": 4704,
      "数据": 4705,
      "ib": 4706,
      "那么": 4707,
      "出现": 4708,
      "项目": 4709,
      "▁go": 4710,
      "个人": 4711,
      "提供": 4712,
      "比赛": 4713,
      "人民": 4714,
      "ire": 4715,
      "ase": 4716,
      "ary": 4717,
      "上的": 4718,
      "ass": 4719,
      "来的": 4720,
      "▁who": 4721,
      "教育": 4722,
      "ach": 4723,
      "银行": 4724,
      "ree": 4725,
      "▁res": 4726,
      "其中": 4727,
      "reat": 4728,
      "cl": 4729,
      "应该": 4730,
      "ove": 4731,
      "价格": 4732,
      "一直": 4733,
      "ical": 4734,
      "av": 4735,
      "5年": 4736,
      "▁sp": 4737,
      "活动": 4738,
      "▁int": 4739,
      "关注": 4740,
      "分析": 4741,
      "一定": 4742,
      "我的": 4743,
      "ays": 4744,
      "▁app": 4745,
      "ail": 4746,
      "学生": 4747,
      "▁4": 4748,
      "专业": 4749,
      "▁which": 4750,
      "人员": 4751,
      "国际": 4752,
      "看到": 4753,
      "要求": 4754,
      "——": 4755,
      "▁per": 4756,
      "，“": 4757,
      "ations": 4758,
      "发生": 4759,
      "不过": 4760,
      "▁our": 4761,
      "ile": 4762,
      "城市": 4763,
      "所有": 4764,
      "▁like": 4765,
      "今年": 4766,
      "行业": 4767,
      "form": 4768,
      "根据": 4769,
      "交易": 4770,
      "方式": 4771,
      "。”": 4772,
      "希望": 4773,
      "包括": 4774,
      "其实": 4775,
      "6年": 4776,
      "ick": 4777,
      "为什么": 4778,
      "▁off": 4779,
      "ction": 4780,
      "own": 4781,
      "▁dis": 4782,
      "他的": 4783,
      "ang": 4784,
      "手机": 4785,
      "能力": 4786,
      "▁year": 4787,
      "这是": 4788,
      "▁time": 4789,
      "安全": 4790,
      "这一": 4791,
      "而且": 4792,
      "vel": 4793,
      "ven": 4794,
      "日本": 4795,
      "由于": 4796,
      "ress": 4797,
      "ark": 4798,
      "ru": 4799,
      "然后": 4800,
      "ence": 4801,
      "游戏": 4802,
      "▁get": 4803,
      "ount": 4804,
      "▁other": 4805,
      "为了": 4806,
      "虽然": 4807,
      "感觉": 4808,
      "60": 4809,
      "▁some": 4810,
      "▁An": 4811,
      "一起": 4812,
      "关系": 4813,
      "最后": 4814,
      "学习": 4815,
      "▁ag": 4816,
      "▁also": 4817,
      "不要": 4818,
      "ings": 4819,
      "erv": 4820,
      "文化": 4821,
      "4年": 4822,
      "学校": 4823,
      "美元": 4824,
      "▁kn": 4825,
      "ord": 4826,
      "基本": 4827,
      "ob": 4828,
      "中心": 4829,
      "▁new": 4830,
      "▁It": 4831,
      "方法": 4832,
      "一下": 4833,
      "▁pe": 4834,
      "了解": 4835,
      "结果": 4836,
      "▁were": 4837,
      "com": 4838,
      "一样": 4839,
      "获得": 4840,
      "▁work": 4841,
      "ition": 4842,
      "ose": 4843,
      "▁them": 4844,
      "ens": 4845,
      "ish": 4846,
      "内容": 4847,
      "▁any": 4848,
      "▁there": 4849,
      "▁had": 4850,
      "ink": 4851,
      "▁would": 4852,
      "▁been": 4853,
      "分钟": 4854,
      "▁part": 4855,
      "ents": 4856,
      "int": 4857,
      "地区": 4858,
      "80": 4859,
      "▁when": 4860,
      "ors": 4861,
      "▁sc": 4862,
      "▁ro": 4863,
      "fe": 4864,
      "特别": 4865,
      "有限": 4866,
      "只是": 4867,
      "ond": 4868,
      "▁over": 4869,
      "▁what": 4870,
      "你的": 4871,
      "▁her": 4872,
      "金融": 4873,
      "▁if": 4874,
      "电影": 4875,
      "port": 4876,
      "▁5": 4877,
      "两个": 4878,
      "因此": 4879,
      "增长": 4880,
      "存在": 4881,
      "当时": 4882,
      "▁just": 4883,
      "网络": 4884,
      "上海": 4885,
      "能够": 4886,
      "ov": 4887,
      "▁fe": 4888,
      "99": 4889,
      "▁am": 4890,
      "现场": 4891,
      "更多": 4892,
      "建设": 4893,
      "只有": 4894,
      "▁0": 4895,
      "▁pre": 4896,
      "rent": 4897,
      "40": 4898,
      "▁than": 4899,
      "use": 4900,
      "起来": 4901,
      "平台": 4902,
      "oy": 4903,
      "ory": 4904,
      "来说": 4905,
      "过程": 4906,
      "是否": 4907,
      "用户": 4908,
      "25": 4909,
      "ople": 4910,
      "政策": 4911,
      "ild": 4912,
      "ck": 4913,
      "这么": 4914,
      "oll": 4915,
      "地方": 4916,
      "一般": 4917,
      "之前": 4918,
      "原因": 4919,
      "资金": 4920,
      "%，": 4921,
      "ater": 4922,
      "真的": 4923,
      "----------------": 4924,
      "的事": 4925,
      "进入": 4926,
      "甚至": 4927,
      "mer": 4928,
      "▁spe": 4929,
      "▁gr": 4930,
      "历史": 4931,
      "国内": 4932,
      "机构": 4933,
      "业务": 4934,
      "▁bl": 4935,
      "计划": 4936,
      "ade": 4937,
      "ces": 4938,
      "环境": 4939,
      "消费": 4940,
      "组织": 4941,
      "wn": 4942,
      "vers": 4943,
      "继续": 4944,
      "也不": 4945,
      "实现": 4946,
      "...": 4947,
      "we": 4948,
      "开发": 4949,
      "万元": 4950,
      "▁We": 4951,
      "ne": 4952,
      "100": 4953,
      "支持": 4954,
      "irst": 4955,
      "▁des": 4956,
      "年的": 4957,
      "直接": 4958,
      "ian": 4959,
      "▁need": 4960,
      "以下": 4961,
      "有一": 4962,
      "??": 4963,
      "fter": 4964,
      "今天": 4965,
      "▁into": 4966,
      "▁He": 4967,
      "汽车": 4968,
      "▁said": 4969,
      "lic": 4970,
      "合作": 4971,
      "▁how": 4972,
      "▁'": 4973,
      "显示": 4974,
      "东西": 4975,
      "old": 4976,
      "▁people": 4977,
      "关于": 4978,
      "成功": 4979,
      "比如": 4980,
      "itt": 4981,
      "增加": 4982,
      "发布": 4983,
      "运动": 4984,
      "ric": 4985,
      "控制": 4986,
      "3年": 4987,
      "哪些": 4988,
      "完成": 4989,
      "▁rec": 4990,
      "基础": 4991,
      "▁bec": 4992,
      "ning": 4993,
      "iew": 4994,
      "90": 4995,
      "各种": 4996,
      "的话": 4997,
      "代表": 4998,
      "▁acc": 4999,
      "部门": 5000,
      "▁no": 5001,
      "gr": 5002,
      "处理": 5003,
      "回答": 5004,
      "▁its": 5005,
      "ft": 5006,
      "产业": 5007,
      "ons": 5008,
      "生产": 5009,
      "出来": 5010,
      "行为": 5011,
      "全国": 5012,
      "表现": 5013,
      "品牌": 5014,
      "老师": 5015,
      "亿元": 5016,
      "电视": 5017,
      "之间": 5018,
      "here": 5019,
      "任何": 5020,
      "▁tw": 5021,
      "联网": 5022,
      "这样的": 5023,
      "媒体": 5024,
      "ool": 5025,
      "ual": 5026,
      "ph": 5027,
      "▁Re": 5028,
      "资产": 5029,
      "22": 5030,
      "功能": 5031,
      "出了": 5032,
      "amp": 5033,
      "day": 5034,
      "）。": 5035,
      "具有": 5036,
      "▁know": 5037,
      "1年": 5038,
      "▁she": 5039,
      "rough": 5040,
      "价值": 5041,
      "ments": 5042,
      "标准": 5043,
      "8年": 5044,
      "未来": 5045,
      "提高": 5046,
      "70": 5047,
      "的大": 5048,
      "ious": 5049,
      "报告": 5050,
      "ause": 5051,
      "ull": 5052,
      "一次": 5053,
      "集团": 5054,
      "7年": 5055,
      "Th": 5056,
      "这里": 5057,
      "工程": 5058,
      "tern": 5059,
      "建议": 5060,
      "社区": 5061,
      "▁fl": 5062,
      "▁–": 5063,
      "第三": 5064,
      "有人": 5065,
      "香港": 5066,
      "▁6": 5067,
      "%。": 5068,
      "ating": 5069,
      "销售": 5070,
      "以上": 5071,
      "hed": 5072,
      "新的": 5073,
      "必须": 5074,
      "▁bet": 5075,
      "ates": 5076,
      "超过": 5077,
      "▁look": 5078,
      "证券": 5079,
      "完全": 5080,
      "一步": 5081,
      "eth": 5082,
      "水平": 5083,
      "你们": 5084,
      "有限公司": 5085,
      "介绍": 5086,
      "作用": 5087,
      "ject": 5088,
      "除了": 5089,
      "科技": 5090,
      "▁only": 5091,
      "电话": 5092,
      "单位": 5093,
      "▁first": 5094,
      "ont": 5095,
      "24": 5096,
      "解决": 5097,
      "医院": 5098,
      "▁make": 5099,
      "之一": 5100,
      "决定": 5101,
      "互联网": 5102,
      "导致": 5103,
      "参加": 5104,
      "负责": 5105,
      "注意": 5106,
      "采用": 5107,
      "In": 5108,
      "▁comm": 5109,
      "小时": 5110,
      "评论": 5111,
      "ise": 5112,
      "样的": 5113,
      "风险": 5114,
      "xt": 5115,
      "实际": 5116,
      "无法": 5117,
      "les": 5118,
      "▁act": 5119,
      "ily": 5120,
      "机会": 5121,
      "全球": 5122,
      "模式": 5123,
      "▁may": 5124,
      "▁ind": 5125,
      "▁This": 5126,
      "....": 5127,
      "左右": 5128,
      "目标": 5129,
      "容易": 5130,
      "clud": 5131,
      "达到": 5132,
      "▁bu": 5133,
      "▁back": 5134,
      "▁pr": 5135,
      "lp": 5136,
      "个月": 5137,
      "规定": 5138,
      "9年": 5139,
      "收入": 5140,
      "消息": 5141,
      "接受": 5142,
      "▁sy": 5143,
      "面的": 5144,
      "微信": 5145,
      "▁see": 5146,
      "▁add": 5147,
      "23": 5148,
      "▁want": 5149,
      "告诉": 5150,
      "lect": 5151,
      "健康": 5152,
      "一种": 5153,
      "▁most": 5154,
      "iss": 5155,
      "▁10": 5156,
      ").": 5157,
      "得到": 5158,
      "最终": 5159,
      "自然": 5160,
      "▁ph": 5161,
      "准备": 5162,
      "2年": 5163,
      "正在": 5164,
      "需求": 5165,
      "并不": 5166,
      "▁two": 5167,
      "先生": 5168,
      "有些": 5169,
      "10月": 5170,
      "▁every": 5171,
      "有的": 5172,
      "有关": 5173,
      "▁7": 5174,
      "▁help": 5175,
      "▁19": 5176,
      "位于": 5177,
      "报道": 5178,
      "的问题": 5179,
      "bs": 5180,
      "条件": 5181,
      "体验": 5182,
      "资源": 5183,
      "ock": 5184,
      "▁use": 5185,
      "新闻": 5186,
      "ific": 5187,
      "▁produ": 5188,
      "不断": 5189,
      "公里": 5190,
      "传统": 5191,
      "▁em": 5192,
      "▁well": 5193,
      "产生": 5194,
      "帮助": 5195,
      "当然": 5196,
      "▁good": 5197,
      "▁dif": 5198,
      "空间": 5199,
      "▁200": 5200,
      "每天": 5201,
      "1日": 5202,
      "▁po": 5203,
      "结构": 5204,
      "aw": 5205,
      "是一个": 5206,
      "变化": 5207,
      "▁stud": 5208,
      "ife": 5209,
      "的小": 5210,
      "uch": 5211,
      "明显": 5212,
      "应用": 5213,
      "▁very": 5214,
      "▁under": 5215,
      "▁could": 5216,
      "后来": 5217,
      "并且": 5218,
      "▁prov": 5219,
      "▁cons": 5220,
      "造成": 5221,
      "也有": 5222,
      "形成": 5223,
      "urn": 5224,
      "科学": 5225,
      "▁after": 5226,
      "▁Un": 5227,
      "是在": 5228,
      "利用": 5229,
      "ss": 5230,
      "ell": 5231,
      "以后": 5232,
      "另外": 5233,
      "row": 5234,
      "父母": 5235,
      "期间": 5236,
      "简单": 5237,
      "ert": 5238,
      "sel": 5239,
      "anc": 5240,
      "……": 5241,
      "调查": 5242,
      "分别": 5243,
      "▁these": 5244,
      "出的": 5245,
      "不到": 5246,
      "▁through": 5247,
      "那些": 5248,
      "上市": 5249,
      "olog": 5250,
      "▁co": 5251,
      "股份": 5252,
      "有效": 5253,
      "家庭": 5254,
      "不仅": 5255,
      "故事": 5256,
      "属于": 5257,
      "ities": 5258,
      "ath": 5259,
      "不知道": 5260,
      "ting": 5261,
      "oth": 5262,
      "▁rel": 5263,
      "2016年": 5264,
      "▁$": 5265,
      "rit": 5266,
      "毕业": 5267,
      "持续": 5268,
      "领域": 5269,
      "21": 5270,
      "ty": 5271,
      "的一个": 5272,
      "2015年": 5273,
      "ng": 5274,
      "ful": 5275,
      "一点": 5276,
      "知识": 5277,
      "艺术": 5278,
      "▁imp": 5279,
      "网站": 5280,
      "性的": 5281,
      "ec": 5282,
      "评价": 5283,
      "ys": 5284,
      "ble": 5285,
      "▁我": 5286,
      "拥有": 5287,
      "来自": 5288,
      "参与": 5289,
      "fore": 5290,
      "ts": 5291,
      "28": 5292,
      "oss": 5293,
      "▁col": 5294,
      "推荐": 5295,
      "stem": 5296,
      "考虑": 5297,
      "保护": 5298,
      "▁includ": 5299,
      "ational": 5300,
      "来看": 5301,
      "是什么": 5302,
      "创新": 5303,
      "▁att": 5304,
      "系列": 5305,
      "▁years": 5306,
      "音乐": 5307,
      "计算": 5308,
      "▁should": 5309,
      "▁inv": 5310,
      "▁br": 5311,
      "__": 5312,
      "▁supp": 5313,
      "2014年": 5314,
      "26": 5315,
      "erm": 5316,
      "cess": 5317,
      "都有": 5318,
      "旅游": 5319,
      "客户": 5320,
      "▁now": 5321,
      "队的": 5322,
      "调整": 5323,
      "▁8": 5324,
      "最近": 5325,
      "交通": 5326,
      "▁serv": 5327,
      "ower": 5328,
      "英国": 5329,
      "效果": 5330,
      "▁reg": 5331,
      "als": 5332,
      "ied": 5333,
      "ased": 5334,
      "▁ke": 5335,
      "经过": 5336,
      "pect": 5337,
      "操作": 5338,
      "▁play": 5339,
      "去年": 5340,
      "▁many": 5341,
      "oup": 5342,
      "最高": 5343,
      "ange": 5344,
      "▁way": 5345,
      "建立": 5346,
      "提升": 5347,
      "不少": 5348,
      "随着": 5349,
      "股票": 5350,
      "保持": 5351,
      "ract": 5352,
      "ility": 5353,
      "get": 5354,
      "过去": 5355,
      "▁Com": 5356,
      "erson": 5357,
      "位置": 5358,
      "▁sm": 5359,
      "考试": 5360,
      "▁如何": 5361,
      "经营": 5362,
      "作品": 5363,
      "建筑": 5364,
      "许多": 5365,
      "ures": 5366,
      "会议": 5367,
      "▁Pro": 5368,
      "具体": 5369,
      "▁even": 5370,
      "▁inc": 5371,
      "才能": 5372,
      "ics": 5373,
      "▁don": 5374,
      "的情况": 5375,
      "就会": 5376,
      "状态": 5377,
      "▁then": 5378,
      "any": 5379,
      "学院": 5380,
      "▁think": 5381,
      "▁Wh": 5382,
      "iness": 5383,
      "io": 5384,
      "联系": 5385,
      "进一步": 5386,
      "▁You": 5387,
      "▁eff": 5388,
      "质量": 5389,
      "▁did": 5390,
      "如此": 5391,
      "以来": 5392,
      "电子": 5393,
      "velop": 5394,
      "▁great": 5395,
      "受到": 5396,
      "事件": 5397,
      "aking": 5398,
      "首先": 5399,
      "ular": 5400,
      "领导": 5401,
      "时代": 5402,
      "▁rem": 5403,
      "责任": 5404,
      "35": 5405,
      "精神": 5406,
      "▁down": 5407,
      "▁him": 5408,
      "台湾": 5409,
      "▁&": 5410,
      "▁because": 5411,
      "▁20": 5412,
      "创业": 5413,
      "综合": 5414,
      "▁tra": 5415,
      "努力": 5416,
      "ank": 5417,
      "普通": 5418,
      "ines": 5419,
      "规模": 5420,
      "ollow": 5421,
      "ix": 5422,
      "正式": 5423,
      "▁much": 5424,
      "▁too": 5425,
      "体育": 5426,
      "政治": 5427,
      "▁fun": 5428,
      "▁ac": 5429,
      "▁ev": 5430,
      "27": 5431,
      "方向": 5432,
      "真正": 5433,
      "地产": 5434,
      "视频": 5435,
      "都会": 5436,
      "人们": 5437,
      "▁gu": 5438,
      "不可": 5439,
      "ek": 5440,
      "air": 5441,
      "经历": 5442,
      "严重": 5443,
      "按照": 5444,
      "▁ass": 5445,
      "经验": 5446,
      "别人": 5447,
      "ative": 5448,
      "▁And": 5449,
      "重点": 5450,
      "经常": 5451,
      "199": 5452,
      "hes": 5453,
      "ash": 5454,
      "ible": 5455,
      "只能": 5456,
      "发行": 5457,
      "ward": 5458,
      "4月": 5459,
      "更加": 5460,
      "▁where": 5461,
      "身体": 5462,
      "人口": 5463,
      "压力": 5464,
      "▁high": 5465,
      "下来": 5466,
      "▁exper": 5467,
      "改变": 5468,
      "中央": 5469,
      "成本": 5470,
      "9月": 5471,
      "ork": 5472,
      "▁right": 5473,
      "ener": 5474,
      "只要": 5475,
      "▁sec": 5476,
      "its": 5477,
      "ax": 5478,
      "改革": 5479,
      "arch": 5480,
      "ced": 5481,
      "投资者": 5482,
      "成绩": 5483,
      "▁ent": 5484,
      "ict": 5485,
      "商业": 5486,
      "结束": 5487,
      "不得": 5488,
      "),": 5489,
      "理解": 5490,
      "法律": 5491,
      "ident": 5492,
      "uring": 5493,
      "other": 5494,
      "整个": 5495,
      "ug": 5496,
      "那个": 5497,
      "范围": 5498,
      "阶段": 5499,
      "az": 5500,
      "几个": 5501,
      "治疗": 5502,
      "▁fin": 5503,
      "45": 5504,
      "指数": 5505,
      "微博": 5506,
      "▁Sh": 5507,
      "▁car": 5508,
      "▁9": 5509,
      "▁dec": 5510,
      "rib": 5511,
      "▁start": 5512,
      "然而": 5513,
      "▁long": 5514,
      "的女": 5515,
      "一年": 5516,
      "委员": 5517,
      "越来": 5518,
      "▁mod": 5519,
      "稳定": 5520,
      "多少": 5521,
      "最大": 5522,
      "ience": 5523,
      "越来越": 5524,
      "▁own": 5525,
      "ata": 5526,
      "主义": 5527,
      "保险": 5528,
      "▁read": 5529,
      "我们的": 5530,
      "ah": 5531,
      "3月": 5532,
      "▁set": 5533,
      "hip": 5534,
      "usiness": 5535,
      "购买": 5536,
      "▁che": 5537,
      "材料": 5538,
      "答案": 5539,
      "分为": 5540,
      "line": 5541,
      "智能": 5542,
      "▁diffe": 5543,
      "面积": 5544,
      "ale": 5545,
      "竞争": 5546,
      "33": 5547,
      "7月": 5548,
      "ices": 5549,
      "人民币": 5550,
      "▁show": 5551,
      "提出": 5552,
      "同学": 5553,
      "▁day": 5554,
      "程度": 5555,
      "实施": 5556,
      "ited": 5557,
      "确定": 5558,
      "人士": 5559,
      "说明": 5560,
      "文章": 5561,
      "正常": 5562,
      "关键": 5563,
      "心理": 5564,
      "方案": 5565,
      "ient": 5566,
      "▁find": 5567,
      "▁again": 5568,
      "▁i": 5569,
      "申请": 5570,
      "gan": 5571,
      "下的": 5572,
      "ner": 5573,
      "▁such": 5574,
      "▁system": 5575,
      "里的": 5576,
      "▁inst": 5577,
      "优势": 5578,
      "▁follow": 5579,
      "现代": 5580,
      "年轻": 5581,
      "后的": 5582,
      "chool": 5583,
      "全部": 5584,
      "妈妈": 5585,
      "▁spec": 5586,
      "都不": 5587,
      "▁mon": 5588,
      "▁ins": 5589,
      "alth": 5590,
      "▁min": 5591,
      "职业": 5592,
      "view": 5593,
      "问答": 5594,
      "▁pres": 5595,
      "formation": 5596,
      "▁here": 5597,
      "》，": 5598,
      ".”": 5599,
      "联合": 5600,
      "制度": 5601,
      "上涨": 5602,
      "成立": 5603,
      "积极": 5604,
      "▁take": 5605,
      "▁does": 5606,
      "pr": 5607,
      "带来": 5608,
      "alk": 5609,
      "29": 5610,
      "收益": 5611,
      "球员": 5612,
      "资本": 5613,
      "ave": 5614,
      "目的": 5615,
      "▁sur": 5616,
      "附近": 5617,
      "▁best": 5618,
      "▁De": 5619,
      "▁made": 5620,
      "有哪些": 5621,
      "不好": 5622,
      "▁develop": 5623,
      "▁bel": 5624,
      "了一个": 5625,
      "arket": 5626,
      "ik": 5627,
      "平方": 5628,
      "制造": 5629,
      "长期": 5630,
      "An": 5631,
      "因素": 5632,
      "atch": 5633,
      "设备": 5634,
      "2010": 5635,
      "当地": 5636,
      "ason": 5637,
      "多数": 5638,
      "ually": 5639,
      "▁being": 5640,
      "专家": 5641,
      "取得": 5642,
      "的高": 5643,
      "▁end": 5644,
      "加入": 5645,
      "董事": 5646,
      "股东": 5647,
      "chn": 5648,
      "公布": 5649,
      "500": 5650,
      "way": 5651,
      "▁sim": 5652,
      "    ": 5653,
      "移动": 5654,
      "语言": 5655,
      "▁New": 5656,
      "▁those": 5657,
      "相信": 5658,
      "ins": 5659,
      "▁|": 5660,
      "多的": 5661,
      "▁used": 5662,
      "问答社区": 5663,
      "6月": 5664,
      "此外": 5665,
      "几乎": 5666,
      "▁before": 5667,
      "▁Al": 5668,
      "▁loc": 5669,
      "支付": 5670,
      "独立": 5671,
      "有什么": 5672,
      "ier": 5673,
      "uc": 5674,
      "对方": 5675,
      "▁som": 5676,
      "大量": 5677,
      "利润": 5678,
      "arm": 5679,
      "rest": 5680,
      "▁call": 5681,
      "区域": 5682,
      "意义": 5683,
      "平均": 5684,
      "▁trans": 5685,
      "ee": 5686,
      "坚持": 5687,
      "▁在": 5688,
      "减少": 5689,
      "消费者": 5690,
      "医生": 5691,
      "共同": 5692,
      "过程中": 5693,
      "以前": 5694,
      "ina": 5695,
      "男子": 5696,
      "ues": 5697,
      "可是": 5698,
      "88": 5699,
      "ouse": 5700,
      "而是": 5701,
      "针对": 5702,
      "▁person": 5703,
      "pen": 5704,
      "工业": 5705,
      "适合": 5706,
      "执行": 5707,
      "▁really": 5708,
      "运营": 5709,
      "于是": 5710,
      "下降": 5711,
      "照片": 5712,
      "我是": 5713,
      "▁disc": 5714,
      "也会": 5715,
      "我国": 5716,
      "▁love": 5717,
      "事情": 5718,
      "▁world": 5719,
      "尤其": 5720,
      "▁[": 5721,
      "We": 5722,
      "ince": 5723,
      "land": 5724,
      "曾经": 5725,
      "面对": 5726,
      "结合": 5727,
      "他们的": 5728,
      "球队": 5729,
      "成了": 5730,
      "广告": 5731,
      "▁fam": 5732,
      "ize": 5733,
      "相对": 5734,
      "自由": 5735,
      "▁If": 5736,
      "▁last": 5737,
      "再次": 5738,
      "欧洲": 5739,
      "36": 5740,
      "整体": 5741,
      "分享": 5742,
      "▁inte": 5743,
      "规划": 5744,
      "ivers": 5745,
      "突然": 5746,
      "▁inter": 5747,
      "▁ra": 5748,
      "ving": 5749,
      "▁home": 5750,
      "无论": 5751,
      "▁art": 5752,
      "动力": 5753,
      "▁life": 5754,
      "中文": 5755,
      "我觉得": 5756,
      "她的": 5757,
      "办法": 5758,
      "',": 5759,
      "ather": 5760,
      "预计": 5761,
      "▁design": 5762,
      "iel": 5763,
      "▁requ": 5764,
      "8月": 5765,
      "▁det": 5766,
      "▁form": 5767,
      "肯定": 5768,
      "▁hand": 5769,
      "▁Tr": 5770,
      "十分": 5771,
      "深圳": 5772,
      "▁Ar": 5773,
      "到底": 5774,
      "经理": 5775,
      "au": 5776,
      "ever": 5777,
      "核心": 5778,
      "self": 5779,
      "不错": 5780,
      "▁though": 5781,
      "德国": 5782,
      "世纪": 5783,
      "速度": 5784,
      "br": 5785,
      "另一": 5786,
      "开展": 5787,
      "让人": 5788,
      "man": 5789,
      "▁.": 5790,
      "战略": 5791,
      "值得": 5792,
      "gram": 5793,
      "▁Cl": 5794,
      "ene": 5795,
      "是不是": 5796,
      "read": 5797,
      "ars": 5798,
      "▁av": 5799,
      "▁pol": 5800,
      "连续": 5801,
      "韩国": 5802,
      "季度": 5803,
      "arn": 5804,
      "翻译": 5805,
      "保证": 5806,
      "下午": 5807,
      "软件": 5808,
      "▁sub": 5809,
      "行政": 5810,
      "▁med": 5811,
      "cept": 5812,
      "找到": 5813,
      "led": 5814,
      "理论": 5815,
      "tt": 5816,
      "一个人": 5817,
      "12月": 5818,
      "enc": 5819,
      "我想": 5820,
      "55": 5821,
      "iet": 5822,
      "ton": 5823,
      "ages": 5824,
      "题主": 5825,
      "irect": 5826,
      "▁say": 5827,
      "进行了": 5828,
      "罗斯": 5829,
      "来源": 5830,
      "比例": 5831,
      "ution": 5832,
      "网上": 5833,
      "akes": 5834,
      "的新": 5835,
      "▁def": 5836,
      "▁num": 5837,
      "▁ext": 5838,
      "快速": 5839,
      "▁count": 5840,
      "ute": 5841,
      "▁post": 5842,
      "有点": 5843,
      "ox": 5844,
      "赛季": 5845,
      "公司的": 5846,
      "交流": 5847,
      "是一种": 5848,
      "▁sl": 5849,
      "认识": 5850,
      "的事情": 5851,
      "行动": 5852,
      "用于": 5853,
      "制作": 5854,
      "▁going": 5855,
      "民警": 5856,
      "资料": 5857,
      "ublic": 5858,
      "自动": 5859,
      "网友": 5860,
      "▁cre": 5861,
      "▁cur": 5862,
      "▁business": 5863,
      "ex": 5864,
      "imes": 5865,
      "▁你": 5866,
      "全面": 5867,
      "第一次": 5868,
      "▁But": 5869,
      "ives": 5870,
      "ality": 5871,
      "预期": 5872,
      "riend": 5873,
      "▁still": 5874,
      "oh": 5875,
      "儿子": 5876,
      "5月": 5877,
      "This": 5878,
      "▁str": 5879,
      "这个问题": 5880,
      "冠军": 5881,
      "二十": 5882,
      "ds": 5883,
      "ween": 5884,
      "确实": 5885,
      "▁mem": 5886,
      "患者": 5887,
      "免费": 5888,
      "▁different": 5889,
      "▁ser": 5890,
      "检查": 5891,
      "一名": 5892,
      "▁As": 5893,
      "ww": 5894,
      "公安": 5895,
      "体系": 5896,
      "▁sign": 5897,
      "11月": 5898,
      "这次": 5899,
      "我就": 5900,
      "▁char": 5901,
      "数量": 5902,
      "48": 5903,
      "驾驶": 5904,
      "意见": 5905,
      "▁ed": 5906,
      "公开": 5907,
      "根本": 5908,
      "最大的": 5909,
      "相当": 5910,
      "意思": 5911,
      "医疗": 5912,
      "酒店": 5913,
      "会有": 5914,
      "ature": 5915,
      "▁while": 5916,
      "oad": 5917,
      "法国": 5918,
      "趋势": 5919,
      "等等": 5920,
      "一位": 5921,
      "车辆": 5922,
      "37": 5923,
      "利亚": 5924,
      "38": 5925,
      "▁point": 5926,
      "家长": 5927,
      "类似": 5928,
      "每个": 5929,
      "加强": 5930,
      "▁For": 5931,
      "本次": 5932,
      "一家": 5933,
      "以为": 5934,
      "训练": 5935,
      "It": 5936,
      "▁product": 5937,
      "新浪": 5938,
      "行的": 5939,
      "198": 5940,
      "▁ret": 5941,
      "时期": 5942,
      "想要": 5943,
      "节目": 5944,
      "程序": 5945,
      "ittle": 5946,
      "都在": 5947,
      "类型": 5948,
      "▁each": 5949,
      "男人": 5950,
      "con": 5951,
      "▁vis": 5952,
      "▁/": 5953,
      "▁gl": 5954,
      "的影响": 5955,
      "并没有": 5956,
      "考生": 5957,
      "▁information": 5958,
      "形式": 5959,
      "▁请": 5960,
      "基于": 5961,
      "300": 5962,
      "的地方": 5963,
      "降低": 5964,
      "▁same": 5965,
      "指出": 5966,
      "大部分": 5967,
      "▁aut": 5968,
      "说的": 5969,
      "▁around": 5970,
      "的时间": 5971,
      "▁between": 5972,
      "▁Q": 5973,
      "同样": 5974,
      "证明": 5975,
      "**": 5976,
      "遇到": 5977,
      "Wh": 5978,
      "34": 5979,
      "▁exp": 5980,
      "ved": 5981,
      "双方": 5982,
      "费用": 5983,
      "相比": 5984,
      "高的": 5985,
      "）、": 5986,
      "父亲": 5987,
      "▁child": 5988,
      "半年": 5989,
      "▁lead": 5990,
      "英语": 5991,
      "身份": 5992,
      "怎样": 5993,
      "ology": 5994,
      "为主": 5995,
      "实验": 5996,
      "广州": 5997,
      "团队": 5998,
      "▁feel": 5999,
      "是个": 6000,
      "▁found": 6001,
      "宣布": 6002,
      "判断": 6003,
      "事实": 6004,
      "lease": 6005,
      "ness": 6006,
      "合同": 6007,
      "▁sk": 6008,
      "▁comple": 6009,
      "生命": 6010,
      "ows": 6011,
      "子的": 6012,
      "2010年": 6013,
      "依然": 6014,
      "讨论": 6015,
      "▁cour": 6016,
      "符合": 6017,
      "引起": 6018,
      "女性": 6019,
      "是因为": 6020,
      "▁lot": 6021,
      "▁book": 6022,
      "色的": 6023,
      "ways": 6024,
      "◆◆": 6025,
      "商品": 6026,
      "▁data": 6027,
      "里面": 6028,
      "足球": 6029,
      "年代": 6030,
      "明确": 6031,
      "反应": 6032,
      "。“": 6033,
      "居民": 6034,
      "▁Ad": 6035,
      "ters": 6036,
      "任务": 6037,
      "不同的": 6038,
      "gg": 6039,
      "ern": 6040,
      "娱乐": 6041,
      "如果你": 6042,
      "满足": 6043,
      ".\"": 6044,
      "委员会": 6045,
      "▁adv": 6046,
      "▁process": 6047,
      "重新": 6048,
      "意识": 6049,
      "▁run": 6050,
      "三个": 6051,
      "▁cle": 6052,
      "欢迎": 6053,
      "晚上": 6054,
      "贷款": 6055,
      "ames": 6056,
      "最好": 6057,
      "be": 6058,
      "▁inf": 6059,
      "ital": 6060,
      "成员": 6061,
      "现象": 6062,
      "ody": 6063,
      "▁cr": 6064,
      "此次": 6065,
      "想到": 6066,
      "中华": 6067,
      "本人": 6068,
      "▁cor": 6069,
      "习惯": 6070,
      "75": 6071,
      "1月": 6072,
      "统计": 6073,
      "苹果": 6074,
      "ized": 6075,
      "▁team": 6076,
      "看看": 6077,
      "员工": 6078,
      "▁happ": 6079,
      "愿意": 6080,
      "尽管": 6081,
      "ism": 6082,
      "很多人": 6083,
      "▁care": 6084,
      "▁Le": 6085,
      "保障": 6086,
      "meric": 6087,
      "▁rep": 6088,
      "兴趣": 6089,
      "法院": 6090,
      "生物": 6091,
      "处于": 6092,
      "测试": 6093,
      "用的": 6094,
      "ets": 6095,
      "主任": 6096,
      "开放": 6097,
      "风格": 6098,
      "儿童": 6099,
      "咨询": 6100,
      "oot": 6101,
      "ional": 6102,
      "▁support": 6103,
      "▁both": 6104,
      "39": 6105,
      "▁eas": 6106,
      "▁Be": 6107,
      "uss": 6108,
      "协议": 6109,
      "▁free": 6110,
      "解释": 6111,
      "它们": 6112,
      "昨日": 6113,
      ")，": 6114,
      "让我": 6115,
      "▁market": 6116,
      "内的": 6117,
      "所谓": 6118,
      "能源": 6119,
      "家里": 6120,
      "房地产": 6121,
      "成长": 6122,
      "至少": 6123,
      "宣传": 6124,
      "化的": 6125,
      "▁week": 6126,
      "仍然": 6127,
      "▁effect": 6128,
      "▁Bl": 6129,
      "ok": 6130,
      "▁real": 6131,
      "ger": 6132,
      "▁three": 6133,
      "▁top": 6134,
      "民族": 6135,
      "!!": 6136,
      "随后": 6137,
      "▁ob": 6138,
      "女生": 6139,
      "丰富": 6140,
      "参考": 6141,
      "阅读": 6142,
      "the": 6143,
      "ER": 6144,
      "吸引": 6145,
      "▁techn": 6146,
      "me": 6147,
      "一定要": 6148,
      "▁list": 6149,
      "称为": 6150,
      "重大": 6151,
      "▁result": 6152,
      "▁fact": 6153,
      "在一起": 6154,
      "今日": 6155,
      "人类": 6156,
      "▁import": 6157,
      "不了": 6158,
      "办公": 6159,
      "推进": 6160,
      "▁gener": 6161,
      "mm": 6162,
      "事业": 6163,
      "ustom": 6164,
      "结婚": 6165,
      "49": 6166,
      "报名": 6167,
      "iqu": 6168,
      "▁few": 6169,
      "、《": 6170,
      "▁place": 6171,
      "也可以": 6172,
      "就可以": 6173,
      "2009年": 6174,
      "电脑": 6175,
      "▁Pl": 6176,
      "AT": 6177,
      "ten": 6178,
      "ote": 6179,
      "32": 6180,
      "优秀": 6181,
      "unity": 6182,
      "年来": 6183,
      "重要的": 6184,
      "让你": 6185,
      "▁Z": 6186,
      "▁pat": 6187,
      "警方": 6188,
      "避免": 6189,
      "blem": 6190,
      "合理": 6191,
      "▁val": 6192,
      "行情": 6193,
      "▁12": 6194,
      "▁lar": 6195,
      "▁del": 6196,
      "▁little": 6197,
      "▁ty": 6198,
      "ann": 6199,
      "食品": 6200,
      "66": 6201,
      "家的": 6202,
      "▁provid": 6203,
      "现实": 6204,
      "总是": 6205,
      "▁They": 6206,
      "less": 6207,
      "表明": 6208,
      "、“": 6209,
      "离开": 6210,
      "本身": 6211,
      "角度": 6212,
      "PP": 6213,
      "真实": 6214,
      "85": 6215,
      "配置": 6216,
      "距离": 6217,
      "培训": 6218,
      "图片": 6219,
      "ps": 6220,
      "ants": 6221,
      "vern": 6222,
      "▁sol": 6223,
      "去了": 6224,
      "女人": 6225,
      "▁Se": 6226,
      "来了": 6227,
      "昨天": 6228,
      "概念": 6229,
      "力的": 6230,
      "俄罗斯": 6231,
      "▁using": 6232,
      "清楚": 6233,
      "拍摄": 6234,
      "▁dep": 6235,
      "加上": 6236,
      "首次": 6237,
      "▁things": 6238,
      "▁fr": 6239,
      "犯罪": 6240,
      "即使": 6241,
      "一天": 6242,
      "人生": 6243,
      "很难": 6244,
      "官方": 6245,
      "母亲": 6246,
      "力量": 6247,
      "ruct": 6248,
      "推动": 6249,
      "▁month": 6250,
      "▁fil": 6251,
      "监管": 6252,
      "措施": 6253,
      "▁program": 6254,
      "els": 6255,
      "thing": 6256,
      "有一个": 6257,
      "及时": 6258,
      "大会": 6259,
      "▁prof": 6260,
      "突破": 6261,
      "--------------------------------": 6262,
      "ves": 6263,
      "▁On": 6264,
      "2000": 6265,
      "利益": 6266,
      "▁main": 6267,
      "各位": 6268,
      "而言": 6269,
      "5日": 6270,
      "作者": 6271,
      "句话": 6272,
      "的主": 6273,
      "▁ide": 6274,
      "很好": 6275,
      "2013年": 6276,
      "app": 6277,
      "安排": 6278,
      "ired": 6279,
      "有了": 6280,
      "黄金": 6281,
      "ci": 6282,
      "ining": 6283,
      "ross": 6284,
      "的发展": 6285,
      "有没有": 6286,
      "如今": 6287,
      "下跌": 6288,
      "亿美元": 6289,
      "印度": 6290,
      "ething": 6291,
      "不足": 6292,
      "▁ear": 6293,
      "名的": 6294,
      "▁—": 6295,
      "思想": 6296,
      "同比": 6297,
      "gy": 6298,
      "▁water": 6299,
      "65": 6300,
      "上了": 6301,
      "战争": 6302,
      "人物": 6303,
      "动物": 6304,
      "还要": 6305,
      "绝对": 6306,
      "de": 6307,
      "补充": 6308,
      "▁var": 6309,
      "宝宝": 6310,
      "orn": 6311,
      "三年": 6312,
      "运行": 6313,
      "ined": 6314,
      "▁full": 6315,
      "推出": 6316,
      "ural": 6317,
      "cent": 6318,
      "▁put": 6319,
      "创造": 6320,
      "rol": 6321,
      "担任": 6322,
      "背景": 6323,
      "高速": 6324,
      "▁state": 6325,
      "▁dist": 6326,
      "最佳": 6327,
      "大概": 6328,
      "进度": 6329,
      "指导": 6330,
      "▁cap": 6331,
      "▁problem": 6332,
      "▁cent": 6333,
      "性能": 6334,
      "我也": 6335,
      "▁better": 6336,
      "中国的": 6337,
      "集中": 6338,
      "▁class": 6339,
      "”“": 6340,
      "▁school": 6341,
      "▁come": 6342,
      "例如": 6343,
      "▁Americ": 6344,
      "岁的": 6345,
      "很大": 6346,
      "融资": 6347,
      ",”": 6348,
      "aj": 6349,
      "句子": 6350,
      "近日": 6351,
      "▁big": 6352,
      "▁X": 6353,
      "▁try": 6354,
      "联赛": 6355,
      "▁keep": 6356,
      "Re": 6357,
      "ists": 6358,
      "两人": 6359,
      "铁路": 6360,
      "似乎": 6361,
      "内部": 6362,
      "下面": 6363,
      "表达": 6364,
      "促进": 6365,
      "成交": 6366,
      "reen": 6367,
      "IN": 6368,
      "举行": 6369,
      "▁el": 6370,
      "to": 6371,
      "生态": 6372,
      "第四": 6373,
      "通常": 6374,
      "▁Ex": 6375,
      "我不": 6376,
      "往往": 6377,
      "高中": 6378,
      "▁open": 6379,
      "ared": 6380,
      "▁got": 6381,
      "2011年": 6382,
      "他在": 6383,
      "组合": 6384,
      "过的": 6385,
      "▁always": 6386,
      "公共": 6387,
      "▁pur": 6388,
      "记录": 6389,
      "业绩": 6390,
      "它的": 6391,
      "▁Gr": 6392,
      "广东": 6393,
      "时尚": 6394,
      "大多数": 6395,
      "发动": 6396,
      "有所": 6397,
      "观点": 6398,
      "之外": 6399,
      "采取": 6400,
      "就能": 6401,
      "公告": 6402,
      "道路": 6403,
      "rist": 6404,
      "设施": 6405,
      "机制": 6406,
      "看待": 6407,
      "St": 6408,
      "31": 6409,
      "▁report": 6410,
      "的工作": 6411,
      "Ph": 6412,
      "▁ref": 6413,
      "\",": 6414,
      "正确": 6415,
      "特点": 6416,
      "▁●": 6417,
      "▁friend": 6418,
      "公众": 6419,
      "通知": 6420,
      "ention": 6421,
      "aut": 6422,
      "▁15": 6423,
      "46": 6424,
      "▁est": 6425,
      "原油": 6426,
      "▁small": 6427,
      "对手": 6428,
      "机关": 6429,
      "iving": 6430,
      "▁How": 6431,
      "逐渐": 6432,
      "工具": 6433,
      "▁must": 6434,
      "群众": 6435,
      "▁quest": 6436,
      "▁during": 6437,
      "ished": 6438,
      "8日": 6439,
      "上升": 6440,
      "排名": 6441,
      "▁something": 6442,
      "女士": 6443,
      "▁poss": 6444,
      "唯一": 6445,
      "47": 6446,
      "死亡": 6447,
      "ically": 6448,
      "ted": 6449,
      "打造": 6450,
      "▁appro": 6451,
      "▁Sc": 6452,
      "▁There": 6453,
      "他说": 6454,
      "不用": 6455,
      "oney": 6456,
      "iversity": 6457,
      "投入": 6458,
      "AC": 6459,
      "▁health": 6460,
      "近期": 6461,
      "就在": 6462,
      "bers": 6463,
      "卫生": 6464,
      "上午": 6465,
      "▁So": 6466,
      "会计": 6467,
      "▁18": 6468,
      "做好": 6469,
      "车型": 6470,
      "高考": 6471,
      "升级": 6472,
      "▁won": 6473,
      "▁old": 6474,
      "女儿": 6475,
      "ST": 6476,
      "看了": 6477,
      "▁plan": 6478,
      "6日": 6479,
      "教师": 6480,
      "▁conf": 6481,
      "观察": 6482,
      "▁wom": 6483,
      "ailable": 6484,
      "lish": 6485,
      "土地": 6486,
      "▁group": 6487,
      "给我": 6488,
      "指标": 6489,
      "有多": 6490,
      "AR": 6491,
      "方便": 6492,
      "▁opt": 6493,
      "态度": 6494,
      "每次": 6495,
      "自身": 6496,
      "感受": 6497,
      "ple": 6498,
      "▁rest": 6499,
      "之间的": 6500,
      "▁following": 6501,
      "明星": 6502,
      "识别": 6503,
      "ior": 6504,
      "终于": 6505,
      "▁Fr": 6506,
      "从而": 6507,
      "角色": 6508,
      "▁interest": 6509,
      "uck": 6510,
      "▁resp": 6511,
      "队和": 6512,
      "也就是": 6513,
      "那种": 6514,
      "数字": 6515,
      "市场的": 6516,
      "必要": 6517,
      "2016": 6518,
      "▁never": 6519,
      "▁Ph": 6520,
      "主动": 6521,
      "名字": 6522,
      "▁soc": 6523,
      "▁next": 6524,
      "发挥": 6525,
      "货币": 6526,
      "身边": 6527,
      "▁partic": 6528,
      "发表": 6529,
      "感谢": 6530,
      "股权": 6531,
      "▁hard": 6532,
      "几年": 6533,
      "组成": 6534,
      "更是": 6535,
      "aper": 6536,
      "观众": 6537,
      "并不是": 6538,
      "ision": 6539,
      "▁iss": 6540,
      "ai": 6541,
      "资格": 6542,
      "我在": 6543,
      "哈哈": 6544,
      "ope": 6545,
      "演员": 6546,
      "▁，": 6547,
      "ED": 6548,
      "Ch": 6549,
      "实体": 6550,
      "ling": 6551,
      "》、《": 6552,
      "工资": 6553,
      "南京": 6554,
      "还在": 6555,
      "▁contin": 6556,
      "感情": 6557,
      "▁tri": 6558,
      "sh": 6559,
      "不管": 6560,
      "▁其": 6561,
      "▁stand": 6562,
      "也许": 6563,
      "变得": 6564,
      "▁another": 6565,
      "▁without": 6566,
      "▁la": 6567,
      "▁pass": 6568,
      "将在": 6569,
      "充分": 6570,
      "7日": 6571,
      "rence": 6572,
      "每年": 6573,
      "ering": 6574,
      "迅速": 6575,
      "细胞": 6576,
      "stand": 6577,
      "▁Con": 6578,
      "▁company": 6579,
      "ense": 6580,
      "▁head": 6581,
      "在第": 6582,
      "▁let": 6583,
      "恢复": 6584,
      "总统": 6585,
      "▁Te": 6586,
      "att": 6587,
      "一切": 6588,
      "BA": 6589,
      "培养": 6590,
      "市民": 6591,
      "und": 6592,
      "▁wr": 6593,
      "▁She": 6594,
      "老板": 6595,
      "心的": 6596,
      "教授": 6597,
      "▁game": 6598,
      "He": 6599,
      "场比赛": 6600,
      "小学": 6601,
      "财务": 6602,
      "就像": 6603,
      "▁might": 6604,
      "老人": 6605,
      "情绪": 6606,
      "▁年": 6607,
      "负责人": 6608,
      "▁incre": 6609,
      "农业": 6610,
      "▁To": 6611,
      "▁second": 6612,
      "书记": 6613,
      "事故": 6614,
      "幸福": 6615,
      "将会": 6616,
      "的方式": 6617,
      "的不": 6618,
      "可能会": 6619,
      "ats": 6620,
      "更新": 6621,
      "44": 6622,
      "的重要": 6623,
      "大幅": 6624,
      "采访": 6625,
      "改善": 6626,
      "▁ve": 6627,
      "出生": 6628,
      "课程": 6629,
      "至于": 6630,
      "ral": 6631,
      "▁project": 6632,
      "状况": 6633,
      "是不": 6634,
      "▁since": 6635,
      "PS": 6636,
      "ON": 6637,
      "的东西": 6638,
      "涉及": 6639,
      "ium": 6640,
      "两年": 6641,
      "ield": 6642,
      "协会": 6643,
      "二维": 6644,
      "ethod": 6645,
      "▁build": 6646,
      "疾病": 6647,
      "段时间": 6648,
      "机器": 6649,
      "策略": 6650,
      "毕竟": 6651,
      "使得": 6652,
      "食物": 6653,
      "▁Eng": 6654,
      "▁test": 6655,
      "对象": 6656,
      "raph": 6657,
      "2008年": 6658,
      "面临": 6659,
      "支撑": 6660,
      "营销": 6661,
      "最新": 6662,
      "者的": 6663,
      "oard": 6664,
      "此前": 6665,
      "享受": 6666,
      "农村": 6667,
      "▁family": 6668,
      "接触": 6669,
      "定的": 6670,
      "▁mov": 6671,
      "注册": 6672,
      "▁number": 6673,
      "文件": 6674,
      "▁pri": 6675,
      "ode": 6676,
      "模型": 6677,
      "不知": 6678,
      "尤其是": 6679,
      "航空": 6680,
      "▁pay": 6681,
      "统一": 6682,
      "▁Ind": 6683,
      "收购": 6684,
      "感到": 6685,
      "▁dri": 6686,
      "透露": 6687,
      "衣服": 6688,
      "截至": 6689,
      "及其": 6690,
      "95": 6691,
      "▁direct": 6692,
      "\":": 6693,
      "co": 6694,
      "ron": 6695,
      "也没有": 6696,
      "▁expl": 6697,
      "不再": 6698,
      "的前": 6699,
      "▁custom": 6700,
      "实在": 6701,
      "房子": 6702,
      "ush": 6703,
      "放在": 6704,
      "谢谢": 6705,
      "到的": 6706,
      "年龄": 6707,
      "意味": 6708,
      "▁organ": 6709,
      "▁sure": 6710,
      "▁important": 6711,
      "担心": 6712,
      "▁invest": 6713,
      "在中国": 6714,
      "的好": 6715,
      "eng": 6716,
      "亚洲": 6717,
      "▁bro": 6718,
      "描述": 6719,
      "出去": 6720,
      "山东": 6721,
      "ences": 6722,
      "令人": 6723,
      "十年": 6724,
      "”、“": 6725,
      "ertain": 6726,
      "回家": 6727,
      "主席": 6728,
      "上述": 6729,
      "==": 6730,
      "ploy": 6731,
      "ator": 6732,
      "困难": 6733,
      "▁rese": 6734,
      "原则": 6735,
      "商务": 6736,
      "▁perform": 6737,
      "3日": 6738,
      "翻译成": 6739,
      "ered": 6740,
      "比分为": 6741,
      "____": 6742,
      "十二": 6743,
      "重庆": 6744,
      "家人": 6745,
      "公园": 6746,
      "▁power": 6747,
      "68": 6748,
      "2月": 6749,
      "▁level": 6750,
      "爱情": 6751,
      "想法": 6752,
      "的朋友": 6753,
      "对此": 6754,
      "飞机": 6755,
      "ases": 6756,
      "太多": 6757,
      "挑战": 6758,
      "▁:": 6759,
      "很有": 6760,
      "illion": 6761,
      "教学": 6762,
      "▁All": 6763,
      "皮肤": 6764,
      "时的": 6765,
      "评论为": 6766,
      "▁Is": 6767,
      "分布": 6768,
      "400": 6769,
      "限制": 6770,
      "完善": 6771,
      "▁11": 6772,
      "队和第二": 6773,
      "比赛进度": 6774,
      "第一队和第二": 6775,
      "队的比分为": 6776,
      "现场评论为": 6777,
      "第一队和第二队的比分为": 6778,
      "动作": 6779,
      "来到": 6780,
      "ency": 6781,
      "玩家": 6782,
      "复杂": 6783,
      "You": 6784,
      "4日": 6785,
      "板块": 6786,
      "inal": 6787,
      "哪里": 6788,
      "IT": 6789,
      "规范": 6790,
      "供应": 6791,
      "二维码": 6792,
      "ccess": 6793,
      "搭配": 6794,
      "AN": 6795,
      "数学": 6796,
      "▁ask": 6797,
      "▁give": 6798,
      "by": 6799,
      "9日": 6800,
      "财政": 6801,
      "▁di": 6802,
      "变成": 6803,
      "▁online": 6804,
      "ley": 6805,
      "的原因": 6806,
      "大陆": 6807,
      "金额": 6808,
      "才是": 6809,
      "维持": 6810,
      "▁available": 6811,
      "▁cost": 6812,
      "启动": 6813,
      "经典": 6814,
      "▁pos": 6815,
      "地位": 6816,
      "债券": 6817,
      "▁es": 6818,
      "好像": 6819,
      "ately": 6820,
      "▁30": 6821,
      "ery": 6822,
      "更多的": 6823,
      "难以": 6824,
      "联盟": 6825,
      "ients": 6826,
      "icle": 6827,
      "直到": 6828,
      "案件": 6829,
      "特殊": 6830,
      "ember": 6831,
      "▁opp": 6832,
      "编辑": 6833,
      "的情况下": 6834,
      "人才": 6835,
      "身上": 6836,
      "▁says": 6837,
      "不多": 6838,
      "高度": 6839,
      "设置": 6840,
      "▁Col": 6841,
      "点击": 6842,
      "ID": 6843,
      "▁service": 6844,
      "OS": 6845,
      "有个": 6846,
      "pos": 6847,
      "197": 6848,
      "▁days": 6849,
      "ware": 6850,
      "▁《": 6851,
      "▁including": 6852,
      "研发": 6853,
      "国外": 6854,
      "就业": 6855,
      "2012年": 6856,
      "出口": 6857,
      "放弃": 6858,
      "教练": 6859,
      "当前": 6860,
      "出版": 6861,
      "▁anal": 6862,
      "▁experience": 6863,
      "当年": 6864,
      "▁（": 6865,
      "本文": 6866,
      "▁less": 6867,
      "▁grow": 6868,
      "ott": 6869,
      "做的": 6870,
      "▁Res": 6871,
      "98": 6872,
      "类的": 6873,
      "▁bre": 6874,
      "ump": 6875,
      "outh": 6876,
      "▁sit": 6877,
      "男生": 6878,
      "▁equ": 6879,
      "▁public": 6880,
      "▁light": 6881,
      "▁win": 6882,
      "ization": 6883,
      "看来": 6884,
      "特征": 6885,
      "多年": 6886,
      "▁‘": 6887,
      "min": 6888,
      "浙江": 6889,
      "实力": 6890,
      "心里": 6891,
      "▁seem": 6892,
      "ript": 6893,
      "手术": 6894,
      "强调": 6895,
      "办理": 6896,
      "方面的": 6897,
      "文学": 6898,
      "多次": 6899,
      "在于": 6900,
      "▁,": 6901,
      "▁met": 6902,
      "tain": 6903,
      "成都": 6904,
      "危机": 6905,
      "多个": 6906,
      "短期": 6907,
      "如下": 6908,
      "女子": 6909,
      "在这": 6910,
      "共和": 6911,
      "And": 6912,
      "▁mus": 6913,
      "搜索": 6914,
      "▁Sp": 6915,
      "天津": 6916,
      "现金": 6917,
      "irl": 6918,
      "▁为什么": 6919,
      "举办": 6920,
      "就不": 6921,
      "英文": 6922,
      "600": 6923,
      "即可": 6924,
      "怎样的": 6925,
      "ours": 6926,
      "平时": 6927,
      "明白": 6928,
      "▁prot": 6929,
      "▁Or": 6930,
      "▁belie": 6931,
      "永远": 6932,
      "司机": 6933,
      "78": 6934,
      "▁US": 6935,
      "If": 6936,
      "1000": 6937,
      "▁oper": 6938,
      "拒绝": 6939,
      "可能是": 6940,
      "工作人员": 6941,
      "股市": 6942,
      "▁rece": 6943,
      "▁的": 6944,
      "严格": 6945,
      "一旦": 6946,
      "粉丝": 6947,
      "爸爸": 6948,
      "份额": 6949,
      "金属": 6950,
      "刚刚": 6951,
      "空气": 6952,
      "05": 6953,
      "▁against": 6954,
      "登记": 6955,
      "中学": 6956,
      "sc": 6957,
      "女孩": 6958,
      "oint": 6959,
      "公路": 6960,
      "好了": 6961,
      "物质": 6962,
      "青年": 6963,
      "▁sent": 6964,
      "太阳": 6965,
      "book": 6966,
      "量的": 6967,
      "ret": 6968,
      "反对": 6969,
      "下去": 6970,
      "机场": 6971,
      "我说": 6972,
      "贡献": 6973,
      "10月2": 6974,
      "ane": 6975,
      "现在的": 6976,
      "一条": 6977,
      "▁bas": 6978,
      "▁hum": 6979,
      "形象": 6980,
      "▁En": 6981,
      "最好的": 6982,
      "▁kind": 6983,
      ",\"": 6984,
      "提醒": 6985,
      "超级": 6986,
      "就要": 6987,
      "ream": 6988,
      "提前": 6989,
      "输入": 6990,
      "58": 6991,
      "规则": 6992,
      "nect": 6993,
      "回到": 6994,
      "信用": 6995,
      "gin": 6996,
      "优惠": 6997,
      "▁able": 6998,
      "小的": 6999,
      "let": 7000,
      "追求": 7001,
      "车站": 7002,
      "至今": 7003,
      "期货": 7004,
      "IS": 7005,
      "天气": 7006,
      "思考": 7007,
      "利率": 7008,
      "所在": 7009,
      "▁Man": 7010,
      "ivid": 7011,
      "▁par": 7012,
      "给你": 7013,
      "yn": 7014,
      "▁current": 7015,
      "发展的": 7016,
      "四川": 7017,
      "乐部": 7018,
      "▁job": 7019,
      "▁room": 7020,
      "42": 7021,
      "iron": 7022,
      "▁Mar": 7023,
      "都能": 7024,
      "▁const": 7025,
      "▁leg": 7026,
      "俱乐部": 7027,
      "vernment": 7028,
      "conom": 7029,
      "实际上": 7030,
      "特色": 7031,
      "普遍": 7032,
      "打开": 7033,
      "▁view": 7034,
      "在此": 7035,
      "ably": 7036,
      "百度": 7037,
      "77": 7038,
      "渠道": 7039,
      "of": 7040,
      "确认": 7041,
      "意味着": 7042,
      "▁z": 7043,
      "出来的": 7044,
      "▁proper": 7045,
      "干部": 7046,
      "决赛": 7047,
      "▁order": 7048,
      "召开": 7049,
      "记得": 7050,
      "长的": 7051,
      "美的": 7052,
      "损失": 7053,
      "▁sing": 7054,
      "▁mat": 7055,
      "怎么办": 7056,
      "植物": 7057,
      "营业": 7058,
      "ids": 7059,
      "原来": 7060,
      "▁area": 7061,
      "她们": 7062,
      "大利": 7063,
      "当天": 7064,
      "推广": 7065,
      "特别是": 7066,
      "环保": 7067,
      "细节": 7068,
      "深入": 7069,
      "IC": 7070,
      "做了": 7071,
      "▁turn": 7072,
      "▁law": 7073,
      "监督": 7074,
      "走势": 7075,
      "orth": 7076,
      "少年": 7077,
      "声音": 7078,
      "盈利": 7079,
      "有着": 7080,
      "▁present": 7081,
      "报记者": 7082,
      "错误": 7083,
      "ohn": 7084,
      "▁dem": 7085,
      "分配": 7086,
      "做到": 7087,
      "▁pop": 7088,
      "从事": 7089,
      "东北": 7090,
      "几天": 7091,
      "电动": 7092,
      "主持": 7093,
      "▁method": 7094,
      "▁sal": 7095,
      "ards": 7096,
      "ability": 7097,
      "也在": 7098,
      "▁mar": 7099,
      "理由": 7100,
      "中间": 7101,
      "人在": 7102,
      "20日": 7103,
      "大型": 7104,
      "▁meet": 7105,
      "自我": 7106,
      "展示": 7107,
      "成熟": 7108,
      "enn": 7109,
      "很快": 7110,
      "配合": 7111,
      "反弹": 7112,
      "▁eng": 7113,
      "反映": 7114,
      "ipp": 7115,
      "认真": 7116,
      "回复": 7117,
      "地的": 7118,
      "最低": 7119,
      "都要": 7120,
      "▁That": 7121,
      "▁away": 7122,
      "rodu": 7123,
      "▁food": 7124,
      "主题": 7125,
      "论坛": 7126,
      "▁applic": 7127,
      "本科": 7128,
      "即将": 7129,
      "也没": 7130,
      "贸易": 7131,
      "ified": 7132,
      "ample": 7133,
      "til": 7134,
      "不如": 7135,
      "预测": 7136,
      "agement": 7137,
      "相同": 7138,
      "孩子的": 7139,
      "med": 7140,
      "gle": 7141,
      "▁prev": 7142,
      "，《": 7143,
      "▁thing": 7144,
      "是我": 7145,
      "▁impro": 7146,
      "文明": 7147,
      "发动机": 7148,
      "work": 7149,
      "给予": 7150,
      "引发": 7151,
      "共有": 7152,
      "或许": 7153,
      "不想": 7154,
      "导演": 7155,
      "▁aff": 7156,
      "日常": 7157,
      "信号": 7158,
      "▁phot": 7159,
      "IP": 7160,
      "ently": 7161,
      "效率": 7162,
      "前往": 7163,
      "小编": 7164,
      "有很多": 7165,
      "ider": 7166,
      "▁如何评价": 7167,
      "本来": 7168,
      "妻子": 7169,
      "检测": 7170,
      "伙伴": 7171,
      "小区": 7172,
      "43": 7173,
      "uro": 7174,
      "joy": 7175,
      "ised": 7176,
      "ission": 7177,
      "都没有": 7178,
      "更好": 7179,
      "海外": 7180,
      "第一个": 7181,
      "的主要": 7182,
      "▁prom": 7183,
      "直播": 7184,
      "▁money": 7185,
      "▁four": 7186,
      "anks": 7187,
      "aring": 7188,
      "ury": 7189,
      "天然": 7190,
      "不起": 7191,
      "▁today": 7192,
      "邀请": 7193,
      "还能": 7194,
      "ories": 7195,
      "▁pa": 7196,
      "不够": 7197,
      "刺激": 7198,
      "▁case": 7199,
      "▁change": 7200,
      "ries": 7201,
      "平方公里": 7202,
      "hor": 7203,
      "具备": 7204,
      "小说": 7205,
      "ration": 7206,
      "招生": 7207,
      ".,": 7208,
      "▁Comm": 7209,
      "估计": 7210,
      "ording": 7211,
      "所有的": 7212,
      "67": 7213,
      "攻击": 7214,
      "展开": 7215,
      "度的": 7216,
      "》。": 7217,
      "▁ann": 7218,
      "沟通": 7219,
      "地址": 7220,
      "▁intern": 7221,
      "ged": 7222,
      "iver": 7223,
      "por": 7224,
      "接近": 7225,
      "▁No": 7226,
      "▁children": 7227,
      "在线": 7228,
      "掌握": 7229,
      "ES": 7230,
      "摄影": 7231,
      "江苏": 7232,
      "人数": 7233,
      "嫌疑": 7234,
      "带着": 7235,
      "大众": 7236,
      "增强": 7237,
      "lection": 7238,
      ")、": 7239,
      "名为": 7240,
      "▁Cent": 7241,
      "▁why": 7242,
      "augh": 7243,
      "uff": 7244,
      "河南": 7245,
      "aster": 7246,
      "▁large": 7247,
      "污染": 7248,
      "同意": 7249,
      "▁chang": 7250,
      "▁Co": 7251,
      "▁night": 7252,
      "扩大": 7253,
      "化学": 7254,
      "理财": 7255,
      "▁Pr": 7256,
      "▁beh": 7257,
      "我要": 7258,
      "确保": 7259,
      "颜色": 7260,
      "▁hist": 7261,
      "股份有限公司": 7262,
      "yle": 7263,
      "杭州": 7264,
      "▁special": 7265,
      "承担": 7266,
      "▁making": 7267,
      "▁et": 7268,
      "英雄": 7269,
      "▁fac": 7270,
      "ird": 7271,
      "慢慢": 7272,
      "iting": 7273,
      "期待": 7274,
      "▁looking": 7275,
      "▁within": 7276,
      "体的": 7277,
      "说法": 7278,
      "回来": 7279,
      "▁199": 7280,
      "ills": 7281,
      "▁students": 7282,
      "都可以": 7283,
      "oor": 7284,
      "车的": 7285,
      "▁working": 7286,
      "▁16": 7287,
      "应当": 7288,
      "▁Br": 7289,
      "▁past": 7290,
      "itional": 7291,
      "2017年": 7292,
      "fect": 7293,
      "手段": 7294,
      "inc": 7295,
      "▁review": 7296,
      "革命": 7297,
      "load": 7298,
      "▁dr": 7299,
      "过来": 7300,
      "iven": 7301,
      "▁provide": 7302,
      "期的": 7303,
      "本基金": 7304,
      "尝试": 7305,
      "err": 7306,
      "主要是": 7307,
      "▁What": 7308,
      "看着": 7309,
      "旅行": 7310,
      "195": 7311,
      "01": 7312,
      "一场": 7313,
      "学会": 7314,
      "区别": 7315,
      "年度": 7316,
      "版本": 7317,
      "营养": 7318,
      "OR": 7319,
      "轻松": 7320,
      "充满": 7321,
      "ideo": 7322,
      "总结": 7323,
      "吃饭": 7324,
      "▁control": 7325,
      "品质": 7326,
      "▁这": 7327,
      "寻找": 7328,
      "持有": 7329,
      "son": 7330,
      "下面的": 7331,
      "▁air": 7332,
      "件事": 7333,
      "ying": 7334,
      "▁site": 7335,
      "▁cond": 7336,
      "As": 7337,
      "▁pract": 7338,
      "▁Fl": 7339,
      "▁University": 7340,
      "自行": 7341,
      "▁elect": 7342,
      "葡萄": 7343,
      "危险": 7344,
      "专门": 7345,
      "违法": 7346,
      "ains": 7347,
      "地铁": 7348,
      "伤害": 7349,
      "高校": 7350,
      "▁course": 7351,
      "▁name": 7352,
      "194": 7353,
      "▁non": 7354,
      "两种": 7355,
      "志愿": 7356,
      "爱的": 7357,
      "尼亚": 7358,
      "流动": 7359,
      "Phone": 7360,
      "》（": 7361,
      "失败": 7362,
      "地点": 7363,
      "输出": 7364,
      "立即": 7365,
      "而在": 7366,
      "重视": 7367,
      "基地": 7368,
      "▁near": 7369,
      "▁App": 7370,
      "生的": 7371,
      "做出": 7372,
      "千万": 7373,
      "领先": 7374,
      "uper": 7375,
      "oci": 7376,
      "urs": 7377,
      "过了": 7378,
      "思维": 7379,
      "room": 7380,
      "真是": 7381,
      "会在": 7382,
      "眼睛": 7383,
      "长按": 7384,
      "理想": 7385,
      "▁writ": 7386,
      "2015": 7387,
      "而不是": 7388,
      "ails": 7389,
      "ination": 7390,
      "une": 7391,
      "差异": 7392,
      "说是": 7393,
      "ending": 7394,
      "▁dra": 7395,
      "▁left": 7396,
      "▁house": 7397,
      "性格": 7398,
      "▁access": 7399,
      "▁understand": 7400,
      "上面": 7401,
      "体现": 7402,
      "iety": 7403,
      "斯特": 7404,
      "意大利": 7405,
      "▁Christ": 7406,
      "兄弟": 7407,
      "ler": 7408,
      "招聘": 7409,
      "▁sw": 7410,
      "51": 7411,
      ")。": 7412,
      "传播": 7413,
      "▁treat": 7414,
      "▁My": 7415,
      "石油": 7416,
      "相应": 7417,
      "的心": 7418,
      "▁services": 7419,
      "aterial": 7420,
      "精彩": 7421,
      "一路": 7422,
      "中小": 7423,
      "博士": 7424,
      "▁didn": 7425,
      "▁indust": 7426,
      "从来": 7427,
      "▁May": 7428,
      "低于": 7429,
      "▁local": 7430,
      "的生活": 7431,
      "奥运": 7432,
      "ney": 7433,
      "派出": 7434,
      "会上": 7435,
      "itions": 7436,
      "08": 7437,
      "东方": 7438,
      "广场": 7439,
      "196": 7440,
      "律师": 7441,
      "正是": 7442,
      "▁times": 7443,
      "广泛": 7444,
      "▁development": 7445,
      "▁conc": 7446,
      "EC": 7447,
      "57": 7448,
      "军事": 7449,
      "公交": 7450,
      "理念": 7451,
      "▁When": 7452,
      "为何": 7453,
      "itive": 7454,
      "足够": 7455,
      "AS": 7456,
      "哪个": 7457,
      "▁men": 7458,
      "日前": 7459,
      "西班": 7460,
      "ique": 7461,
      "下了": 7462,
      "56": 7463,
      "详细": 7464,
      "▁activ": 7465,
      "▁term": 7466,
      "缺乏": 7467,
      "涨幅": 7468,
      "定位": 7469,
      "西班牙": 7470,
      "湖南": 7471,
      "▁tell": 7472,
      "lement": 7473,
      "上市公司": 7474,
      "ential": 7475,
      "rap": 7476,
      "试验": 7477,
      "41": 7478,
      "高级": 7479,
      "▁research": 7480,
      "这位": 7481,
      "▁--": 7482,
      "59": 7483,
      "atic": 7484,
      "技能": 7485,
      "工艺": 7486,
      "▁charact": 7487,
      "mber": 7488,
      "物理": 7489,
      "▁*": 7490,
      "19日": 7491,
      "创作": 7492,
      "▁Car": 7493,
      "是有": 7494,
      "估值": 7495,
      "印象": 7496,
      "前的": 7497,
      "实践": 7498,
      "人家": 7499,
      "还会": 7500,
      "▁until": 7501,
      "并非": 7502,
      "武汉": 7503,
      "一张": 7504,
      "▁expect": 7505,
      "机械": 7506,
      "呈现": 7507,
      "不太": 7508,
      "快乐": 7509,
      "ready": 7510,
      "▁webs": 7511,
      "▁having": 7512,
      "上周": 7513,
      "名称": 7514,
      "▁talk": 7515,
      "准确": 7516,
      "阿里": 7517,
      "也很": 7518,
      "▁learn": 7519,
      "施工": 7520,
      "承认": 7521,
      "强的": 7522,
      "▁based": 7523,
      "▁success": 7524,
      "自主": 7525,
      "众多": 7526,
      "警察": 7527,
      "rop": 7528,
      "表演": 7529,
      "ising": 7530,
      "披露": 7531,
      "▁line": 7532,
      "▁dev": 7533,
      "acy": 7534,
      "▁often": 7535,
      "utes": 7536,
      "完整": 7537,
      "给了": 7538,
      "的基础": 7539,
      "▁fore": 7540,
      "▁17": 7541,
      "这款": 7542,
      "的方法": 7543,
      "ajor": 7544,
      "意外": 7545,
      "eb": 7546,
      "▁tem": 7547,
      "alf": 7548,
      "▁whe": 7549,
      "蛋白": 7550,
      "▁With": 7551,
      "适应": 7552,
      "▁mil": 7553,
      "说话": 7554,
      "aff": 7555,
      "多了": 7556,
      "gether": 7557,
      "A股": 7558,
      "▁together": 7559,
      "AM": 7560,
      "合适": 7561,
      "战斗": 7562,
      "▁pain": 7563,
      "side": 7564,
      "包含": 7565,
      "▁bit": 7566,
      "开心": 7567,
      "一致": 7568,
      "▁pot": 7569,
      "ony": 7570,
      "09": 7571,
      "▁country": 7572,
      "ived": 7573,
      "制定": 7574,
      "评估": 7575,
      "震荡": 7576,
      "也要": 7577,
      "▁14": 7578,
      "▁short": 7579,
      "▁speak": 7580,
      "斯坦": 7581,
      "鼓励": 7582,
      "健身": 7583,
      "cript": 7584,
      "应该是": 7585,
      "面试": 7586,
      "▁trad": 7587,
      "▁quality": 7588,
      "安装": 7589,
      "▁allow": 7590,
      "▁At": 7591,
      "idd": 7592,
      "录取": 7593,
      "▁far": 7594,
      "也就": 7595,
      "药物": 7596,
      "▁enough": 7597,
      "▁enjoy": 7598,
      "转型": 7599,
      "▁ever": 7600,
      "设立": 7601,
      "▁low": 7602,
      "▁paper": 7603,
      "▁100": 7604,
      "af": 7605,
      "某些": 7606,
      "房价": 7607,
      "平方米": 7608,
      "天下": 7609,
      "ulation": 7610,
      "问题的": 7611,
      "平衡": 7612,
      "comm": 7613,
      "▁econom": 7614,
      "What": 7615,
      "三十": 7616,
      "▁mean": 7617,
      "▁Am": 7618,
      "li": 7619,
      "读书": 7620,
      "玻璃": 7621,
      "装修": 7622,
      "则是": 7623,
      "ocus": 7624,
      "对比": 7625,
      "▁done": 7626,
      "不住": 7627,
      "▁ce": 7628,
      "区的": 7629,
      "enef": 7630,
      "▁complete": 7631,
      "▁China": 7632,
      "▁move": 7633,
      "▁side": 7634,
      "一边": 7635,
      "的感觉": 7636,
      "▁become": 7637,
      "游客": 7638,
      "inese": 7639,
      "69": 7640,
      "30日": 7641,
      "▁Trans": 7642,
      "那样": 7643,
      "ource": 7644,
      "办公室": 7645,
      "外国": 7646,
      "神经": 7647,
      "美丽": 7648,
      "的一些": 7649,
      "各个": 7650,
      "52": 7651,
      "▁hot": 7652,
      "▁women": 7653,
      "EN": 7654,
      "▁Can": 7655,
      "布局": 7656,
      "文字": 7657,
      "▁profess": 7658,
      "计算机": 7659,
      "▁makes": 7660,
      "EO": 7661,
      "万人": 7662,
      "07": 7663,
      "▁check": 7664,
      "在这里": 7665,
      "2007年": 7666,
      "之中": 7667,
      "大约": 7668,
      "国民": 7669,
      "18日": 7670,
      "纪念": 7671,
      "运用": 7672,
      "当中": 7673,
      "依法": 7674,
      "马上": 7675,
      "viron": 7676,
      "For": 7677,
      "的一种": 7678,
      "州市": 7679,
      "周期": 7680,
      "▁already": 7681,
      "不久": 7682,
      "做法": 7683,
      "电池": 7684,
      "允许": 7685,
      "财富": 7686,
      "的同时": 7687,
      "民主": 7688,
      "电商": 7689,
      "ung": 7690,
      "????": 7691,
      "算是": 7692,
      "共和国": 7693,
      "常见": 7694,
      "梦想": 7695,
      "岗位": 7696,
      "覆盖": 7697,
      "▁study": 7698,
      "▁along": 7699,
      "记忆": 7700,
      "优化": 7701,
      "但在": 7702,
      "无人": 7703,
      "31日": 7704,
      "▁event": 7705,
      "yl": 7706,
      "▁season": 7707,
      "加快": 7708,
      "就有": 7709,
      "▁employ": 7710,
      "还可以": 7711,
      "技巧": 7712,
      "纽约": 7713,
      "▁mult": 7714,
      "知名": 7715,
      "opp": 7716,
      "很少": 7717,
      "绿色": 7718,
      "不在": 7719,
      "说了": 7720,
      "%；": 7721,
      "小米": 7722,
      "▁God": 7723,
      "周围": 7724,
      "不上": 7725,
      "运输": 7726,
      "进口": 7727,
      "ured": 7728,
      "婚姻": 7729,
      "那里": 7730,
      "大盘": 7731,
      "维护": 7732,
      "▁story": 7733,
      "▁called": 7734,
      "选手": 7735,
      "▁body": 7736,
      "▁x": 7737,
      "▁13": 7738,
      "▁creat": 7739,
      "atures": 7740,
      "或是": 7741,
      "▁ste": 7742,
      "10日": 7743,
      "给出": 7744,
      "小组": 7745,
      "十一": 7746,
      "较大": 7747,
      "新华": 7748,
      "▁actually": 7749,
      "ttp": 7750,
      "元素": 7751,
      "ides": 7752,
      "▁government": 7753,
      "漂亮": 7754,
      "▁beaut": 7755,
      "构成": 7756,
      "▁products": 7757,
      "':": 7758,
      "加大": 7759,
      "并在": 7760,
      "温度": 7761,
      "想象": 7762,
      "连接": 7763,
      "oogle": 7764,
      "▁thought": 7765,
      "ended": 7766,
      "男性": 7767,
      "aim": 7768,
      "看起来": 7769,
      "over": 7770,
      "简称": 7771,
      "声明": 7772,
      "仅仅": 7773,
      "受伤": 7774,
      "elf": 7775,
      "▁certain": 7776,
      "五年": 7777,
      "MA": 7778,
      "好好": 7779,
      "▁sever": 7780,
      "oice": 7781,
      "」，": 7782,
      "纷纷": 7783,
      "3月2": 7784,
      "落实": 7785,
      "三星": 7786,
      "显得": 7787,
      "依据": 7788,
      "周边": 7789,
      "osed": 7790,
      "▁account": 7791,
      "添加": 7792,
      "▁doing": 7793,
      "带来的": 7794,
      "天的": 7795,
      "▁blog": 7796,
      "15日": 7797,
      "销量": 7798,
      "纪录": 7799,
      "osp": 7800,
      "64": 7801,
      "ands": 7802,
      "劳动": 7803,
      "▁getting": 7804,
      "也能": 7805,
      "姑娘": 7806,
      "别的": 7807,
      "ateg": 7808,
      "indows": 7809,
      "▁live": 7810,
      "sw": 7811,
      "fer": 7812,
      "▁net": 7813,
      "Al": 7814,
      "医学": 7815,
      "有利": 7816,
      "还没有": 7817,
      "路上": 7818,
      "▁easy": 7819,
      "农民": 7820,
      "公务": 7821,
      "ips": 7822,
      "uture": 7823,
      "股价": 7824,
      "逐步": 7825,
      "▁offic": 7826,
      "能量": 7827,
      "分子": 7828,
      "▁ca": 7829,
      "▁Me": 7830,
      "飞行": 7831,
      "改造": 7832,
      "XX": 7833,
      "先后": 7834,
      "强烈": 7835,
      "情况下": 7836,
      "老公": 7837,
      "线的": 7838,
      "顺利": 7839,
      "▁needs": 7840,
      "▁means": 7841,
      "有时": 7842,
      "上一": 7843,
      "for": 7844,
      "朝鲜": 7845,
      "ober": 7846,
      "出现了": 7847,
      "住房": 7848,
      "ones": 7849,
      "▁occ": 7850,
      "在我": 7851,
      "基因": 7852,
      "▁ago": 7853,
      "150": 7854,
      "此时": 7855,
      "大学生": 7856,
      "▁fav": 7857,
      "恋爱": 7858,
      "一定的": 7859,
      "ored": 7860,
      "▁social": 7861,
      "uly": 7862,
      "定义": 7863,
      "........": 7864,
      "委会": 7865,
      "进攻": 7866,
      "装备": 7867,
      "sp": 7868,
      "信心": 7869,
      "ET": 7870,
      "型的": 7871,
      "赛事": 7872,
      "orts": 7873,
      "打击": 7874,
      "居住": 7875,
      "电视剧": 7876,
      "尽量": 7877,
      "ister": 7878,
      "（）": 7879,
      "垃圾": 7880,
      "ividual": 7881,
      "▁connect": 7882,
      "▁discuss": 7883,
      "▁educ": 7884,
      "在这个": 7885,
      "有时候": 7886,
      "账户": 7887,
      "ither": 7888,
      "让他": 7889,
      "▁possible": 7890,
      "性和": 7891,
      "▁came": 7892,
      "ograph": 7893,
      "胜利": 7894,
      "▁city": 7895,
      "学家": 7896,
      "产品的": 7897,
      "US": 7898,
      "▁ا": 7899,
      "指挥": 7900,
      "财经": 7901,
      "提示": 7902,
      "▁mom": 7903,
      "▁Chinese": 7904,
      "par": 7905,
      "国务": 7906,
      "表面": 7907,
      "质的": 7908,
      "矛盾": 7909,
      "这两": 7910,
      "▁Med": 7911,
      "之下": 7912,
      "名单": 7913,
      "修改": 7914,
      "上下": 7915,
      "▁如何看待": 7916,
      "▁protect": 7917,
      "▁others": 7918,
      "分手": 7919,
      "转移": 7920,
      "▁least": 7921,
      "▁several": 7922,
      "紧张": 7923,
      "更为": 7924,
      "逻辑": 7925,
      "There": 7926,
      "事项": 7927,
      "淘宝": 7928,
      "▁Gu": 7929,
      "AP": 7930,
      "ances": 7931,
      "ape": 7932,
      "事务": 7933,
      "幼儿": 7934,
      "▁mind": 7935,
      "始终": 7936,
      "将于": 7937,
      "▁soft": 7938,
      "▁ant": 7939,
      "▁material": 7940,
      "固定": 7941,
      "▁doesn": 7942,
      "▁young": 7943,
      "▁major": 7944,
      "研究生": 7945,
      "cial": 7946,
      "ino": 7947,
      "▁#": 7948,
      "53": 7949,
      "听到": 7950,
      "▁community": 7951,
      "fort": 7952,
      "真正的": 7953,
      "著名": 7954,
      "给他": 7955,
      "品种": 7956,
      "基本上": 7957,
      "智慧": 7958,
      "oon": 7959,
      "将其": 7960,
      "看见": 7961,
      "互动": 7962,
      "官员": 7963,
      "▁wa": 7964,
      "aps": 7965,
      "back": 7966,
      "ots": 7967,
      "ms": 7968,
      "同事": 7969,
      "aces": 7970,
      "▁Rep": 7971,
      "多种": 7972,
      "在美国": 7973,
      "▁John": 7974,
      "▁Ste": 7975,
      "事实上": 7976,
      "通讯": 7977,
      "进球": 7978,
      "赢得": 7979,
      "ift": 7980,
      "世界上": 7981,
      "▁example": 7982,
      "竟然": 7983,
      "ference": 7984,
      "itor": 7985,
      "而不": 7986,
      "▁offer": 7987,
      "外观": 7988,
      "▁benef": 7989,
      "03": 7990,
      "本周": 7991,
      "控股": 7992,
      "vironment": 7993,
      "留学": 7994,
      "而已": 7995,
      "orld": 7996,
      "上去": 7997,
      "地球": 7998,
      "▁次": 7999,
      "▁deal": 8000,
      "时刻": 8001,
      "▁record": 8002,
      "▁ey": 8003,
      "嫌疑人": 8004,
      "20年": 8005,
      "打算": 8006,
      "04": 8007,
      "街道": 8008,
      "都很": 8009,
      "个股": 8010,
      "日子": 8011,
      "库存": 8012,
      "完美": 8013,
      "工作的": 8014,
      "国的": 8015,
      "养老": 8016,
      "关联": 8017,
      "▁lim": 8018,
      "环节": 8019,
      "各地": 8020,
      "其它": 8021,
      "收到": 8022,
      "▁results": 8023,
      "欧元": 8024,
      "中国人": 8025,
      "相互": 8026,
      "▁2013": 8027,
      "ster": 8028,
      "西方": 8029,
      "ama": 8030,
      "累计": 8031,
      "▁include": 8032,
      "most": 8033,
      "男朋友": 8034,
      "reet": 8035,
      "▁One": 8036,
      "大小": 8037,
      "西南": 8038,
      "76": 8039,
      "▁。": 8040,
      "pro": 8041,
      "停车": 8042,
      "OL": 8043,
      "isk": 8044,
      "独特": 8045,
      "icy": 8046,
      "例子": 8047,
      "▁一": 8048,
      "广大": 8049,
      "wh": 8050,
      "返回": 8051,
      "四个": 8052,
      "▁sum": 8053,
      "用来": 8054,
      "企业的": 8055,
      "混合": 8056,
      "部队": 8057,
      "部的": 8058,
      "云南": 8059,
      "症状": 8060,
      "CD": 8061,
      "120": 8062,
      "他是": 8063,
      "董事会": 8064,
      "artment": 8065,
      "丈夫": 8066,
      "unic": 8067,
      "获取": 8068,
      "较为": 8069,
      "▁2012": 8070,
      "▁buy": 8071,
      "下一": 8072,
      "被告": 8073,
      "购物": 8074,
      "upp": 8075,
      "不敢": 8076,
      "东南": 8077,
      "满意": 8078,
      "了解到": 8079,
      "恐怖": 8080,
      "样子": 8081,
      "▁ess": 8082,
      "▁00": 8083,
      "urity": 8084,
      "赚钱": 8085,
      "百分": 8086,
      "屏幕": 8087,
      "▁Ne": 8088,
      "▁American": 8089,
      "看法": 8090,
      "irc": 8091,
      "▁focus": 8092,
      "II": 8093,
      "▁return": 8094,
      "收费": 8095,
      "ding": 8096,
      "▁vers": 8097,
      "一个月": 8098,
      "总体": 8099,
      "800": 8100,
      "▁clear": 8101,
      "▁50": 8102,
      "便宜": 8103,
      "部长": 8104,
      "黑色": 8105,
      "▁members": 8106,
      "▁once": 8107,
      "监会": 8108,
      "处罚": 8109,
      "3000": 8110,
      "线上": 8111,
      "还没": 8112,
      "mb": 8113,
      "▁land": 8114,
      "not": 8115,
      "歌曲": 8116,
      "▁reason": 8117,
      "系统的": 8118,
      "▁ren": 8119,
      "▁works": 8120,
      "my": 8121,
      "AL": 8122,
      "▁music": 8123,
      "▁redu": 8124,
      "▁perfect": 8125,
      "查看": 8126,
      "▁Intern": 8127,
      "中医": 8128,
      "fact": 8129,
      "福建": 8130,
      "微信号": 8131,
      "北京时间": 8132,
      "go": 8133,
      "▁went": 8134,
      "ux": 8135,
      "▁cut": 8136,
      "▁price": 8137,
      "承诺": 8138,
      "这就是": 8139,
      "镜头": 8140,
      "▁key": 8141,
      "瞬间": 8142,
      "▁yet": 8143,
      "2006年": 8144,
      "究竟": 8145,
      "在一": 8146,
      "等待": 8147,
      "社交": 8148,
      "▁website": 8149,
      "取消": 8150,
      "红色": 8151,
      "动画": 8152,
      "▁Comp": 8153,
      "▁comes": 8154,
      "高端": 8155,
      "▁Cont": 8156,
      "这么多": 8157,
      "▁comb": 8158,
      "▁million": 8159,
      "▁quick": 8160,
      "lev": 8161,
      "▁heart": 8162,
      "54": 8163,
      "▁months": 8164,
      "▁hig": 8165,
      "lege": 8166,
      "arr": 8167,
      "Sh": 8168,
      "火箭": 8169,
      "另一个": 8170,
      "▁Des": 8171,
      "▁typ": 8172,
      "据了解": 8173,
      "itc": 8174,
      "▁camp": 8175,
      "青岛": 8176,
      "资讯": 8177,
      "看出": 8178,
      "是由": 8179,
      "▁took": 8180,
      "总经理": 8181,
      "星期": 8182,
      "球迷": 8183,
      "原本": 8184,
      "权利": 8185,
      "两次": 8186,
      "熟悉": 8187,
      "▁individual": 8188,
      "整理": 8189,
      "◆◆◆◆": 8190,
      "▁happen": 8191,
      "笔记": 8192,
      "一样的": 8193,
      "对外": 8194,
      "都没": 8195,
      "06": 8196,
      "▁24": 8197,
      "79": 8198,
      "How": 8199,
      "▁strong": 8200,
      "成果": 8201,
      "▁press": 8202,
      "▁friends": 8203,
      "造型": 8204,
      "每日": 8205,
      "▁hold": 8206,
      "消防": 8207,
      "▁【": 8208,
      "回应": 8209,
      "urther": 8210,
      "But": 8211,
      "凌晨": 8212,
      "咖啡": 8213,
      "他人": 8214,
      "86": 8215,
      "图书": 8216,
      "now": 8217,
      "探索": 8218,
      "流程": 8219,
      "On": 8220,
      "wards": 8221,
      "移民": 8222,
      "依旧": 8223,
      "派出所": 8224,
      "显著": 8225,
      "hing": 8226,
      "高达": 8227,
      "iam": 8228,
      "良好的": 8229,
      "传球": 8230,
      "▁Do": 8231,
      "rew": 8232,
      "村民": 8233,
      "▁page": 8234,
      "家族": 8235,
      "iday": 8236,
      "央行": 8237,
      "点的": 8238,
      "检察": 8239,
      "▁percent": 8240,
      "▁中国": 8241,
      "蒙古": 8242,
      "有可能": 8243,
      "lished": 8244,
      "尊重": 8245,
      "力度": 8246,
      "▁Qu": 8247,
      "//": 8248,
      "▁2014": 8249,
      "ully": 8250,
      "▁Ass": 8251,
      "www": 8252,
      "四年": 8253,
      "道德": 8254,
      "▁25": 8255,
      "各类": 8256,
      "cer": 8257,
      "结论": 8258,
      "工厂": 8259,
      "的产品": 8260,
      "ole": 8261,
      "阳光": 8262,
      "第五": 8263,
      "的故事": 8264,
      "▁cult": 8265,
      "rain": 8266,
      "西北": 8267,
      "出台": 8268,
      "的美": 8269,
      "12日": 8270,
      "ison": 8271,
      "味道": 8272,
      "爆发": 8273,
      "▁create": 8274,
      "休息": 8275,
      "相机": 8276,
      "提供了": 8277,
      "ffic": 8278,
      "西亚": 8279,
      "否则": 8280,
      "▁human": 8281,
      "面前": 8282,
      "ges": 8283,
      "防止": 8284,
      "02": 8285,
      "破坏": 8286,
      "ians": 8287,
      "代理": 8288,
      "▁tot": 8289,
      "▁visit": 8290,
      "iod": 8291,
      "巨大": 8292,
      "▁future": 8293,
      "▁cal": 8294,
      "据悉": 8295,
      "ounds": 8296,
      "河北": 8297,
      "出场": 8298,
      "聊天": 8299,
      "▁video": 8300,
      "89": 8301,
      "对应": 8302,
      "通信": 8303,
      "批准": 8304,
      "房屋": 8305,
      "起了": 8306,
      "流行": 8307,
      "▁prob": 8308,
      "▁大": 8309,
      "head": 8310,
      "ilar": 8311,
      "日报": 8312,
      "西安": 8313,
      "应对": 8314,
      "感染": 8315,
      "场景": 8316,
      "ball": 8317,
      "icro": 8318,
      "报考": 8319,
      "舒适": 8320,
      "出席": 8321,
      "上班": 8322,
      "离婚": 8323,
      "ources": 8324,
      "hers": 8325,
      "全新": 8326,
      "让我们": 8327,
      "男友": 8328,
      "公平": 8329,
      "执法": 8330,
      "线路": 8331,
      "agn": 8332,
      "每个人": 8333,
      "▁orig": 8334,
      "的设计": 8335,
      "▁2016": 8336,
      "报警": 8337,
      "verage": 8338,
      "实习": 8339,
      "3个": 8340,
      "aken": 8341,
      "引导": 8342,
      "▁particular": 8343,
      "▁model": 8344,
      "代码": 8345,
      "▁English": 8346,
      "▁hy": 8347,
      "歌手": 8348,
      "▁started": 8349,
      "PC": 8350,
      "roll": 8351,
      "进步": 8352,
      "分类": 8353,
      "unch": 8354,
      "爱好": 8355,
      "193": 8356,
      "crib": 8357,
      "专辑": 8358,
      "内心": 8359,
      "isc": 8360,
      "▁vol": 8361,
      "探讨": 8362,
      "差距": 8363,
      "总裁": 8364,
      "队伍": 8365,
      "证据": 8366,
      "▁bed": 8367,
      "什么的": 8368,
      "冲击": 8369,
      "ula": 8370,
      "数据显示": 8371,
      "比亚": 8372,
      "曝光": 8373,
      "武器": 8374,
      "ilt": 8375,
      "的中": 8376,
      "resent": 8377,
      "▁early": 8378,
      "遭遇": 8379,
      "iful": 8380,
      "你会": 8381,
      "加速": 8382,
      "把握": 8383,
      "突出": 8384,
      "反而": 8385,
      "最多": 8386,
      "一线": 8387,
      "gu": 8388,
      "17日": 8389,
      "OT": 8390,
      "实行": 8391,
      "ille": 8392,
      "女朋友": 8393,
      "杂志": 8394,
      "duct": 8395,
      "oose": 8396,
      "层次": 8397,
      "出租": 8398,
      "▁Inst": 8399,
      "下滑": 8400,
      "道理": 8401,
      "OP": 8402,
      "▁relations": 8403,
      "的机会": 8404,
      "一直在": 8405,
      "ging": 8406,
      "太平": 8407,
      "▁opport": 8408,
      "ify": 8409,
      "中有": 8410,
      "▁Serv": 8411,
      "更好的": 8412,
      "▁later": 8413,
      "▁across": 8414,
      "国务院": 8415,
      "算法": 8416,
      "整合": 8417,
      "西部": 8418,
      "fl": 8419,
      "13日": 8420,
      "oud": 8421,
      "▁specific": 8422,
      "作业": 8423,
      "能否": 8424,
      "▁step": 8425,
      "▁question": 8426,
      "▁close": 8427,
      "▁invol": 8428,
      "大多": 8429,
      "就算": 8430,
      "融合": 8431,
      "▁girl": 8432,
      "房间": 8433,
      "校园": 8434,
      "地下": 8435,
      "▁hope": 8436,
      "▁compet": 8437,
      "职位": 8438,
      "▁Che": 8439,
      "▁personal": 8440,
      "海军": 8441,
      "基金管理": 8442,
      "很好的": 8443,
      "是最": 8444,
      "站在": 8445,
      "irt": 8446,
      "▁Mr": 8447,
      "告诉记者": 8448,
      "彻底": 8449,
      "ental": 8450,
      "接到": 8451,
      "▁single": 8452,
      "家具": 8453,
      "人工": 8454,
      "拿到": 8455,
      "相似": 8456,
      "▁meas": 8457,
      "72": 8458,
      "演唱": 8459,
      "bl": 8460,
      "物流": 8461,
      "uation": 8462,
      "对我": 8463,
      "这也是": 8464,
      "怎么样": 8465,
      "早上": 8466,
      "更有": 8467,
      "和平": 8468,
      "不出": 8469,
      "不懂": 8470,
      "三分": 8471,
      "无论是": 8472,
      "idence": 8473,
      "的热": 8474,
      "cially": 8475,
      "自治": 8476,
      "了很多": 8477,
      "并未": 8478,
      "居然": 8479,
      "高于": 8480,
      "司法": 8481,
      "▁given": 8482,
      "▁someone": 8483,
      "的价格": 8484,
      "▁face": 8485,
      "▁whole": 8486,
      "▁value": 8487,
      "人都": 8488,
      "ead": 8489,
      "很大的": 8490,
      "威胁": 8491,
      "循环": 8492,
      "业内": 8493,
      "达成": 8494,
      "克斯": 8495,
      "案例": 8496,
      "从小": 8497,
      "▁我们": 8498,
      "博物": 8499,
      "考研": 8500,
      "▁told": 8501,
      "▁п": 8502,
      "学术": 8503,
      "简单的": 8504,
      "▁require": 8505,
      "ada": 8506,
      "老婆": 8507,
      "群体": 8508,
      "▁hours": 8509,
      "▁type": 8510,
      "OM": 8511,
      "▁contact": 8512,
      "临时": 8513,
      "生意": 8514,
      "▁fre": 8515,
      "」。": 8516,
      "▁mor": 8517,
      "少数": 8518,
      "电信": 8519,
      "▁ener": 8520,
      "路线": 8521,
      "油价": 8522,
      "14日": 8523,
      "毫无": 8524,
      "情感": 8525,
      "以上的": 8526,
      "的行为": 8527,
      "▁space": 8528,
      "公务员": 8529,
      "电力": 8530,
      "专业的": 8531,
      "涉嫌": 8532,
      "某某": 8533,
      "没想到": 8534,
      "简直": 8535,
      "女友": 8536,
      "化妆": 8537,
      "重组": 8538,
      "▁United": 8539,
      "lex": 8540,
      "▁Bro": 8541,
      "停止": 8542,
      "anies": 8543,
      "合并": 8544,
      "加坡": 8545,
      "财产": 8546,
      "▁bir": 8547,
      "▁share": 8548,
      "vert": 8549,
      "巴西": 8550,
      "▁ident": 8551,
      "同期": 8552,
      "▁中": 8553,
      "play": 8554,
      "批评": 8555,
      "11日": 8556,
      "作为一个": 8557,
      "其次": 8558,
      "显然": 8559,
      "腾讯": 8560,
      "▁walk": 8561,
      "▁cell": 8562,
      "ights": 8563,
      "▁seen": 8564,
      "iously": 8565,
      "DP": 8566,
      "fic": 8567,
      "成就": 8568,
      "加拿": 8569,
      "会员": 8570,
      "▁bring": 8571,
      "▁idea": 8572,
      "阿尔": 8573,
      "先进": 8574,
      "饮食": 8575,
      "face": 8576,
      "格兰": 8577,
      "作出": 8578,
      "是中国": 8579,
      "我和": 8580,
      "的研究": 8581,
      "加工": 8582,
      "rict": 8583,
      "▁pack": 8584,
      "债务": 8585,
      "流量": 8586,
      "协调": 8587,
      "1P": 8588,
      "出发": 8589,
      "的内容": 8590,
      "▁Sy": 8591,
      "▁Euro": 8592,
      "ourn": 8593,
      "人体": 8594,
      "出现在": 8595,
      "联储": 8596,
      "62": 8597,
      "良好": 8598,
      "的水": 8599,
      "Ad": 8600,
      "精准": 8601,
      "的可能": 8602,
      "住宅": 8603,
      "罗马": 8604,
      "pecially": 8605,
      "难道": 8606,
      "效应": 8607,
      "厂商": 8608,
      "世界杯": 8609,
      "BC": 8610,
      "vent": 8611,
      "城区": 8612,
      "一份": 8613,
      "队员": 8614,
      "atural": 8615,
      "2日": 8616,
      "不得不": 8617,
      "ners": 8618,
      "的作用": 8619,
      "▁five": 8620,
      "标志": 8621,
      "ried": 8622,
      "▁appear": 8623,
      "▁stay": 8624,
      "▁如果": 8625,
      "16日": 8626,
      "你可以": 8627,
      "▁mot": 8628,
      "aur": 8629,
      "有望": 8630,
      "青春": 8631,
      "痛苦": 8632,
      "▁technology": 8633,
      "决策": 8634,
      "既然": 8635,
      "临床": 8636,
      "调节": 8637,
      "硕士": 8638,
      "朋友圈": 8639,
      "头发": 8640,
      "对其": 8641,
      "减肥": 8642,
      "未来的": 8643,
      "通道": 8644,
      "也不会": 8645,
      "氧化": 8646,
      "▁character": 8647,
      "在北京": 8648,
      "夫妻": 8649,
      "▁2010": 8650,
      "angu": 8651,
      "▁Your": 8652,
      "So": 8653,
      "▁believe": 8654,
      "▁pie": 8655,
      "▁把": 8656,
      "非法": 8657,
      "oid": 8658,
      "深刻": 8659,
      "illed": 8660,
      "每一个": 8661,
      "董事长": 8662,
      "报讯": 8663,
      "到达": 8664,
      "交警": 8665,
      "▁break": 8666,
      "ask": 8667,
      "▁industry": 8668,
      "新加坡": 8669,
      "ched": 8670,
      "防守": 8671,
      "   ": 8672,
      "三大": 8673,
      "话题": 8674,
      "法规": 8675,
      "是怎么": 8676,
      "思路": 8677,
      "万美元": 8678,
      "”,": 8679,
      "▁news": 8680,
      "增速": 8681,
      "rel": 8682,
      "好多": 8683,
      "也不是": 8684,
      "房产": 8685,
      "指令": 8686,
      "▁Ed": 8687,
      "▁tax": 8688,
      "分析师": 8689,
      "怀疑": 8690,
      "▁begin": 8691,
      "规律": 8692,
      "回忆": 8693,
      "得到了": 8694,
      "▁bad": 8695,
      "▁everything": 8696,
      "动态": 8697,
      "新疆": 8698,
      "文本": 8699,
      "已有": 8700,
      "eter": 8701,
      "零售": 8702,
      "7月2": 8703,
      "密度": 8704,
      "深度": 8705,
      "ze": 8706,
      "urch": 8707,
      "可见": 8708,
      "山西": 8709,
      "提到": 8710,
      "▁State": 8711,
      "▁pret": 8712,
      "eral": 8713,
      "权益": 8714,
      "ocu": 8715,
      "▁Count": 8716,
      "▁pict": 8717,
      "听说": 8718,
      "主角": 8719,
      "你要": 8720,
      "ilities": 8721,
      "▁有哪些": 8722,
      "演出": 8723,
      "报告期": 8724,
      "主场": 8725,
      "异常": 8726,
      "是指": 8727,
      "2014": 8728,
      "▁>": 8729,
      "▁sugg": 8730,
      "不可能": 8731,
      "63": 8732,
      "保留": 8733,
      "色彩": 8734,
      "投票": 8735,
      "5000": 8736,
      "同比增长": 8737,
      "的那": 8738,
      "▁suggest": 8739,
      "大家都": 8740,
      "生长": 8741,
      "下载": 8742,
      "▁priv": 8743,
      "▁clean": 8744,
      "▁City": 8745,
      "一度": 8746,
      "cell": 8747,
      "该公司": 8748,
      "▁Min": 8749,
      "不大": 8750,
      "解放": 8751,
      "▁These": 8752,
      "华为": 8753,
      "▁improve": 8754,
      "人群": 8755,
      "访问": 8756,
      "清晰": 8757,
      "选举": 8758,
      "CP": 8759,
      "差不多": 8760,
      "utions": 8761,
      "http": 8762,
      "▁above": 8763,
      "▁mess": 8764,
      "RE": 8765,
      "走向": 8766,
      "ively": 8767,
      "的投资": 8768,
      "安徽": 8769,
      "妹子": 8770,
      "QQ": 8771,
      "列车": 8772,
      "近年来": 8773,
      "ibility": 8774,
      "运动员": 8775,
      "森林": 8776,
      "后面": 8777,
      "roid": 8778,
      "2005年": 8779,
      "▁enc": 8780,
      "▁tool": 8781,
      "希腊": 8782,
      "尚未": 8783,
      "ruction": 8784,
      "▁<": 8785,
      "素质": 8786,
      "在本": 8787,
      "TV": 8788,
      "会的": 8789,
      "▁+": 8790,
      "形态": 8791,
      "▁item": 8792,
      "学位": 8793,
      "▁Ab": 8794,
      "失去": 8795,
      "aby": 8796,
      "之处": 8797,
      "宗教": 8798,
      "南方": 8799,
      "分别为": 8800,
      "必然": 8801,
      "们的": 8802,
      "▁jo": 8803,
      "▁polit": 8804,
      "When": 8805,
      "though": 8806,
      "我会": 8807,
      "iPhone": 8808,
      "elt": 8809,
      "▁Jan": 8810,
      "禁止": 8811,
      "ysis": 8812,
      "公安局": 8813,
      "off": 8814,
      "AD": 8815,
      "相关的": 8816,
      "净利润": 8817,
      "▁author": 8818,
      "巨大的": 8819,
      "▁anything": 8820,
      "To": 8821,
      "活跃": 8822,
      "走了": 8823,
      "监控": 8824,
      "ancial": 8825,
      "服装": 8826,
      "内地": 8827,
      "▁history": 8828,
      "atur": 8829,
      "一辆": 8830,
      "SU": 8831,
      "▁among": 8832,
      "itch": 8833,
      "小孩": 8834,
      "学历": 8835,
      "影片": 8836,
      "合法": 8837,
      "关心": 8838,
      "▁below": 8839,
      "▁2015": 8840,
      "销商": 8841,
      "心情": 8842,
      "▁21": 8843,
      "工商": 8844,
      "▁half": 8845,
      "影视": 8846,
      "▁self": 8847,
      "GB": 8848,
      "人和": 8849,
      "ply": 8850,
      "▁bar": 8851,
      "▁=": 8852,
      "uk": 8853,
      "天天": 8854,
      "▁known": 8855,
      "▁fall": 8856,
      "umb": 8857,
      "门口": 8858,
      "87": 8859,
      "！！": 8860,
      "赔偿": 8861,
      "治理": 8862,
      "照顾": 8863,
      "▁environment": 8864,
      "▁School": 8865,
      "提问": 8866,
      "ume": 8867,
      "▁2011": 8868,
      "生存": 8869,
      "处的": 8870,
      "irm": 8871,
      "▁watch": 8872,
      "提出了": 8873,
      "常常": 8874,
      "成分": 8875,
      "外的": 8876,
      "▁black": 8877,
      "上方": 8878,
      "发出": 8879,
      "的关系": 8880,
      "ouch": 8881,
      "冲突": 8882,
      "▁...": 8883,
      "强化": 8884,
      "▁minutes": 8885,
      "授权": 8886,
      "再度": 8887,
      "翻译成中文": 8888,
      "▁store": 8889,
      "一是": 8890,
      "含量": 8891,
      "val": 8892,
      "▁content": 8893,
      "级的": 8894,
      "什么样的": 8895,
      "▁period": 8896,
      "难度": 8897,
      "个性": 8898,
      "式的": 8899,
      "可以在": 8900,
      "上有": 8901,
      "生活中": 8902,
      "▁oil": 8903,
      "▁port": 8904,
      "▁games": 8905,
      "餐厅": 8906,
      "美食": 8907,
      "rem": 8908,
      "obal": 8909,
      "uter": 8910,
      "加盟": 8911,
      "主力": 8912,
      "一段": 8913,
      "呼吸": 8914,
      "▁Cal": 8915,
      "白色": 8916,
      "锻炼": 8917,
      "年轻人": 8918,
      "itter": 8919,
      "完成了": 8920,
      "abor": 8921,
      "ana": 8922,
      "也将": 8923,
      "▁signific": 8924,
      "▁Tw": 8925,
      "开启": 8926,
      "clus": 8927,
      "oe": 8928,
      "zh": 8929,
      "同一": 8930,
      "会不会": 8931,
      "爆炸": 8932,
      "暂时": 8933,
      "看的": 8934,
      "▁common": 8935,
      "▁с": 8936,
      "97": 8937,
      "最初": 8938,
      "Cl": 8939,
      "旗下": 8940,
      "打电话": 8941,
      "专项": 8942,
      "认可": 8943,
      "▁chall": 8944,
      "另一方面": 8945,
      "▁front": 8946,
      "明的": 8947,
      "多元": 8948,
      "▁taking": 8949,
      "▁Pe": 8950,
      "客观": 8951,
      "澳大": 8952,
      "学科": 8953,
      "▁whether": 8954,
      "新增": 8955,
      "交易所": 8956,
      "che": 8957,
      "▁dou": 8958,
      "一只": 8959,
      "院校": 8960,
      "▁Mc": 8961,
      "▁sex": 8962,
      "ites": 8963,
      "题目": 8964,
      "博物馆": 8965,
      "то": 8966,
      "▁Sun": 8967,
      "集体": 8968,
      "电视台": 8969,
      "释放": 8970,
      "行业的": 8971,
      "第一队和第二队的比分为0": 8972,
      "na": 8973,
      "预防": 8974,
      "亏损": 8975,
      "▁个": 8976,
      "IM": 8977,
      "我认为": 8978,
      "干净": 8979,
      "▁due": 8980,
      "是对": 8981,
      "病毒": 8982,
      "▁red": 8983,
      "气象": 8984,
      "波动": 8985,
      "地图": 8986,
      "▁However": 8987,
      "画面": 8988,
      "ctor": 8989,
      "装饰": 8990,
      "模拟": 8991,
      "▁repl": 8992,
      "一体": 8993,
      "▁que": 8994,
      "北京市": 8995,
      "▁Part": 8996,
      "ially": 8997,
      "asing": 8998,
      "▁в": 8999,
      "吸收": 9000,
      "净值": 9001,
      "ogn": 9002,
      "▁amount": 9003,
      "百姓": 9004,
      "形势": 9005,
      "▁miss": 9006,
      "明年": 9007,
      "了吗": 9008,
      "初中": 9009,
      "合格": 9010,
      "学的": 9011,
      "在大": 9012,
      "▁article": 9013,
      "没什么": 9014,
      "▁ال": 9015,
      "链接": 9016,
      "raft": 9017,
      "不错的": 9018,
      "景区": 9019,
      "▁struct": 9020,
      "▁Dr": 9021,
      "运作": 9022,
      "▁Not": 9023,
      "Com": 9024,
      "说我": 9025,
      "伦敦": 9026,
      "那么多": 9027,
      "time": 9028,
      "有趣": 9029,
      "▁function": 9030,
      "gest": 9031,
      "城镇": 9032,
      "ager": 9033,
      "成为了": 9034,
      "obile": 9035,
      "ained": 9036,
      "回归": 9037,
      "imate": 9038,
      "十八": 9039,
      "▁management": 9040,
      "oom": 9041,
      "不见": 9042,
      "喜欢的": 9043,
      "▁Per": 9044,
      "cle": 9045,
      "的比赛": 9046,
      "ches": 9047,
      "OU": 9048,
      "▁wonder": 9049,
      "加拿大": 9050,
      "▁companies": 9051,
      "fully": 9052,
      "▁和": 9053,
      "充足": 9054,
      "▁size": 9055,
      "见过": 9056,
      "即便": 9057,
      "▁Gl": 9058,
      "空调": 9059,
      "ued": 9060,
      "大师": 9061,
      "用了": 9062,
      "一方面": 9063,
      "公众号": 9064,
      "募集": 9065,
      "astic": 9066,
      "used": 9067,
      "创意": 9068,
      "▁crit": 9069,
      "Un": 9070,
      "敏感": 9071,
      "上半年": 9072,
      "era": 9073,
      "▁infl": 9074,
      "▁series": 9075,
      "未能": 9076,
      "长时间": 9077,
      "强势": 9078,
      "成的": 9079,
      "发言": 9080,
      "▁energy": 9081,
      "感兴趣": 9082,
      "澳大利亚": 9083,
      "的要求": 9084,
      "地震": 9085,
      "▁Go": 9086,
      "查询": 9087,
      "质疑": 9088,
      "无线": 9089,
      "延续": 9090,
      "一句": 9091,
      "▁pick": 9092,
      "在家": 9093,
      "面上": 9094,
      "▁cred": 9095,
      "军队": 9096,
      "麻烦": 9097,
      "这类": 9098,
      "获得了": 9099,
      "的第一": 9100,
      "转载": 9101,
      "乘客": 9102,
      "        ": 9103,
      "一开始": 9104,
      "江西": 9105,
      "▁search": 9106,
      "****": 9107,
      "当日": 9108,
      "▁card": 9109,
      "格局": 9110,
      "▁recomm": 9111,
      "围绕": 9112,
      "▁simple": 9113,
      "福利": 9114,
      "老年": 9115,
      "参数": 9116,
      "的外": 9117,
      "late": 9118,
      "acebook": 9119,
      "▁please": 9120,
      "硬件": 9121,
      "生涯": 9122,
      "不需要": 9123,
      "ification": 9124,
      "广播": 9125,
      "湖北": 9126,
      "过于": 9127,
      "拉克": 9128,
      "看过": 9129,
      "ili": 9130,
      "▁building": 9131,
      "真的是": 9132,
      "▁York": 9133,
      "商家": 9134,
      "▁consider": 9135,
      "小心": 9136,
      "留下": 9137,
      "▁vi": 9138,
      "睡觉": 9139,
      "ram": 9140,
      "买了": 9141,
      "航天": 9142,
      "的市场": 9143,
      "下方": 9144,
      "96": 9145,
      "公益": 9146,
      "://": 9147,
      "▁Sm": 9148,
      "▁phys": 9149,
      "试图": 9150,
      "才会": 9151,
      "110": 9152,
      "aching": 9153,
      "ators": 9154,
      "分数": 9155,
      "selves": 9156,
      "适当": 9157,
      "共产": 9158,
      "▁Sec": 9159,
      "所谓的": 9160,
      "ises": 9161,
      "积累": 9162,
      "练习": 9163,
      "▁exc": 9164,
      "背后": 9165,
      "▁issues": 9166,
      "前景": 9167,
      "▁respons": 9168,
      "的学生": 9169,
      "男孩": 9170,
      "▁white": 9171,
      "resh": 9172,
      "Pro": 9173,
      "▁da": 9174,
      "▁mach": 9175,
      "▁purch": 9176,
      "▁performance": 9177,
      "行驶": 9178,
      "周末": 9179,
      "监测": 9180,
      "舞台": 9181,
      "▁World": 9182,
      "轨道": 9183,
      "地区的": 9184,
      "产量": 9185,
      "但我": 9186,
      "▁trying": 9187,
      "ledge": 9188,
      "存款": 9189,
      "一人": 9190,
      "▁media": 9191,
      "的确": 9192,
      "长按二维码": 9193,
      "肌肉": 9194,
      "cy": 9195,
      "十三": 9196,
      "mp": 9197,
      "ops": 9198,
      "很容易": 9199,
      "国家的": 9200,
      "lling": 9201,
      "▁quite": 9202,
      "子女": 9203,
      "chie": 9204,
      "不良": 9205,
      "▁address": 9206,
      "▁relationship": 9207,
      "各自": 9208,
      "▁claim": 9209,
      "73": 9210,
      "被人": 9211,
      "率为": 9212,
      "民国": 9213,
      "手续": 9214,
      "▁almost": 9215,
      "▁problems": 9216,
      "提及": 9217,
      "义务": 9218,
      "随时": 9219,
      "大家的": 9220,
      "国有": 9221,
      "主体": 9222,
      "坐在": 9223,
      "ficult": 9224,
      "▁ה": 9225,
      "和我": 9226,
      "istic": 9227,
      "▁deb": 9228,
      "百万": 9229,
      "TC": 9230,
      "74": 9231,
      "学者": 9232,
      "arning": 9233,
      "▁either": 9234,
      "体制": 9235,
      "人民共和国": 9236,
      "的中国": 9237,
      "▁text": 9238,
      "各项": 9239,
      "号码": 9240,
      "之类的": 9241,
      "▁application": 9242,
      "ensive": 9243,
      "rie": 9244,
      "---": 9245,
      "对话": 9246,
      "10年": 9247,
      "▁log": 9248,
      "身材": 9249,
      "ided": 9250,
      "本书": 9251,
      "▁everyone": 9252,
      "害怕": 9253,
      "▁favor": 9254,
      "▁especially": 9255,
      "这部": 9256,
      "皇帝": 9257,
      "一款": 9258,
      "反复": 9259,
      "是为了": 9260,
      "App": 9261,
      "gress": 9262,
      "脂肪": 9263,
      "收藏": 9264,
      "助攻": 9265,
      "ude": 9266,
      "ibr": 9267,
      "▁After": 9268,
      "补贴": 9269,
      "▁features": 9270,
      "原理": 9271,
      "come": 9272,
      "地理": 9273,
      "My": 9274,
      "reg": 9275,
      "▁coup": 9276,
      "节奏": 9277,
      "证监会": 9278,
      "▁pub": 9279,
      "▁web": 9280,
      "▁further": 9281,
      "号线": 9282,
      "urance": 9283,
      "inks": 9284,
      "▁2017": 9285,
      "写的": 9286,
      "不对": 9287,
      "点评": 9288,
      "无数": 9289,
      "NA": 9290,
      "我很": 9291,
      "进展": 9292,
      "民间": 9293,
      "▁points": 9294,
      "earch": 9295,
      "自信": 9296,
      "▁parent": 9297,
      "▁Europe": 9298,
      "▁Will": 9299,
      "所得": 9300,
      "历史上": 9301,
      "▁abs": 9302,
      "▁Bar": 9303,
      "机器人": 9304,
      "▁ens": 9305,
      "▁introdu": 9306,
      "▁table": 9307,
      "▁pretty": 9308,
      "rug": 9309,
      "请问": 9310,
      "前后": 9311,
      "接下来": 9312,
      "得知": 9313,
      "将军": 9314,
      "ien": 9315,
      "提供的": 9316,
      "心态": 9317,
      "新能源": 9318,
      "激烈": 9319,
      "▁By": 9320,
      "一周": 9321,
      "托管": 9322,
      "苏联": 9323,
      "ese": 9324,
      "oved": 9325,
      "▁beautiful": 9326,
      "▁hom": 9327,
      "82": 9328,
      "跌幅": 9329,
      "▁field": 9330,
      "▁Ge": 9331,
      "场的": 9332,
      "▁South": 9333,
      "是一名": 9334,
      "★★": 9335,
      "▁22": 9336,
      "回报": 9337,
      "IA": 9338,
      "▁probably": 9339,
      "信任": 9340,
      "频道": 9341,
      "夏天": 9342,
      "▁travel": 9343,
      "证券投资": 9344,
      "▁exam": 9345,
      "ma": 9346,
      "报价": 9347,
      "优质": 9348,
      "后期": 9349,
      "第二次": 9350,
      "视觉": 9351,
      "▁Pres": 9352,
      "展现": 9353,
      "ufact": 9354,
      "高兴": 9355,
      "考察": 9356,
      "▁Pol": 9357,
      "厉害": 9358,
      "一大": 9359,
      "市镇": 9360,
      "▁exist": 9361,
      "发生了": 9362,
      "大大": 9363,
      "看到了": 9364,
      "▁determ": 9365,
      "▁ap": 9366,
      "障碍": 9367,
      "▁小": 9368,
      "▁else": 9369,
      "采购": 9370,
      "论文": 9371,
      "▁difficult": 9372,
      "回落": 9373,
      "元的": 9374,
      "转换": 9375,
      "男女": 9376,
      "出售": 9377,
      "宿舍": 9378,
      "禁区": 9379,
      "▁age": 9380,
      "▁film": 9381,
      "EL": 9382,
      "▁questions": 9383,
      "开了": 9384,
      "之所以": 9385,
      "气质": 9386,
      "iber": 9387,
      "简介": 9388,
      "都市": 9389,
      "主流": 9390,
      "美联储": 9391,
      "剧情": 9392,
      "初步": 9393,
      "诊断": 9394,
      "▁Cor": 9395,
      "▁answ": 9396,
      "证实": 9397,
      "尺寸": 9398,
      "year": 9399,
      "▁Ke": 9400,
      "▁н": 9401,
      "最为": 9402,
      "大道": 9403,
      "议案": 9404,
      "83": 9405,
      "生素": 9406,
      "▁dig": 9407,
      "oph": 9408,
      "▁National": 9409,
      "中共": 9410,
      "▁words": 9411,
      "▁lat": 9412,
      "▁wind": 9413,
      "首发": 9414,
      "仪式": 9415,
      "阿拉": 9416,
      "▁rate": 9417,
      "国产": 9418,
      "一件": 9419,
      "买入": 9420,
      "发达": 9421,
      "你是": 9422,
      "str": 9423,
      "配备": 9424,
      "经销商": 9425,
      "在一个": 9426,
      "仔细": 9427,
      "漫画": 9428,
      "位的": 9429,
      "▁sentences": 9430,
      "总理": 9431,
      "由此": 9432,
      "海洋": 9433,
      "一代": 9434,
      "休闲": 9435,
      "传媒": 9436,
      "争议": 9437,
      "互相": 9438,
      "84": 9439,
      "大神": 9440,
      "▁install": 9441,
      "和其他": 9442,
      "她说": 9443,
      "美术": 9444,
      "▁forward": 9445,
      "▁various": 9446,
      "▁addition": 9447,
      "子里": 9448,
      "itted": 9449,
      "转变": 9450,
      "平安": 9451,
      "▁color": 9452,
      "感动": 9453,
      "▁soon": 9454,
      "像素": 9455,
      "cn": 9456,
      "▁aud": 9457,
      "iter": 9458,
      "早期": 9459,
      "厦门": 9460,
      "陷入": 9461,
      "▁coming": 9462,
      "▁style": 9463,
      "▁More": 9464,
      "中华人民共和国": 9465,
      "米兰": 9466,
      "古代": 9467,
      "前期": 9468,
      "▁added": 9469,
      "▁Our": 9470,
      "：「": 9471,
      "随便": 9472,
      "身份证": 9473,
      "▁月": 9474,
      "为此": 9475,
      "转让": 9476,
      "▁wanted": 9477,
      "审计": 9478,
      "不喜欢": 9479,
      "签订": 9480,
      "成年": 9481,
      "▁likely": 9482,
      "▁living": 9483,
      "▁stat": 9484,
      "优先": 9485,
      "tic": 9486,
      "ables": 9487,
      "售价": 9488,
      "ires": 9489,
      "格式": 9490,
      "▁writing": 9491,
      "毕业生": 9492,
      "篮球": 9493,
      "丰富的": 9494,
      "▁range": 9495,
      "Be": 9496,
      "4个": 9497,
      "定期": 9498,
      "▁Stud": 9499,
      "进去": 9500,
      "▁North": 9501,
      "Ex": 9502,
      "▁position": 9503,
      "▁circ": 9504,
      "作家": 9505,
      "▁according": 9506,
      "违规": 9507,
      "▁taken": 9508,
      "工人": 9509,
      "▁upd": 9510,
      "▁Dep": 9511,
      "olution": 9512,
      "ival": 9513,
      "清华": 9514,
      "▁issue": 9515,
      "▁track": 9516,
      "如果是": 9517,
      "基层": 9518,
      "已被": 9519,
      "92": 9520,
      "2004年": 9521,
      ")：": 9522,
      "当初": 9523,
      "微软": 9524,
      "大赛": 9525,
      "二是": 9526,
      "陕西": 9527,
      "cription": 9528,
      "血管": 9529,
      "最早": 9530,
      "的就是": 9531,
      "71": 9532,
      "▁Oct": 9533,
      "创始": 9534,
      "提交": 9535,
      "配套": 9536,
      "审议": 9537,
      "在外": 9538,
      "的能力": 9539,
      "了一下": 9540,
      "61": 9541,
      "▁foot": 9542,
      "创建": 9543,
      "▁areas": 9544,
      "▁agree": 9545,
      "收获": 9546,
      "标题": 9547,
      "▁entire": 9548,
      "▁link": 9549,
      "▁defin": 9550,
      "沈阳": 9551,
      "iple": 9552,
      "室内": 9553,
      "少女": 9554,
      "ules": 9555,
      "▁needed": 9556,
      "▁aw": 9557,
      "被称为": 9558,
      "部署": 9559,
      "凭借": 9560,
      "旁边": 9561,
      "证书": 9562,
      "一段时间": 9563,
      "注重": 9564,
      "▁necess": 9565,
      "充电": 9566,
      "arget": 9567,
      "贝尔": 9568,
      "ny": 9569,
      "▁dam": 9570,
      "aged": 9571,
      "设计师": 9572,
      "地上": 9573,
      "日期": 9574,
      "▁super": 9575,
      "▁host": 9576,
      "sy": 9577,
      "科研": 9578,
      "这一点": 9579,
      "一片": 9580,
      "建成": 9581,
      "▁training": 9582,
      "辽宁": 9583,
      "ara": 9584,
      "▁States": 9585,
      "▁nothing": 9586,
      "文物": 9587,
      "退休": 9588,
      "车主": 9589,
      "aging": 9590,
      "药品": 9591,
      "▁isn": 9592,
      "大战": 9593,
      "贫困": 9594,
      "▁office": 9595,
      "pril": 9596,
      "eks": 9597,
      "不动": 9598,
      "下面的句子": 9599,
      "的结果": 9600,
      "水果": 9601,
      "认定": 9602,
      "进了": 9603,
      "▁lo": 9604,
      "▁six": 9605,
      "给大家": 9606,
      "强大": 9607,
      "的公司": 9608,
      "”（": 9609,
      "消失": 9610,
      "▁however": 9611,
      "发射": 9612,
      "idge": 9613,
      "重复": 9614,
      "▁significant": 9615,
      "包装": 9616,
      "见到": 9617,
      "疯狂": 9618,
      "▁comment": 9619,
      "▁swe": 9620,
      "斯科": 9621,
      "▁similar": 9622,
      "====": 9623,
      "越南": 9624,
      "的企业": 9625,
      "▁Park": 9626,
      "含有": 9627,
      "同年": 9628,
      "▁etc": 9629,
      "流通": 9630,
      "预算": 9631,
      ".)": 9632,
      "物品": 9633,
      "区间": 9634,
      "短信": 9635,
      "▁Af": 9636,
      "▁treatment": 9637,
      "人大": 9638,
      "去世": 9639,
      "现状": 9640,
      "之路": 9641,
      "ule": 9642,
      "▁他": 9643,
      "▁क": 9644,
      "文艺": 9645,
      "为止": 9646,
      "itting": 9647,
      "▁true": 9648,
      "首席": 9649,
      "舒服": 9650,
      "示范": 9651,
      "minist": 9652,
      "▁docu": 9653,
      "长沙": 9654,
      "uary": 9655,
      "3D": 9656,
      "顾客": 9657,
      "一带": 9658,
      "跟着": 9659,
      "收盘": 9660,
      "amb": 9661,
      "参赛": 9662,
      "▁select": 9663,
      "▁Ob": 9664,
      "前面": 9665,
      "MS": 9666,
      "总额": 9667,
      "看完": 9668,
      "业主": 9669,
      "▁nice": 9670,
      "外交": 9671,
      "怀孕": 9672,
      "辈子": 9673,
      "联邦": 9674,
      "无疑": 9675,
      "的表现": 9676,
      "▁Now": 9677,
      "审查": 9678,
      "的孩子": 9679,
      "带动": 9680,
      "还将": 9681,
      "▁fire": 9682,
      "ha": 9683,
      "ety": 9684,
      "范围内": 9685,
      "▁fail": 9686,
      "hel": 9687,
      "作战": 9688,
      "▁risk": 9689,
      "▁Aust": 9690,
      "使用的": 9691,
      "又是": 9692,
      "发的": 9693,
      "笔者": 9694,
      "本地": 9695,
      "全市": 9696,
      "2001年": 9697,
      "各大": 9698,
      "主管": 9699,
      "超市": 9700,
      "▁Aug": 9701,
      "驱动": 9702,
      "CC": 9703,
      "▁matter": 9704,
      "rect": 9705,
      "姆斯": 9706,
      "▁asked": 9707,
      "▁estab": 9708,
      "不及": 9709,
      "▁Bu": 9710,
      "辅助": 9711,
      "诈骗": 9712,
      "生活的": 9713,
      "带领": 9714,
      "病人": 9715,
      "▁Ag": 9716,
      "2个": 9717,
      "▁rather": 9718,
      "▁higher": 9719,
      "美女": 9720,
      "帝国": 9721,
      "摄像": 9722,
      "nd": 9723,
      "▁simply": 9724,
      "新鲜": 9725,
      "5个": 9726,
      "约翰": 9727,
      "reme": 9728,
      "▁rad": 9729,
      "▁third": 9730,
      "明显的": 9731,
      "erc": 9732,
      "两位": 9733,
      "物业": 9734,
      "▁road": 9735,
      "最后一": 9736,
      "观念": 9737,
      "BS": 9738,
      "中午": 9739,
      "等地": 9740,
      "▁education": 9741,
      "ades": 9742,
      "ief": 9743,
      "▁object": 9744,
      "保养": 9745,
      "对待": 9746,
      "▁Translate": 9747,
      "吃的": 9748,
      "热点": 9749,
      "负债": 9750,
      "楼市": 9751,
      "超越": 9752,
      "构建": 9753,
      "美国的": 9754,
      "全世界": 9755,
      "▁init": 9756,
      "▁gen": 9757,
      "oes": 9758,
      "的老": 9759,
      "▁ways": 9760,
      "ij": 9761,
      "采用了": 9762,
      "原创": 9763,
      "市场上": 9764,
      "▁sle": 9765,
      "行星": 9766,
      "热情": 9767,
      "▁Spe": 9768,
      "为人": 9769,
      "券商": 9770,
      "依赖": 9771,
      "三角": 9772,
      "饰演": 9773,
      "尴尬": 9774,
      "医药": 9775,
      "▁shows": 9776,
      "▁general": 9777,
      "bor": 9778,
      "▁increase": 9779,
      "ological": 9780,
      "▁把下面的句子": 9781,
      "别人的": 9782,
      "装置": 9783,
      "den": 9784,
      "▁seems": 9785,
      "大队": 9786,
      "公布的": 9787,
      "etimes": 9788,
      "▁о": 9789,
      "当你": 9790,
      "▁有": 9791,
      "▁Center": 9792,
      "十五": 9793,
      "谨慎": 9794,
      "长江": 9795,
      "▁op": 9796,
      "传统的": 9797,
      "▁kids": 9798,
      "▁patients": 9799,
      "赶紧": 9800,
      "家居": 9801,
      "贵州": 9802,
      "明天": 9803,
      "ring": 9804,
      "ham": 9805,
      "与此": 9806,
      "第六": 9807,
      "止损": 9808,
      "▁engine": 9809,
      "发布的": 9810,
      "没有任何": 9811,
      "有利于": 9812,
      "两名": 9813,
      "本质": 9814,
      "秘密": 9815,
      "empt": 9816,
      "ends": 9817,
      "接着": 9818,
      "不一样": 9819,
      "审核": 9820,
      "▁offers": 9821,
      "1个": 9822,
      "摩托": 9823,
      "▁但是": 9824,
      "东京": 9825,
      "座椅": 9826,
      "要么": 9827,
      "▁prep": 9828,
      "以往": 9829,
      "▁El": 9830,
      "▁staff": 9831,
      "anguage": 9832,
      "制的": 9833,
      "▁consum": 9834,
      "▁Just": 9835,
      "anced": 9836,
      "每一": 9837,
      "职工": 9838,
      "▁tre": 9839,
      "▁40": 9840,
      "共享": 9841,
      "iddle": 9842,
      "你就": 9843,
      "uge": 9844,
      "▁23": 9845,
      "▁coun": 9846,
      "▁wall": 9847,
      "出门": 9848,
      "oura": 9849,
      "▁provides": 9850,
      "。(": 9851,
      "▁cook": 9852,
      "▁achie": 9853,
      "单纯": 9854,
      "谷歌": 9855,
      "两天": 9856,
      "里斯": 9857,
      "民众": 9858,
      "还不": 9859,
      "我知道": 9860,
      "▁particip": 9861,
      "~~": 9862,
      "▁property": 9863,
      "大量的": 9864,
      "▁email": 9865,
      "itten": 9866,
      "体重": 9867,
      "目前的": 9868,
      "机的": 9869,
      "分割": 9870,
      "汇率": 9871,
      "南海": 9872,
      "缓解": 9873,
      "检验": 9874,
      "360": 9875,
      "ression": 9876,
      "▁role": 9877,
      "产生的": 9878,
      "▁required": 9879,
      "ees": 9880,
      "跟我": 9881,
      "▁dom": 9882,
      "bsp": 9883,
      "实用": 9884,
      "▁natural": 9885,
      "等人": 9886,
      "iff": 9887,
      "▁不": 9888,
      "SP": 9889,
      "魅力": 9890,
      "截止": 9891,
      "▁High": 9892,
      "举报": 9893,
      "高等": 9894,
      "izing": 9895,
      "局长": 9896,
      "00元": 9897,
      "变动": 9898,
      "地说": 9899,
      "产能": 9900,
      "搭载": 9901,
      "校长": 9902,
      "上网": 9903,
      "刑事": 9904,
      "▁behind": 9905,
      "救援": 9906,
      "▁death": 9907,
      "演讲": 9908,
      "气的": 9909,
      "来讲": 9910,
      "▁yourself": 9911,
      "鸡蛋": 9912,
      "▁extra": 9913,
      "机动": 9914,
      "复习": 9915,
      "播放": 9916,
      "▁subject": 9917,
      "▁accept": 9918,
      "▁wide": 9919,
      "占据": 9920,
      "▁changes": 9921,
      "第二天": 9922,
      "▁popular": 9923,
      "不但": 9924,
      "▁represent": 9925,
      "无限": 9926,
      "程度上": 9927,
      "二手": 9928,
      "put": 9929,
      "主持人": 9930,
      "▁looks": 9931,
      "非洲": 9932,
      "委托": 9933,
      "192": 9934,
      "预警": 9935,
      "▁reading": 9936,
      "几次": 9937,
      "▁continue": 9938,
      "aced": 9939,
      "纤维": 9940,
      "留在": 9941,
      "lin": 9942,
      "▁lay": 9943,
      "较高": 9944,
      "此后": 9945,
      "假设": 9946,
      "▁norm": 9947,
      "强度": 9948,
      "特性": 9949,
      "顾问": 9950,
      "英寸": 9951,
      "raw": 9952,
      "▁{": 9953,
      "豪华": 9954,
      "私人": 9955,
      "▁production": 9956,
      "▁customers": 9957,
      "▁Pa": 9958,
      "权力": 9959,
      "ky": 9960,
      "ml": 9961,
      "引擎": 9962,
      "食用": 9963,
      "▁party": 9964,
      "▁Reg": 9965,
      "击败": 9966,
      "（），": 9967,
      "这是一个": 9968,
      "▁software": 9969,
      "增加了": 9970,
      "▁neg": 9971,
      "了个": 9972,
      "▁action": 9973,
      "人是": 9974,
      "这件事": 9975,
      "神秘": 9976,
      "清洁": 9977,
      "倾向": 9978,
      "幼儿园": 9979,
      "▁describ": 9980,
      "▁board": 9981,
      "apt": 9982,
      "轿车": 9983,
      "unities": 9984,
      "跑步": 9985,
      "▁final": 9986,
      "职务": 9987,
      "▁Off": 9988,
      "获悉": 9989,
      "▁根据": 9990,
      "________": 9991,
      "重要的是": 9992,
      "▁recent": 9993,
      "▁ut": 9994,
      "途径": 9995,
      "▁respect": 9996,
      "秘书": 9997,
      "穿着": 9998,
      "▁assist": 9999,
      "常规": 10000,
      "VR": 10001,
      "起点": 10002,
      "▁hon": 10003,
      "是以": 10004,
      "的过程": 10005,
      "▁March": 10006,
      "到现在": 10007,
      "巴黎": 10008,
      "▁impact": 10009,
      "azing": 10010,
      "的信息": 10011,
      "了我": 10012,
      "▁cover": 10013,
      "依靠": 10014,
      "▁weeks": 10015,
      "睡眠": 10016,
      "93": 10017,
      "arter": 10018,
      "认证": 10019,
      "9月2": 10020,
      "当代": 10021,
      "奶奶": 10022,
      "部位": 10023,
      "ament": 10024,
      "半场": 10025,
      "改进": 10026,
      "mit": 10027,
      "▁日": 10028,
      "▁happy": 10029,
      "▁analysis": 10030,
      "ales": 10031,
      "可爱": 10032,
      "小姐": 10033,
      "帮忙": 10034,
      "ta": 10035,
      "陆续": 10036,
      "▁Don": 10037,
      "出一": 10038,
      "公民": 10039,
      "好友": 10040,
      "▁fa": 10041,
      "▁total": 10042,
      "▁outside": 10043,
      "偶尔": 10044,
      "▁anim": 10045,
      "泰国": 10046,
      "▁stop": 10047,
      "▁network": 10048,
      "▁phone": 10049,
      "▁concern": 10050,
      "cing": 10051,
      "尔斯": 10052,
      "▁West": 10053,
      "▁Act": 10054,
      "图像": 10055,
      "领域的": 10056,
      "zz": 10057,
      "▁Art": 10058,
      "我们在": 10059,
      "190": 10060,
      "验证": 10061,
      "某个": 10062,
      "蔬菜": 10063,
      "nes": 10064,
      "气温": 10065,
      "oke": 10066,
      "APP": 10067,
      "▁coll": 10068,
      "消化": 10069,
      "打破": 10070,
      "虚拟": 10071,
      "urb": 10072,
      "出国": 10073,
      "有效的": 10074,
      "▁obs": 10075,
      "▁pric": 10076,
      "强大的": 10077,
      "我自己": 10078,
      "hib": 10079,
      "浪费": 10080,
      "81": 10081,
      "死了": 10082,
      "▁Par": 10083,
      "荷兰": 10084,
      "ica": 10085,
      "那就": 10086,
      "快递": 10087,
      "ра": 10088,
      "疑问": 10089,
      "大了": 10090,
      "的车": 10091,
      "小时候": 10092,
      "维修": 10093,
      "▁growth": 10094,
      "看好": 10095,
      "大数据": 10096,
      "予以": 10097,
      "股指": 10098,
      "紧急": 10099,
      "▁fig": 10100,
      "相当于": 10101,
      "aving": 10102,
      "结果表明": 10103,
      "▁2009": 10104,
      "几十": 10105,
      "▁box": 10106,
      "住了": 10107,
      "▁fast": 10108,
      "合约": 10109,
      "种植": 10110,
      "▁financial": 10111,
      "▁running": 10112,
      "退出": 10113,
      "▁и": 10114,
      "海南": 10115,
      "ender": 10116,
      "▁takes": 10117,
      "间的": 10118,
      "面向": 10119,
      "命运": 10120,
      "欣赏": 10121,
      "等方面": 10122,
      "No": 10123,
      "据说": 10124,
      "一生": 10125,
      "的基础上": 10126,
      "5月2": 10127,
      "四大": 10128,
      "故意": 10129,
      "想想": 10130,
      "▁systems": 10131,
      "天然气": 10132,
      "抑制": 10133,
      "试点": 10134,
      "\n\n　　": 10135,
      "的需求": 10136,
      "就开始": 10137,
      "国王": 10138,
      "coming": 10139,
      "▁Dav": 10140,
      "▁ideas": 10141,
      "收益率": 10142,
      "证券投资基金": 10143,
      "境内": 10144,
      "北方": 10145,
      "开车": 10146,
      "询问": 10147,
      "聪明": 10148,
      "气候": 10149,
      "▁saw": 10150,
      "又有": 10151,
      "签署": 10152,
      "诉讼": 10153,
      "▁Im": 10154,
      "遭到": 10155,
      "不行": 10156,
      "▁County": 10157,
      "专注": 10158,
      "ari": 10159,
      "全省": 10160,
      "更换": 10161,
      "东部": 10162,
      "NBA": 10163,
      "笔记本": 10164,
      "apan": 10165,
      "▁professional": 10166,
      "▁moment": 10167,
      "身高": 10168,
      "▁Day": 10169,
      "▁mass": 10170,
      "生日": 10171,
      "灵活": 10172,
      "现货": 10173,
      "主办": 10174,
      "▁prim": 10175,
      "专利": 10176,
      "▁investig": 10177,
      "乐观": 10178,
      "▁analy": 10179,
      "▁Feb": 10180,
      "没人": 10181,
      "▁Health": 10182,
      "能不能": 10183,
      "讲述": 10184,
      "搜狐": 10185,
      "得分": 10186,
      "based": 10187,
      "反正": 10188,
      "广西": 10189,
      "▁worth": 10190,
      "巴马": 10191,
      "▁dog": 10192,
      "性质": 10193,
      "向上": 10194,
      "lebr": 10195,
      "将来": 10196,
      "妇女": 10197,
      "的一部分": 10198,
      "▁loss": 10199,
      "的位置": 10200,
      "出身": 10201,
      "现车": 10202,
      "发电": 10203,
      "年底": 10204,
      "▁base": 10205,
      "ming": 10206,
      "▁security": 10207,
      "pm": 10208,
      "奇怪": 10209,
      "ray": 10210,
      "留言": 10211,
      "的情": 10212,
      "▁associ": 10213,
      "记载": 10214,
      "▁Some": 10215,
      "图书馆": 10216,
      ",“": 10217,
      "▁cannot": 10218,
      "▁communic": 10219,
      "▁ri": 10220,
      "overed": 10221,
      "▁announ": 10222,
      "新兴": 10223,
      "场上": 10224,
      "自行车": 10225,
      "家属": 10226,
      "▁His": 10227,
      "opy": 10228,
      "▁bott": 10229,
      "▁ball": 10230,
      "迎来": 10231,
      "关闭": 10232,
      "mon": 10233,
      "▁collect": 10234,
      "这时": 10235,
      "▁sound": 10236,
      "和谐": 10237,
      "▁Sept": 10238,
      "彼此": 10239,
      "ube": 10240,
      "的历史": 10241,
      "助于": 10242,
      "arl": 10243,
      "周一": 10244,
      "无奈": 10245,
      "Ar": 10246,
      "出行": 10247,
      "接口": 10248,
      "得很": 10249,
      "medi": 10250,
      "他们在": 10251,
      "视为": 10252,
      "▁Fin": 10253,
      "▁couple": 10254,
      "▁official": 10255,
      "是很": 10256,
      "）：": 10257,
      "▁details": 10258,
      "宇宙": 10259,
      "这家": 10260,
      "白银": 10261,
      "▁June": 10262,
      "转向": 10263,
      "正确的": 10264,
      "每月": 10265,
      "二人": 10266,
      "可以说": 10267,
      "宏观": 10268,
      "下文": 10269,
      "物的": 10270,
      "海拔": 10271,
      "后者": 10272,
      "鉴定": 10273,
      "▁anyone": 10274,
      "▁regard": 10275,
      "达到了": 10276,
      "tr": 10277,
      "▁usually": 10278,
      "氛围": 10279,
      "的手": 10280,
      "收集": 10281,
      "掉了": 10282,
      "MP": 10283,
      "▁date": 10284,
      "▁2018": 10285,
      "......": 10286,
      "一日": 10287,
      "的有": 10288,
      "济南": 10289,
      "伊朗": 10290,
      "▁tit": 10291,
      "All": 10292,
      "atory": 10293,
      "哥哥": 10294,
      "总部": 10295,
      "一部": 10296,
      "基金份额": 10297,
      "▁affect": 10298,
      "以外": 10299,
      "电子商务": 10300,
      "▁America": 10301,
      "登陆": 10302,
      "eds": 10303,
      "▁teac": 10304,
      "考核": 10305,
      "地面": 10306,
      "家中": 10307,
      "▁longer": 10308,
      "ests": 10309,
      "▁sens": 10310,
      "更高": 10311,
      "相反": 10312,
      "可惜": 10313,
      "的多": 10314,
      "有一些": 10315,
      "马克": 10316,
      "首都": 10317,
      "▁Mon": 10318,
      "弟弟": 10319,
      "违反": 10320,
      "▁provided": 10321,
      "婚礼": 10322,
      "幅度": 10323,
      "这也": 10324,
      "不然": 10325,
      "▁House": 10326,
      "的三": 10327,
      "煤炭": 10328,
      "%、": 10329,
      "去做": 10330,
      "▁version": 10331,
      "可靠": 10332,
      "94": 10333,
      "一系列": 10334,
      "成功的": 10335,
      "，”": 10336,
      "ris": 10337,
      "▁national": 10338,
      "▁word": 10339,
      "协助": 10340,
      "党的": 10341,
      "温暖": 10342,
      "许可": 10343,
      "5万": 10344,
      "委书记": 10345,
      "马拉": 10346,
      "▁inside": 10347,
      "路口": 10348,
      "4月2": 10349,
      "▁Tra": 10350,
      "大力": 10351,
      "▁stri": 10352,
      "占比": 10353,
      "时许": 10354,
      "钢铁": 10355,
      "十六": 10356,
      "IL": 10357,
      "▁flow": 10358,
      "整治": 10359,
      "onse": 10360,
      "▁Us": 10361,
      "团体": 10362,
      "卫星": 10363,
      "要是": 10364,
      "▁ill": 10365,
      "▁held": 10366,
      "曾在": 10367,
      "▁download": 10368,
      "▁bi": 10369,
      "我现在": 10370,
      "加息": 10371,
      "▁bo": 10372,
      "nbsp": 10373,
      "评级": 10374,
      "答主": 10375,
      "AA": 10376,
      "▁skin": 10377,
      "▁60": 10378,
      "▁song": 10379,
      "见面": 10380,
      "开发商": 10381,
      "头的": 10382,
      "▁Sw": 10383,
      "▁son": 10384,
      "\n\n\n\n": 10385,
      "adem": 10386,
      "▁events": 10387,
      "▁deep": 10388,
      "ipment": 10389,
      "urg": 10390,
      "▁是": 10391,
      "担保": 10392,
      "级别": 10393,
      "mas": 10394,
      "发放": 10395,
      "党员": 10396,
      "大学的": 10397,
      "哲学": 10398,
      "姐姐": 10399,
      "▁image": 10400,
      "尽快": 10401,
      "cast": 10402,
      "蓝色": 10403,
      "也就是说": 10404,
      "▁cases": 10405,
      "血液": 10406,
      "尔夫": 10407,
      "考虑到": 10408,
      "▁safe": 10409,
      "just": 10410,
      "2003年": 10411,
      "南部": 10412,
      "一部分": 10413,
      "erve": 10414,
      "场所": 10415,
      "▁pers": 10416,
      "分的": 10417,
      "女神": 10418,
      "TS": 10419,
      "的人生": 10420,
      "说说": 10421,
      "好看": 10422,
      "公开发": 10423,
      "维生素": 10424,
      "▁print": 10425,
      "卫视": 10426,
      "暴力": 10427,
      "拍照": 10428,
      "不仅仅": 10429,
      "但他": 10430,
      "新区": 10431,
      "股东大会": 10432,
      "交易日": 10433,
      "辛苦": 10434,
      "2000年": 10435,
      "也被": 10436,
      "存储": 10437,
      "aining": 10438,
      "▁indic": 10439,
      "江南": 10440,
      "争取": 10441,
      "是否有": 10442,
      "复制": 10443,
      "基督": 10444,
      "拉斯": 10445,
      "力于": 10446,
      "\".": 10447,
      "产权": 10448,
      "▁accom": 10449,
      "伊斯": 10450,
      "▁mother": 10451,
      "like": 10452,
      "却是": 10453,
      "▁sun": 10454,
      "▁ver": 10455,
      "风景": 10456,
      "便利": 10457,
      "▁contract": 10458,
      "uth": 10459,
      "继承": 10460,
      "第三方": 10461,
      "ен": 10462,
      "局面": 10463,
      "手动": 10464,
      "引入": 10465,
      "著名的": 10466,
      "▁knowledge": 10467,
      "心中": 10468,
      "签约": 10469,
      "后续": 10470,
      "这条": 10471,
      "订阅": 10472,
      "每股": 10473,
      "▁26": 10474,
      "的长": 10475,
      "处理器": 10476,
      "百年": 10477,
      "▁manufact": 10478,
      "▁unique": 10479,
      "▁Val": 10480,
      "▁deg": 10481,
      "▁sense": 10482,
      "那时候": 10483,
      "游泳": 10484,
      "拓展": 10485,
      "权威": 10486,
      "北部": 10487,
      "与其": 10488,
      "是要": 10489,
      "苏州": 10490,
      "工程师": 10491,
      "激励": 10492,
      "会被": 10493,
      "▁designed": 10494,
      "uel": 10495,
      "▁28": 10496,
      "发起": 10497,
      "落后": 10498,
      "不停": 10499,
      "毫米": 10500,
      "▁attack": 10501,
      "▁includes": 10502,
      "奥运会": 10503,
      "索尼": 10504,
      "▁sales": 10505,
      "实验室": 10506,
      "▁created": 10507,
      "在国内": 10508,
      "免疫": 10509,
      "终端": 10510,
      "6月2": 10511,
      "▁April": 10512,
      "91": 10513,
      "▁leave": 10514,
      "▁potential": 10515,
      "▁cause": 10516,
      "IV": 10517,
      "花园": 10518,
      "我对": 10519,
      "▁Sch": 10520,
      "ground": 10521,
      "都被": 10522,
      "市区": 10523,
      "HK": 10524,
      "reng": 10525,
      "▁squ": 10526,
      "▁recogn": 10527,
      "调控": 10528,
      "De": 10529,
      "某种": 10530,
      "▁feature": 10531,
      "▁policy": 10532,
      "建造": 10533,
      "airs": 10534,
      "了吧": 10535,
      "xx": 10536,
      "▁inn": 10537,
      "谈判": 10538,
      "chan": 10539,
      "下来的": 10540,
      ");": 10541,
      "上课": 10542,
      "la": 10543,
      "概率": 10544,
      "购房": 10545,
      "单独": 10546,
      "从此": 10547,
      "▁autom": 10548,
      "▁dise": 10549,
      "▁TV": 10550,
      "修复": 10551,
      "更大": 10552,
      "▁July": 10553,
      "▁file": 10554,
      "ague": 10555,
      "▁target": 10556,
      "替补": 10557,
      "台北": 10558,
      "袭击": 10559,
      "▁woman": 10560,
      "多家": 10561,
      "统治": 10562,
      "ovember": 10563,
      "的技术": 10564,
      "季节": 10565,
      "奖励": 10566,
      "信仰": 10567,
      "leased": 10568,
      "▁Inc": 10569,
      "ington": 10570,
      "GDP": 10571,
      "▁war": 10572,
      "▁boy": 10573,
      "▁heav": 10574,
      "▁upon": 10575,
      "That": 10576,
      "▁hol": 10577,
      "▁late": 10578,
      "▁cool": 10579,
      "水的": 10580,
      "余额": 10581,
      "One": 10582,
      "转化": 10583,
      "就被": 10584,
      "采访时": 10585,
      "▁2008": 10586,
      "▁grad": 10587,
      "▁books": 10588,
      "版权": 10589,
      "uses": 10590,
      "▁options": 10591,
      "▁practice": 10592,
      "▁@": 10593,
      "欧盟": 10594,
      "写作": 10595,
      "2017": 10596,
      "▁李": 10597,
      "4000": 10598,
      "▁town": 10599,
      "子公司": 10600,
      "队友": 10601,
      "京东": 10602,
      "全力": 10603,
      "周年": 10604,
      "孩子们": 10605,
      "能在": 10606,
      "履行": 10607,
      "ension": 10608,
      "密切": 10609,
      "▁sn": 10610,
      "运营商": 10611,
      "itchen": 10612,
      "CEO": 10613,
      "aly": 10614,
      "▁propos": 10615,
      "▁morning": 10616,
      "改为": 10617,
      "昆明": 10618,
      "复合": 10619,
      "扮演": 10620,
      "放入": 10621,
      "▁sil": 10622,
      "很久": 10623,
      "2018年": 10624,
      "▁recently": 10625,
      "▁blood": 10626,
      "▁cy": 10627,
      "的消息": 10628,
      "的经济": 10629,
      "婴儿": 10630,
      "线下": 10631,
      "巴巴": 10632,
      "解读": 10633,
      "导弹": 10634,
      "一套": 10635,
      "精力": 10636,
      "▁Soc": 10637,
      "ael": 10638,
      "180": 10639,
      "投诉": 10640,
      "▁王": 10641,
      "▁choose": 10642,
      "读者": 10643,
      "自杀": 10644,
      "的相关": 10645,
      "扩张": 10646,
      "认购": 10647,
      "的最": 10648,
      "下辖": 10649,
      "wood": 10650,
      "iment": 10651,
      "！”": 10652,
      "的首": 10653,
      "▁Of": 10654,
      "ournal": 10655,
      "ples": 10656,
      "ady": 10657,
      "万吨": 10658,
      "观看": 10659,
      "发布会": 10660,
      "的回答": 10661,
      "远远": 10662,
      "高效": 10663,
      "测量": 10664,
      "那就是": 10665,
      "的数据": 10666,
      "开通": 10667,
      "国家队": 10668,
      "▁countries": 10669,
      "中新": 10670,
      "现有": 10671,
      "回去": 10672,
      "表情": 10673,
      "▁exact": 10674,
      "主人": 10675,
      "引进": 10676,
      "▁speak0": 10677,
      "▁learning": 10678,
      "▁Black": 10679,
      "EM": 10680,
      "和他": 10681,
      "理性": 10682,
      "传说": 10683,
      "实现了": 10684,
      "新浪体育": 10685,
      "中山": 10686,
      "▁sat": 10687,
      "DA": 10688,
      "篮板": 10689,
      "研究所": 10690,
      "其余": 10691,
      "一看": 10692,
      "题材": 10693,
      "SUV": 10694,
      "▁modern": 10695,
      "rs": 10696,
      "项目的": 10697,
      "▁Air": 10698,
      "leg": 10699,
      "board": 10700,
      "amed": 10701,
      "一块": 10702,
      "有一种": 10703,
      "放松": 10704,
      "ester": 10705,
      "▁hit": 10706,
      "制造业": 10707,
      "在他": 10708,
      "ached": 10709,
      "结束后": 10710,
      "▁brand": 10711,
      "带有": 10712,
      "▁President": 10713,
      "▁Mus": 10714,
      "利息": 10715,
      "遗憾": 10716,
      "的两": 10717,
      "▁27": 10718,
      "▁ready": 10719,
      "发育": 10720,
      "▁contrib": 10721,
      "▁dest": 10722,
      "肌肤": 10723,
      "觉得自己": 10724,
      "zy": 10725,
      "火车": 10726,
      "▁via": 10727,
      "org": 10728,
      "1999": 10729,
      "aker": 10730,
      "IG": 10731,
      "经纪": 10732,
      "▁lower": 10733,
      "阵容": 10734,
      "???": 10735,
      "▁effic": 10736,
      "ams": 10737,
      "▁code": 10738,
      "▁ep": 10739,
      "pped": 10740,
      "ING": 10741,
      "过度": 10742,
      "数的": 10743,
      "解答": 10744,
      "设计的": 10745,
      "从业": 10746,
      "与此同时": 10747,
      "排除": 10748,
      "ст": 10749,
      "▁users": 10750,
      "At": 10751,
      "▁regular": 10752,
      "不存在": 10753,
      "▁comments": 10754,
      "orks": 10755,
      "寻求": 10756,
      "有一天": 10757,
      "这项": 10758,
      "公主": 10759,
      "判决": 10760,
      "请求": 10761,
      "▁hair": 10762,
      "信贷": 10763,
      "▁ground": 10764,
      "▁received": 10765,
      "你在": 10766,
      "相应的": 10767,
      "郑州": 10768,
      "厨房": 10769,
      "师傅": 10770,
      "亮相": 10771,
      "▁lost": 10772,
      "认知": 10773,
      "oring": 10774,
      "付出": 10775,
      "这两个": 10776,
      "变成了": 10777,
      "▁member": 10778,
[...]
